{
  "version": "1.0",
  "truncation": null,
  "padding": null,
  "added_tokens": [
    {
      "id": 0,
      "content": "<pad>",
      "single_word": false,
      "lstrip": false,
      "rstrip": false,
      "normalized": false,
      "special": true
    },
    {
      "id": 1,
      "content": "<bos>",
      "single_word": false,
      "lstrip": false,
      "rstrip": false,
      "normalized": false,
      "special": true
    },
    {
      "id": 2,
      "content": "<eos>",
      "single_word": false,
      "lstrip": false,
      "rstrip": false,
      "normalized": false,
      "special": true
    },
    {
      "id": 3,
      "content": "<unk>",
      "single_word": false,
      "lstrip": false,
      "rstrip": false,
      "normalized": false,
      "special": true
    }
  ],
  "normalizer": {
    "type": "Sequence",
    "normalizers": [
      {
        "type": "NFKC"
      }
    ]
  },
  "pre_tokenizer": {
    "type": "ByteLevel",
    "add_prefix_space": false,
    "trim_offsets": true,
    "use_regex": true
  },
  "post_processor": null,
  "decoder": {
    "type": "ByteLevel",
    "add_prefix_space": true,
    "trim_offsets": true,
    "use_regex": true
  },
  "model": {
    "type": "BPE",
    "dropout": null,
    "unk_token": "<unk>",
    "continuing_subword_prefix": null,
    "end_of_word_suffix": null,
    "fuse_unk": false,
    "byte_fallback": false,
    "ignore_merges": false,
    "vocab": {
      "<pad>": 0,
      "<bos>": 1,
      "<eos>": 2,
      "<unk>": 3,
      "!": 4,
      "\"": 5,
      "#": 6,
      "$": 7,
      "%": 8,
      "&": 9,
      "'": 10,
      "(": 11,
      ")": 12,
      "*": 13,
      "+": 14,
      ",": 15,
      "-": 16,
      ".": 17,
      "/": 18,
      "0": 19,
      "1": 20,
      "2": 21,
      "3": 22,
      "4": 23,
      "5": 24,
      "6": 25,
      "7": 26,
      "8": 27,
      "9": 28,
      ":": 29,
      ";": 30,
      "<": 31,
      "=": 32,
      ">": 33,
      "?": 34,
      "@": 35,
      "A": 36,
      "B": 37,
      "C": 38,
      "D": 39,
      "E": 40,
      "F": 41,
      "G": 42,
      "H": 43,
      "I": 44,
      "J": 45,
      "K": 46,
      "L": 47,
      "M": 48,
      "N": 49,
      "O": 50,
      "P": 51,
      "Q": 52,
      "R": 53,
      "S": 54,
      "T": 55,
      "U": 56,
      "V": 57,
      "W": 58,
      "X": 59,
      "Y": 60,
      "Z": 61,
      "[": 62,
      "\\": 63,
      "]": 64,
      "^": 65,
      "_": 66,
      "`": 67,
      "a": 68,
      "b": 69,
      "c": 70,
      "d": 71,
      "e": 72,
      "f": 73,
      "g": 74,
      "h": 75,
      "i": 76,
      "j": 77,
      "k": 78,
      "l": 79,
      "m": 80,
      "n": 81,
      "o": 82,
      "p": 83,
      "q": 84,
      "r": 85,
      "s": 86,
      "t": 87,
      "u": 88,
      "v": 89,
      "w": 90,
      "x": 91,
      "y": 92,
      "z": 93,
      "{": 94,
      "|": 95,
      "}": 96,
      "~": 97,
      "¡": 98,
      "¢": 99,
      "£": 100,
      "¤": 101,
      "¥": 102,
      "¦": 103,
      "§": 104,
      "¨": 105,
      "©": 106,
      "ª": 107,
      "«": 108,
      "¬": 109,
      "®": 110,
      "¯": 111,
      "°": 112,
      "±": 113,
      "²": 114,
      "³": 115,
      "´": 116,
      "µ": 117,
      "¶": 118,
      "·": 119,
      "¸": 120,
      "¹": 121,
      "º": 122,
      "»": 123,
      "¼": 124,
      "½": 125,
      "¾": 126,
      "¿": 127,
      "Â": 128,
      "Ã": 129,
      "Ä": 130,
      "Å": 131,
      "Æ": 132,
      "Ç": 133,
      "È": 134,
      "É": 135,
      "Ê": 136,
      "Ë": 137,
      "Ì": 138,
      "Í": 139,
      "Î": 140,
      "Ï": 141,
      "Ð": 142,
      "Ñ": 143,
      "Ò": 144,
      "Ô": 145,
      "Õ": 146,
      "Ö": 147,
      "×": 148,
      "Ø": 149,
      "Ù": 150,
      "á": 151,
      "â": 152,
      "ä": 153,
      "å": 154,
      "æ": 155,
      "ç": 156,
      "è": 157,
      "é": 158,
      "ê": 159,
      "ï": 160,
      "Ā": 161,
      "ā": 162,
      "ă": 163,
      "Ą": 164,
      "ą": 165,
      "ć": 166,
      "Ĉ": 167,
      "ĉ": 168,
      "Ċ": 169,
      "ċ": 170,
      "Č": 171,
      "ď": 172,
      "Đ": 173,
      "Ĕ": 174,
      "ĕ": 175,
      "Ė": 176,
      "Ě": 177,
      "ĝ": 178,
      "Ğ": 179,
      "ğ": 180,
      "Ġ": 181,
      "ġ": 182,
      "Ģ": 183,
      "ģ": 184,
      "Ĥ": 185,
      "ĥ": 186,
      "Ħ": 187,
      "ħ": 188,
      "Ĩ": 189,
      "ĩ": 190,
      "Ī": 191,
      "ī": 192,
      "Ĭ": 193,
      "ĭ": 194,
      "Į": 195,
      "į": 196,
      "İ": 197,
      "ı": 198,
      "Ĳ": 199,
      "ĳ": 200,
      "Ĵ": 201,
      "ĵ": 202,
      "Ķ": 203,
      "ķ": 204,
      "ĸ": 205,
      "Ĺ": 206,
      "ĺ": 207,
      "Ļ": 208,
      "ļ": 209,
      "Ľ": 210,
      "ľ": 211,
      "Ŀ": 212,
      "ŀ": 213,
      "Ł": 214,
      "ł": 215,
      "Ń": 216,
      "Ġt": 217,
      "he": 218,
      "Ġa": 219,
      "in": 220,
      "Ġthe": 221,
      "Ġo": 222,
      "ĠĠ": 223,
      "re": 224,
      "Ġw": 225,
      "Ġs": 226,
      "nd": 227,
      "er": 228,
      "ha": 229,
      "is": 230,
      "ou": 231,
      "on": 232,
      "Ġb": 233,
      "it": 234,
      "ed": 235,
      "Ġof": 236,
      "en": 237,
      "Ġf": 238,
      "Ġm": 239,
      "Ġc": 240,
      "or": 241,
      "es": 242,
      "Ġand": 243,
      "Ġto": 244,
      "ing": 245,
      "ar": 246,
      "Ġp": 247,
      "ll": 248,
      "at": 249,
      "Ġin": 250,
      "an": 251,
      "Ġd": 252,
      "ĠĠĠĠ": 253,
      "as": 254,
      "Ġl": 255,
      "Ġh": 256,
      "om": 257,
      "Ġn": 258,
      "Ġhe": 259,
      "ic": 260,
      "Ġha": 261,
      "le": 262,
      "Ġbe": 263,
      "hat": 264,
      "ot": 265,
      "st": 266,
      "Ġg": 267,
      "ĠI": 268,
      "ion": 269,
      "Ġe": 270,
      "ow": 271,
      "ut": 272,
      "ve": 273,
      "al": 274,
      "se": 275,
      "ent": 276,
      "ly": 277,
      "im": 278,
      "ld": 279,
      "ce": 280,
      "id": 281,
      "Ġth": 282,
      "Ġre": 283,
      "gh": 284,
      "Ġthat": 285,
      "Ġwas": 286,
      "Ġon": 287,
      "ir": 288,
      "et": 289,
      "ver": 290,
      "ith": 291,
      "Ġit": 292,
      "Ġwh": 293,
      "ur": 294,
      "ĠT": 295,
      "ay": 296,
      "Ġy": 297,
      "Ġu": 298,
      "Ġfor": 299,
      "Ġas": 300,
      "ro": 301,
      "ad": 302,
      "ct": 303,
      "Ġis": 304,
      "Ġwith": 305,
      "--": 306,
      "Ġhis": 307,
      "Ġwe": 308,
      "ri": 309,
      "ĠĠĠĠĠĠĠĠ": 310,
      "the": 311,
      "ĠS": 312,
      "ch": 313,
      "am": 314,
      "Ġyou": 315,
      "Ġst": 316,
      "ght": 317,
      "ĠA": 318,
      "ra": 319,
      "Ġan": 320,
      "ter": 321,
      "Ġnot": 322,
      "ĠM": 323,
      "Ġat": 324,
      "and": 325,
      "ill": 326,
      "if": 327,
      "oo": 328,
      "Ġhad": 329,
      "il": 330,
      "ĠC": 331,
      "ould": 332,
      "ain": 333,
      "ĠH": 334,
      "th": 335,
      "ich": 336,
      "ke": 337,
      "ĠThe": 338,
      "ess": 339,
      "Ġse": 340,
      "Ġby": 341,
      "ĊĊ": 342,
      "red": 343,
      "ĠB": 344,
      "Ġher": 345,
      "all": 346,
      "pe": 347,
      "rom": 348,
      "Ġsu": 349,
      "Ġ\"": 350,
      "ore": 351,
      "her": 352,
      "ul": 353,
      "ation": 354,
      "'s": 355,
      "Ġde": 356,
      "ge": 357,
      "us": 358,
      "Ġwhich": 359,
      "ac": 360,
      "Ġme": 361,
      "qu": 362,
      "Ġor": 363,
      "Ġso": 364,
      "res": 365,
      "Ġhim": 366,
      "est": 367,
      "Ġhave": 368,
      "Ġcon": 369,
      "ĠĠĠ": 370,
      "ome": 371,
      "Ġfrom": 372,
      "ĠP": 373,
      "ĠW": 374,
      "ab": 375,
      "to": 376,
      "ight": 377,
      "Ġbut": 378,
      "Ġall": 379,
      "ers": 380,
      "Ġv": 381,
      "ous": 382,
      ".\"": 383,
      "Ġsa": 384,
      "ĠL": 385,
      "nt": 386,
      "ol": 387,
      "pp": 388,
      "ant": 389,
      "em": 390,
      "Ġex": 391,
      "ist": 392,
      "Ġthis": 393,
      "os": 394,
      "Ġk": 395,
      "ust": 396,
      "Ġne": 397,
      "our": 398,
      "um": 399,
      "Ġshe": 400,
      "Ġ1": 401,
      "ard": 402,
      "Ġwere": 403,
      "Ġare": 404,
      "ie": 405,
      "Ġsh": 406,
      "Ġup": 407,
      "Ġmy": 408,
      "Ġthey": 409,
      "Ġwhe": 410,
      "Ġr": 411,
      "ĠG": 412,
      "el": 413,
      "art": 414,
      "Ġwho": 415,
      "ig": 416,
      "Ġ_": 417,
      "ate": 418,
      "ong": 419,
      "un": 420,
      "ĠF": 421,
      "ast": 422,
      "Ġdo": 423,
      "Ġman": 424,
      "Ġone": 425,
      "ind": 426,
      "very": 427,
      ",\"": 428,
      "iv": 429,
      "Ġal": 430,
      "ame": 431,
      "ĠE": 432,
      "ive": 433,
      "ĠD": 434,
      "Ġtheir": 435,
      "out": 436,
      "ound": 437,
      "The": 438,
      "pt": 439,
      "Ġcom": 440,
      "Ġthem": 441,
      "ort": 442,
      "ood": 443,
      "han": 444,
      "sel": 445,
      "ity": 446,
      "od": 447,
      "ell": 448,
      "ĊĠĠĠ": 449,
      "Ġno": 450,
      "ak": 451,
      "ĠR": 452,
      "Ġab": 453,
      "ther": 454,
      "ies": 455,
      "Ġpro": 456,
      "ost": 457,
      "ough": 458,
      "Ġwor": 459,
      "ĠĠĠĠĠĠĠĠĠĠĠĠĠĠĠĠ": 460,
      "ure": 461,
      "reat": 462,
      "Ġsaid": 463,
      "Ġle": 464,
      "ĊĠ": 465,
      "Ġbeen": 466,
      "one": 467,
      "ry": 468,
      "own": 469,
      "ĠO": 470,
      "op": 471,
      "ĠN": 472,
      "ne": 473,
      "Ġwould": 474,
      "ĊĠĠĠĠ": 475,
      "itt": 476,
      "Ġthere": 477,
      "ag": 478,
      "ff": 479,
      "Ġpl": 480,
      "ck": 481,
      "Ġwill": 482,
      "te": 483,
      "Ġout": 484,
      "ect": 485,
      "ment": 486,
      "ine": 487,
      "ĠJ": 488,
      "ish": 489,
      "hed": 490,
      "ĠHe": 491,
      "ide": 492,
      "ose": 493,
      "au": 494,
      "ook": 495,
      "ass": 496,
      "Ġar": 497,
      "ci": 498,
      "per": 499,
      "pl": 500,
      "ond": 501,
      "ace": 502,
      "Ġwhen": 503,
      "ven": 504,
      "ence": 505,
      "of": 506,
      "ance": 507,
      "Ġj": 508,
      "cc": 509,
      "self": 510,
      "ake": 511,
      "are": 512,
      "Ġfe": 513,
      "able": 514,
      "ru": 515,
      "Ġmore": 516,
      "ime": 517,
      "ack": 518,
      "Ġun": 519,
      "Ġqu": 520,
      "ice": 521,
      "Ġli": 522,
      "Ġkn": 523,
      "Ġag": 524,
      "Ġsp": 525,
      "ord": 526,
      "we": 527,
      "Ġother": 528,
      "Ġif": 529,
      "ally": 530,
      "Ġhas": 531,
      "Ġgo": 532,
      "Ġcan": 533,
      "Ġsome": 534,
      "Ġany": 535,
      "ud": 536,
      "Ġinto": 537,
      "ount": 538,
      "Ġus": 539,
      "ng": 540,
      "ade": 541,
      "Ġ(": 542,
      "Ġtw": 543,
      "fore": 544,
      "ove": 545,
      "ite": 546,
      "ire": 547,
      "Ġam": 548,
      "other": 549,
      "ble": 550,
      "Ġad": 551,
      "Ġen": 552,
      "fter": 553,
      "ep": 554,
      "be": 555,
      "av": 556,
      "'t": 557,
      "ions": 558,
      "ary": 559,
      "ĠIt": 560,
      "Ġcl": 561,
      "Ġro": 562,
      "nder": 563,
      "Ġim": 564,
      "urn": 565,
      "Ġthan": 566,
      "ars": 567,
      "Ġwhat": 568,
      "ran": 569,
      "ays": 570,
      "ree": 571,
      "ber": 572,
      "ress": 573,
      "hi": 574,
      "Ġ2": 575,
      "age": 576,
      "Ġcould": 577,
      "ated": 578,
      "Ġdis": 579,
      "Ġvery": 580,
      "ap": 581,
      "Ġyour": 582,
      "ings": 583,
      "Ġits": 584,
      "?\"": 585,
      "Ġtime": 586,
      "Ġour": 587,
      "Ġsha": 588,
      "ought": 589,
      "wn": 590,
      "Ġgreat": 591,
      "bl": 592,
      "ian": 593,
      "ittle": 594,
      "oll": 595,
      "cl": 596,
      "Ġupon": 597,
      "ious": 598,
      "Ġper": 599,
      "his": 600,
      "ach": 601,
      "uch": 602,
      "ved": 603,
      "oy": 604,
      "Ġonly": 605,
      "Ġover": 606,
      "ied": 607,
      "hing": 608,
      "Ġpr": 609,
      "ife": 610,
      "tain": 611,
      "Ġnow": 612,
      "ink": 613,
      "ick": 614,
      "ty": 615,
      "Ġabout": 616,
      "Ġpart": 617,
      "ĠMr": 618,
      "Ġlike": 619,
      "for": 620,
      "Ġknow": 621,
      "Ġbl": 622,
      "Ġthen": 623,
      "Ġdid": 624,
      "Ġbr": 625,
      "ather": 626,
      "fe": 627,
      "Ġlittle": 628,
      "Ġshould": 629,
      "ull": 630,
      "Ġagain": 631,
      "Ġsee": 632,
      "Ġtoo": 633,
      "ue": 634,
      "irst": 635,
      "Ġfl": 636,
      "Ġpre": 637,
      "Ġgr": 638,
      "Ġafter": 639,
      "Ġtwo": 640,
      "ful": 641,
      "Ġmay": 642,
      "ER": 643,
      "Ġmade": 644,
      "ile": 645,
      "man": 646,
      "ons": 647,
      "Ġhand": 648,
      "âĢ": 649,
      "de": 650,
      "ĠAnd": 651,
      "ward": 652,
      "ark": 653,
      "ness": 654,
      "Ġ'": 655,
      "Ġpe": 656,
      "----": 657,
      "Ġpo": 658,
      "ren": 659,
      "int": 660,
      "Ġcha": 661,
      "ign": 662,
      "old": 663,
      "ise": 664,
      "ĠBut": 665,
      "Ġoff": 666,
      "Ġye": 667,
      "so": 668,
      "Ġfa": 669,
      "Ġthr": 670,
      "Ġlook": 671,
      "Ġrem": 672,
      "Ġthese": 673,
      "Ġsuch": 674,
      "ps": 675,
      "_,": 676,
      "ĠIn": 677,
      "end": 678,
      "orn": 679,
      "Ġri": 680,
      "Ġgood": 681,
      "Ġmust": 682,
      "Ġdes": 683,
      "Ġbefore": 684,
      "ĊĊĠ": 685,
      "Ġhow": 686,
      "Ġunder": 687,
      "!\"": 688,
      "iss": 689,
      "Ġlong": 690,
      "ĠV": 691,
      "oss": 692,
      "Ġres": 693,
      "ory": 694,
      "ces": 695,
      "ĠK": 696,
      "ition": 697,
      "Ġmuch": 698,
      "Ġspe": 699,
      "Ġfirst": 700,
      "Ġdown": 701,
      "ath": 702,
      "ia": 703,
      "hen": 704,
      "ĠY": 705,
      "iz": 706,
      "Ġwhere": 707,
      "Ġ|": 708,
      "ater": 709,
      "ft": 710,
      "way": 711,
      "not": 712,
      "Ġ3": 713,
      "ĠSt": 714,
      "ction": 715,
      "Ġra": 716,
      "og": 717,
      "Ġsc": 718,
      "ave": 719,
      "Ġold": 720,
      "Ġmen": 721,
      "ple": 722,
      "Ġbec": 723,
      "Ġbet": 724,
      "Ġcont": 725,
      "Ġsm": 726,
      "that": 727,
      "._": 728,
      "ily": 729,
      "ced": 730,
      "Ġevery": 731,
      "ens": 732,
      "ady": 733,
      "Ġmost": 734,
      "Ġtr": 735,
      "Ġday": 736,
      "Ġch": 737,
      "Ġown": 738,
      "hes": 739,
      "mer": 740,
      "Ġwell": 741,
      "ical": 742,
      "ations": 743,
      "ors": 744,
      "Ġeven": 745,
      "ult": 746,
      "ouse": 747,
      "ict": 748,
      "Ġsay": 749,
      "land": 750,
      "led": 751,
      "Ġacc": 752,
      "wh": 753,
      "..": 754,
      "Ġimp": 755,
      "Ġwork": 756,
      "ener": 757,
      "Ġcons": 758,
      "Ġnever": 759,
      "Ġcomm": 760,
      "ried": 761,
      "ract": 762,
      "ving": 763,
      "Ġway": 764,
      "oth": 765,
      "Ġthose": 766,
      "ves": 767,
      "li": 768,
      "ever": 769,
      "Ġob": 770,
      "Ġcame": 771,
      "Ġbeing": 772,
      "Ġgl": 773,
      "resent": 774,
      "ase": 775,
      "Ġpass": 776,
      "Ġthink": 777,
      "ked": 778,
      "Ġwr": 779,
      "Ġthrough": 780,
      "Ġcome": 781,
      "Ġ18": 782,
      "Ġlife": 783,
      "Ġmight": 784,
      "con": 785,
      "aw": 786,
      "Ġseem": 787,
      "Ġmany": 788,
      "Ġback": 789,
      "ans": 790,
      "ause": 791,
      "ex": 792,
      "les": 793,
      "Ġey": 794,
      "ject": 795,
      "Ġap": 796,
      "Ġbel": 797,
      "Ġhere": 798,
      "pect": 799,
      "ĠĠĠĠĠĠ": 800,
      "Ġlet": 801,
      "Ġshall": 802,
      "Ġapp": 803,
      "med": 804,
      "Ġfound": 805,
      "Ġhimself": 806,
      "Ġent": 807,
      "Ġcall": 808,
      "less": 809,
      "Ġsame": 810,
      "Ġmake": 811,
      "atter": 812,
      "with": 813,
      "ible": 814,
      "ock": 815,
      "ople": 816,
      "Ġthought": 817,
      "ged": 818,
      "over": 819,
      "igh": 820,
      "Ġcomp": 821,
      "ished": 822,
      "ower": 823,
      "ĠCh": 824,
      "ared": 825,
      "Ġser": 826,
      "Ġatt": 827,
      "ix": 828,
      "ĠShe": 829,
      "Ġjust": 830,
      "lf": 831,
      "com": 832,
      "me": 833,
      "ollow": 834,
      "ang": 835,
      "TER": 836,
      "ial": 837,
      "Ġfri": 838,
      "ret": 839,
      "Ġear": 840,
      "omet": 841,
      "ened": 842,
      "Ġlast": 843,
      "Ġrep": 844,
      "Ġwithout": 845,
      "Ġbeg": 846,
      "up": 847,
      "Ġke": 848,
      "row": 849,
      "ents": 850,
      "Ġop": 851,
      "Ġdist": 852,
      "ertain": 853,
      "RE": 854,
      "It": 855,
      "Ġ4": 856,
      "Ġfar": 857,
      "Ġword": 858,
      "du": 859,
      "su": 860,
      "get": 861,
      "hy": 862,
      "Ġsl": 863,
      "ĊĠĠĠĠĠ": 864,
      "Ġend": 865,
      "Ġcount": 866,
      "und": 867,
      "ted": 868,
      "cess": 869,
      "AL": 870,
      "Ġsub": 871,
      "ates": 872,
      "00": 873,
      "aking": 874,
      "Ġhead": 875,
      "ince": 876,
      "ks": 877,
      "ms": 878,
      "He": 879,
      "ered": 880,
      "ined": 881,
      "ild": 882,
      "Ġcar": 883,
      "rest": 884,
      "Ġstill": 885,
      "Ġwent": 886,
      "ual": 887,
      "Ġret": 888,
      "Ġplace": 889,
      "Ġget": 890,
      "Ġaway": 891,
      "Ġwom": 892,
      "Ġwhile": 893,
      "uth": 894,
      "Ġright": 895,
      "ited": 896,
      "was": 897,
      "Ġpeople": 898,
      "Ġturn": 899,
      "ss": 900,
      "Ġnew": 901,
      "Ġalso": 902,
      "Ġ*": 903,
      "rd": 904,
      "Ġtake": 905,
      "but": 906,
      "Ġte": 907,
      "Ġsupp": 908,
      "Ġrel": 909,
      "Ġem": 910,
      "its": 911,
      "here": 912,
      "Ġac": 913,
      "ĠThey": 914,
      "Ġnat": 915,
      ".,": 916,
      "ĠU": 917,
      "Ġyoung": 918,
      "hild": 919,
      "Ġfriend": 920,
      "ins": 921,
      "Ġappe": 922,
      "Ġtra": 923,
      "Ġcour": 924,
      "ĊĊĠĠĠ": 925,
      "cept": 926,
      "ope": 927,
      "Ġsec": 928,
      "air": 929,
      "Ġinst": 930,
      "ner": 931,
      "imes": 932,
      "Ġfollow": 933,
      "Ġdif": 934,
      "HE": 935,
      "Ġeyes": 936,
      "aid": 937,
      "ither": 938,
      "ON": 939,
      "Ġset": 940,
      "ular": 941,
      "ĠThis": 942,
      "vent": 943,
      "Ġyears": 944,
      "Ġreg": 945,
      "ip": 946,
      "ently": 947,
      "most": 948,
      "Ġgiv": 949,
      "Ġpers": 950,
      "ool": 951,
      "ween": 952,
      "Ġhouse": 953,
      "ways": 954,
      "ĠWe": 955,
      "Ġput": 956,
      "Ġchild": 957,
      "oc": 958,
      "der": 959,
      "ail": 960,
      "Ġyet": 961,
      "ning": 962,
      "Ġbo": 963,
      "Ġthree": 964,
      "Ġ[": 965,
      "ĠGod": 966,
      "vers": 967,
      "ew": 968,
      "Ġthough": 969,
      "ten": 970,
      "Ġever": 971,
      "Ġheart": 972,
      "Ġwar": 973,
      "Ġexp": 974,
      "cy": 975,
      "Ġrec": 976,
      "Ġleft": 977,
      "by": 978,
      "Ġtell": 979,
      "ĠEng": 980,
      "ale": 981,
      "Ġsur": 982,
      "Ġonce": 983,
      "ody": 984,
      "Ġmar": 985,
      "thing": 986,
      "ting": 987,
      "ET": 988,
      "rit": 989,
      "gg": 990,
      "ived": 991,
      "Ġanother": 992,
      "ĠTh": 993,
      "ures": 994,
      "ob": 995,
      "aut": 996,
      "Ġnight": 997,
      "Ġfew": 998,
      "Ġgra": 999,
      "Ġposs": 1000,
      "Ġfind": 1001,
      "den": 1002,
      "sp": 1003,
      "ised": 1004,
      "Ġagainst": 1005,
      "ser": 1006,
      "cha": 1007,
      "Ġlove": 1008,
      "Ġwant": 1009,
      "osed": 1010,
      "sh": 1011,
      "Ġact": 1012,
      "Ġsomet": 1013,
      "ĠThere": 1014,
      "ph": 1015,
      "ired": 1016,
      "Ġpresent": 1017,
      "rew": 1018,
      "Ġ5": 1019,
      "ier": 1020,
      "And": 1021,
      "Ġface": 1022,
      "Ġlight": 1023,
      "Ġeach": 1024,
      "fl": 1025,
      "ts": 1026,
      "act": 1027,
      "Ġgener": 1028,
      "Ġocc": 1029,
      "Ġmind": 1030,
      "ters": 1031,
      "But": 1032,
      "Ġgive": 1033,
      "Ġworld": 1034,
      "ffect": 1035,
      "Ġple": 1036,
      "ubl": 1037,
      "ĠĠĠĠĠĠĠĠĠĠĠĠĠĠĠĠĠĠĠĠĠĠĠĠĠĠĠĠĠĠĠĠ": 1038,
      "als": 1039,
      "ont": 1040,
      "Ġlar": 1041,
      "Ġnor": 1042,
      "Ġsaw": 1043,
      "Ġnothing": 1044,
      "Ġint": 1045,
      "aken": 1046,
      "new": 1047,
      "ief": 1048,
      "ib": 1049,
      "Ġnear": 1050,
      "Ġchan": 1051,
      "my": 1052,
      "men": 1053,
      "ton": 1054,
      "tend": 1055,
      "Ġtook": 1056,
      "aught": 1057,
      "any": 1058,
      "alk": 1059,
      "Ġbetween": 1060,
      "vel": 1061,
      "ross": 1062,
      "Ġind": 1063,
      "apt": 1064,
      "Ġkind": 1065,
      "ows": 1066,
      "Ġco": 1067,
      "att": 1068,
      "ating": 1069,
      "Ġpur": 1070,
      "oot": 1071,
      "iness": 1072,
      "ii": 1073,
      "which": 1074,
      "rist": 1075,
      "irl": 1076,
      "In": 1077,
      "pr": 1078,
      "ched": 1079,
      "ason": 1080,
      "'ll": 1081,
      "Ġside": 1082,
      "Ġrest": 1083,
      "Ġev": 1084,
      "ĊĠĠĠĠĠĠĠĠ": 1085,
      ".--": 1086,
      "selves": 1087,
      "Ġalways": 1088,
      "Ġname": 1089,
      "Ġread": 1090,
      "Ġdon": 1091,
      "IN": 1092,
      "ully": 1093,
      ",--": 1094,
      "Ġthings": 1095,
      "cri": 1096,
      "Ġgu": 1097,
      ".'": 1098,
      "Ġfather": 1099,
      "Ġhapp": 1100,
      "Ġadd": 1101,
      "ee": 1102,
      "Ġmom": 1103,
      "You": 1104,
      "uring": 1105,
      "Ġwater": 1106,
      "rent": 1107,
      "ĠYou": 1108,
      "Ġcalled": 1109,
      "ments": 1110,
      "Ġreturn": 1111,
      "read": 1112,
      "Ġwhole": 1113,
      "eth": 1114,
      "),": 1115,
      "ĊĊĊĊ": 1116,
      "Ġcertain": 1117,
      "Ġter": 1118,
      "you": 1119,
      "Ġamong": 1120,
      "Ġsmall": 1121,
      "Ġstr": 1122,
      "Ġfeel": 1123,
      "ene": 1124,
      "pro": 1125,
      "Ġstre": 1126,
      "Ġhome": 1127,
      "Ġinc": 1128,
      "ĠAs": 1129,
      "aster": 1130,
      "Ġconf": 1131,
      "Ġsoon": 1132,
      "ities": 1133,
      "Ġcountry": 1134,
      "oh": 1135,
      "Ġseen": 1136,
      "Ġ6": 1137,
      "ALL": 1138,
      "Ġboth": 1139,
      "ec": 1140,
      "wards": 1141,
      "ern": 1142,
      "Ġinter": 1143,
      "Ġmon": 1144,
      "Ġhands": 1145,
      "pped": 1146,
      "Ġans": 1147,
      "Ġbu": 1148,
      "Ġfell": 1149,
      "ute": 1150,
      "ĠHis": 1151,
      "ĠIf": 1152,
      "REE": 1153,
      "terest": 1154,
      "ĠĠĠĠĠ": 1155,
      "Ġsent": 1156,
      "oun": 1157,
      "outh": 1158,
      "Ġmin": 1159,
      "Ġdone": 1160,
      "Ġpoint": 1161,
      "Ġwhom": 1162,
      "ETTER": 1163,
      "Ġhaving": 1164,
      "Ġhalf": 1165,
      "Ġsw": 1166,
      "Ġcle": 1167,
      "Ġfam": 1168,
      "iet": 1169,
      "br": 1170,
      "rem": 1171,
      "gether": 1172,
      "Ġref": 1173,
      "Ġdisc": 1174,
      "{~": 1175,
      "~}": 1176,
      ".]": 1177,
      "ĠLETTER": 1178,
      "Ġthing": 1179,
      "Ġhum": 1180,
      "Ġcare": 1181,
      "Ġfact": 1182,
      "'d": 1183,
      "ately": 1184,
      "Ġform": 1185,
      "Ġdra": 1186,
      "Ġtold": 1187,
      "lish": 1188,
      "Ġlooked": 1189,
      "az": 1190,
      "ield": 1191,
      "Ġland": 1192,
      "GREE": 1193,
      "Ġmoment": 1194,
      "Ġdays": 1195,
      "ably": 1196,
      "amp": 1197,
      "GREEK": 1198,
      "ird": 1199,
      "Ġart": 1200,
      "elt": 1201,
      "ĠMrs": 1202,
      "Ġless": 1203,
      "Ġbecause": 1204,
      "Ġroom": 1205,
      "Ġhour": 1206,
      "ger": 1207,
      "Ġasked": 1208,
      "Ġseemed": 1209,
      "Ġsat": 1210,
      "ĠSM": 1211,
      "had": 1212,
      "ĠAn": 1213,
      "Ġboy": 1214,
      "Ġheard": 1215,
      "ines": 1216,
      "unt": 1217,
      "II": 1218,
      "ants": 1219,
      "ĠFor": 1220,
      "ider": 1221,
      "Ġunt": 1222,
      "Ġnum": 1223,
      "_.": 1224,
      "now": 1225,
      "Ġgot": 1226,
      "ĠSMALL": 1227,
      "oub": 1228,
      "Ġwoman": 1229,
      "Ġbest": 1230,
      "Ġass": 1231,
      "AN": 1232,
      "Ġpower": 1233,
      "Ġgoing": 1234,
      "Ġlarge": 1235,
      "ote": 1236,
      "Ġcond": 1237,
      "Ġbetter": 1238,
      "Ġcourse": 1239,
      "xt": 1240,
      "Ġext": 1241,
      "Ġhard": 1242,
      "Ġadv": 1243,
      "Ġbelie": 1244,
      "Ġgirl": 1245,
      "ling": 1246,
      "owed": 1247,
      "Ġtru": 1248,
      "AR": 1249,
      "Ġdel": 1250,
      "oice": 1251,
      "osition": 1252,
      "Ġmatter": 1253,
      "Ġcur": 1254,
      "ution": 1255,
      "ustr": 1256,
      "Ġmother": 1257,
      "ug": 1258,
      "Ġhowever": 1259,
      "aring": 1260,
      "Ġwind": 1261,
      "arn": 1262,
      "Ġsil": 1263,
      "ians": 1264,
      "Ġcr": 1265,
      "haps": 1266,
      "Ġknew": 1267,
      "Ġtri": 1268,
      "day": 1269,
      "Ġche": 1270,
      "ceed": 1271,
      "Ġstand": 1272,
      "urch": 1273,
      "ives": 1274,
      "ison": 1275,
      "orning": 1276,
      "Ġdoes": 1277,
      "Ġfore": 1278,
      "atch": 1279,
      "ific": 1280,
      "ention": 1281,
      "ĠTo": 1282,
      "cted": 1283,
      "Ġhigh": 1284,
      "ury": 1285,
      "ĠAt": 1286,
      "gr": 1287,
      "Ġste": 1288,
      "Ġbro": 1289,
      "Ġpleas": 1290,
      "Ġenough": 1291,
      "Ġsk": 1292,
      "har": 1293,
      "Ġquite": 1294,
      "ident": 1295,
      "gin": 1296,
      "Ġvis": 1297,
      "ohn": 1298,
      "Ġsim": 1299,
      "ages": 1300,
      "Ġalmost": 1301,
      "Ġtaken": 1302,
      "Ġfour": 1303,
      "ense": 1304,
      "Ġgiven": 1305,
      "âĢĻ": 1306,
      "ub": 1307,
      "ches": 1308,
      "Ġwords": 1309,
      "Ġuse": 1310,
      "oon": 1311,
      "ĠLord": 1312,
      "ĠWhen": 1313,
      "Ġinterest": 1314,
      "Ġel": 1315,
      ",'": 1316,
      "ets": 1317,
      "Ġgave": 1318,
      "ually": 1319,
      "ey": 1320,
      "Ġsuff": 1321,
      "stand": 1322,
      "fic": 1323,
      "Ġremain": 1324,
      "Ġrece": 1325,
      "Ġ8": 1326,
      "oved": 1327,
      "ĠMar": 1328,
      "--------": 1329,
      "EN": 1330,
      "Ġopen": 1331,
      "oud": 1332,
      "ĠThen": 1333,
      "ĠAr": 1334,
      "bed": 1335,
      "Ġ17": 1336,
      "Ġbeaut": 1337,
      "Ġkeep": 1338,
      "Ġuntil": 1339,
      "ublic": 1340,
      "estion": 1341,
      "Ġlaw": 1342,
      "ung": 1343,
      "Ġcol": 1344,
      "form": 1345,
      "Ġinde": 1346,
      "ĠInd": 1347,
      "Ġdoor": 1348,
      "ĠChrist": 1349,
      "Ġes": 1350,
      "ĠTHE": 1351,
      "right": 1352,
      "mon": 1353,
      "ĠĠĠĠĠĠĠĠĠĠĠĠĠĠĠĠĠĠĠĠĠĠĠĠ": 1354,
      "iew": 1355,
      "used": 1356,
      "oney": 1357,
      "ank": 1358,
      "ĊĠĠ": 1359,
      "ides": 1360,
      "ided": 1361,
      "Ġhor": 1362,
      "eter": 1363,
      "ured": 1364,
      "undred": 1365,
      "aim": 1366,
      "fully": 1367,
      "fort": 1368,
      "ev": 1369,
      "Ġbre": 1370,
      "Ġdep": 1371,
      "ĠOn": 1372,
      "Ġbrought": 1373,
      "ressed": 1374,
      "Ġsy": 1375,
      "oul": 1376,
      "Ġwhose": 1377,
      "Ġfr": 1378,
      "Ġcontin": 1379,
      "Ġperson": 1380,
      "ative": 1381,
      "hip": 1382,
      "Ġdeath": 1383,
      "Ġcent": 1384,
      "Ġwa": 1385,
      "fect": 1386,
      "irc": 1387,
      "Ġsince": 1388,
      "Ġhel": 1389,
      "oke": 1390,
      "Ġsomething": 1391,
      "Ġfull": 1392,
      "ken": 1393,
      "ached": 1394,
      "ery": 1395,
      "Ġneed": 1396,
      "~}{~": 1397,
      "him": 1398,
      "Ġround": 1399,
      "ering": 1400,
      "Ġins": 1401,
      "OR": 1402,
      "Ġ7": 1403,
      "ĊĊĠĠĠĠ": 1404,
      "Ġdire": 1405,
      "Ġbus": 1406,
      "ism": 1407,
      "Ġyear": 1408,
      "Ġadm": 1409,
      "Ġserv": 1410,
      "Ġmil": 1411,
      "Ġothers": 1412,
      "Ġdiffe": 1413,
      "wor": 1414,
      "What": 1415,
      "âĢľ": 1416,
      "Ġorder": 1417,
      "Ġmorning": 1418,
      "Ġele": 1419,
      "Ġwhite": 1420,
      "Ġprop": 1421,
      "Ġpri": 1422,
      "empt": 1423,
      "HA": 1424,
      "Ġdec": 1425,
      "Ġcannot": 1426,
      "Ġchar": 1427,
      "Ġbook": 1428,
      "ES": 1429,
      "Ġopp": 1430,
      "ĠMiss": 1431,
      "range": 1432,
      "akes": 1433,
      "Ġed": 1434,
      "Ġinv": 1435,
      "ude": 1436,
      "Ġfeet": 1437,
      "ĠAl": 1438,
      "Ġplac": 1439,
      "entle": 1440,
      "ĠPr": 1441,
      "ances": 1442,
      "king": 1443,
      "Ġfall": 1444,
      "Ġnext": 1445,
      "ĠThat": 1446,
      "ister": 1447,
      "Ġmean": 1448,
      "Ġrather": 1449,
      "Ġpoor": 1450,
      "irit": 1451,
      "ĠWhat": 1452,
      "Ġturned": 1453,
      "Ġused": 1454,
      "âĢĿ": 1455,
      "ient": 1456,
      "We": 1457,
      "hil": 1458,
      "rence": 1459,
      "ĠNo": 1460,
      "ĠJohn": 1461,
      "racter": 1462,
      "from": 1463,
      "Ġcor": 1464,
      "ott": 1465,
      "Ġcase": 1466,
      "Ġdoub": 1467,
      "ash": 1468,
      "oint": 1469,
      "Ġpres": 1470,
      "Ġfin": 1471,
      "Ġsun": 1472,
      "ĠSo": 1473,
      "Ġfelt": 1474,
      "Ġbegan": 1475,
      "Ġhon": 1476,
      "Ġking": 1477,
      "Ġthemselves": 1478,
      "Ġreal": 1479,
      "bit": 1480,
      "ah": 1481,
      "Ġtill": 1482,
      "ready": 1483,
      "Ġdark": 1484,
      "Ġsure": 1485,
      "Ġtrue": 1486,
      "eng": 1487,
      "aint": 1488,
      "Ġide": 1489,
      "There": 1490,
      "use": 1491,
      "have": 1492,
      "Ġpol": 1493,
      "Ġabove": 1494,
      "She": 1495,
      "Ġill": 1496,
      "enty": 1497,
      "par": 1498,
      "Ġprom": 1499,
      "rans": 1500,
      "Ġoften": 1501,
      "Ġhundred": 1502,
      "Ġfire": 1503,
      "mb": 1504,
      "Ġsays": 1505,
      "Ġthus": 1506,
      "meric": 1507,
      "ature": 1508,
      ").": 1509,
      "Ġknown": 1510,
      "ĠUn": 1511,
      "what": 1512,
      "ying": 1513,
      "ring": 1514,
      "pend": 1515,
      "cial": 1516,
      "Ġ16": 1517,
      "iled": 1518,
      "uc": 1519,
      "Ġtogether": 1520,
      "ural": 1521,
      "Ġnecess": 1522,
      "Ġstood": 1523,
      "Ġwife": 1524,
      "Ġvoice": 1525,
      "IT": 1526,
      "iting": 1527,
      "ards": 1528,
      "Ġsubject": 1529,
      "ĠSp": 1530,
      "ility": 1531,
      "Ġswe": 1532,
      "uss": 1533,
      "Ġmet": 1534,
      "they": 1535,
      "Ġconst": 1536,
      "ole": 1537,
      "ized": 1538,
      "ges": 1539,
      "No": 1540,
      "Ġstrong": 1541,
      "well": 1542,
      "Ġair": 1543,
      "Ġest": 1544,
      "though": 1545,
      "Ġmyself": 1546,
      "Ġplay": 1547,
      "ham": 1548,
      "Ġaff": 1549,
      "ric": 1550,
      "peri": 1551,
      "Ġlay": 1552,
      "rench": 1553,
      "app": 1554,
      "overed": 1555,
      "ĠEnglish": 1556,
      "uthor": 1557,
      "ef": 1558,
      "Ġsing": 1559,
      "ĠKing": 1560,
      "ames": 1561,
      "ccess": 1562,
      "son": 1563,
      "uck": 1564,
      "Ġshort": 1565,
      "Ġalong": 1566,
      "illed": 1567,
      "Ġvar": 1568,
      "Ġson": 1569,
      "Ġhold": 1570,
      "Ġpassed": 1571,
      "'m": 1572,
      "Ġreason": 1573,
      "ĠNew": 1574,
      "Ġspeak": 1575,
      "Ġrun": 1576,
      "she": 1577,
      "Ġtown": 1578,
      "ĀĀ": 1579,
      "Ġsecond": 1580,
      "Ġmod": 1581,
      "where": 1582,
      "Ġaw": 1583,
      "Ġdear": 1584,
      "veral": 1585,
      "Ġsix": 1586,
      "iful": 1587,
      "Ġrepl": 1588,
      "Ġwond": 1589,
      "ĠSir": 1590,
      "Ġsle": 1591,
      "Ġhope": 1592,
      "iter": 1593,
      "This": 1594,
      "Ġhelp": 1595,
      "Ġground": 1596,
      "Ġmeans": 1597,
      "Ġ15": 1598,
      "ousand": 1599,
      "ĠOF": 1600,
      "Ġbody": 1601,
      "Ġfriends": 1602,
      "this": 1603,
      "owing": 1604,
      "che": 1605,
      "ĠĠĠĠĠĠĠ": 1606,
      "Ġchildren": 1607,
      "Ġmoney": 1608,
      "Ġexc": 1609,
      "iving": 1610,
      "itted": 1611,
      "ĠIs": 1612,
      "ius": 1613,
      "Ġpar": 1614,
      "ists": 1615,
      "Ġclose": 1616,
      "ax": 1617,
      "tern": 1618,
      "wer": 1619,
      "Ġsign": 1620,
      "Ġdr": 1621,
      "Ġtimes": 1622,
      "Ġprodu": 1623,
      "ety": 1624,
      "oor": 1625,
      "Ġconsider": 1626,
      "Ġeffect": 1627,
      "ĠQ": 1628,
      "inci": 1629,
      "Ġduring": 1630,
      "Ġherself": 1631,
      "Ġdoubt": 1632,
      "Ġbelieve": 1633,
      "ĠBe": 1634,
      "ĠCom": 1635,
      "there": 1636,
      "ĠX": 1637,
      "ane": 1638,
      "ued": 1639,
      "chool": 1640,
      "une": 1641,
      "Ġ9": 1642,
      "were": 1643,
      "Ġ.": 1644,
      "ert": 1645,
      "Ġwithin": 1646,
      "aj": 1647,
      "Ġleast": 1648,
      "18": 1649,
      "Ġcirc": 1650,
      "aptain": 1651,
      "ices": 1652,
      "ony": 1653,
      "Ġbeh": 1654,
      "Ġpain": 1655,
      "their": 1656,
      "IS": 1657,
      "Ġcharacter": 1658,
      "cul": 1659,
      "aven": 1660,
      "ream": 1661,
      "Ġmeet": 1662,
      "Yes": 1663,
      "Ġfur": 1664,
      "ĠHer": 1665,
      "Ġsum": 1666,
      "ination": 1667,
      "ĠNor": 1668,
      "Ġanything": 1669,
      "'ve": 1670,
      "Ġabs": 1671,
      "llustr": 1672,
      "Ġgre": 1673,
      "ats": 1674,
      "Ġgentle": 1675,
      "dden": 1676,
      "Ġhear": 1677,
      "Ġcried": 1678,
      "Ġ19": 1679,
      "like": 1680,
      "Ġalone": 1681,
      "Ġitself": 1682,
      "Ġquestion": 1683,
      "Ġnature": 1684,
      "Ġcap": 1685,
      "Mr": 1686,
      "Ġlead": 1687,
      "Ġnumber": 1688,
      "ney": 1689,
      "Ġheld": 1690,
      "val": 1691,
      "Ġeas": 1692,
      "Ġ10": 1693,
      "Ġobser": 1694,
      "Ġblack": 1695,
      "Ġdev": 1696,
      "them": 1697,
      "Ġrequ": 1698,
      "Ġmer": 1699,
      "ĠAmeric": 1700,
      "Ġgeneral": 1701,
      "Ġlau": 1702,
      "ĠDe": 1703,
      "Ġobject": 1704,
      "Ġexpl": 1705,
      "Ġten": 1706,
      "idence": 1707,
      "Ġdeep": 1708,
      "Oh": 1709,
      "Ġgone": 1710,
      "nment": 1711,
      "Ġ12": 1712,
      "Ġseveral": 1713,
      "Ġtre": 1714,
      "ĠAll": 1715,
      "Ġdiv": 1716,
      "co": 1717,
      "Ġbra": 1718,
      "Ġequ": 1719,
      "ountain": 1720,
      "rop": 1721,
      "Ġprov": 1722,
      "ember": 1723,
      "Ġalready": 1724,
      "iam": 1725,
      "Ġperhaps": 1726,
      "cious": 1727,
      "Ġearth": 1728,
      "Ġdead": 1729,
      "Ġappear": 1730,
      "aves": 1731,
      "asion": 1732,
      "Ġcommon": 1733,
      "rance": 1734,
      "ĠCl": 1735,
      "Ġsudden": 1736,
      "Ġwood": 1737,
      "Ġbed": 1738,
      "Ġsea": 1739,
      "IL": 1740,
      "Ġstart": 1741,
      "Ġindeed": 1742,
      "sc": 1743,
      "Ġstru": 1744,
      "Ġhuman": 1745,
      "Ġthou": 1746,
      "Ġproper": 1747,
      "That": 1748,
      "Ġwomen": 1749,
      "Ġeither": 1750,
      "Ġstate": 1751,
      "ster": 1752,
      "Ġcity": 1753,
      "ĠEngland": 1754,
      "Ġview": 1755,
      "AT": 1756,
      "wered": 1757,
      "ek": 1758,
      "Ġbur": 1759,
      "Ġpublic": 1760,
      "Ġaccount": 1761,
      "ality": 1762,
      "Ġimport": 1763,
      "Ġpat": 1764,
      "Ġdri": 1765,
      "hile": 1766,
      "ament": 1767,
      "Ġleave": 1768,
      "Ġce": 1769,
      "Ġletter": 1770,
      "aughter": 1771,
      "ron": 1772,
      "alth": 1773,
      "Ġtalk": 1774,
      "rying": 1775,
      "Ġsoul": 1776,
      "Ġoffic": 1777,
      "ording": 1778,
      "Ġthy": 1779,
      "Ġspirit": 1780,
      "ement": 1781,
      "Ġtherefore": 1782,
      "Ġmis": 1783,
      "Ġdifferent": 1784,
      "no": 1785,
      "ising": 1786,
      "Ġthousand": 1787,
      "Ġreplied": 1788,
      "Ġvol": 1789,
      "Ġcut": 1790,
      "Ġbrother": 1791,
      "Ġmanner": 1792,
      "ĠBy": 1793,
      "oura": 1794,
      "tained": 1795,
      "iously": 1796,
      "ics": 1797,
      "Ġbecame": 1798,
      "ĠFrench": 1799,
      "ley": 1800,
      "ĠHow": 1801,
      "ĠGer": 1802,
      "orrow": 1803,
      "Ġstud": 1804,
      "Ġhist": 1805,
      "ĠPar": 1806,
      "Ġsuccess": 1807,
      "Ġbecome": 1808,
      "--\"": 1809,
      "ounded": 1810,
      "dis": 1811,
      "Ġfree": 1812,
      "olog": 1813,
      "Ġinf": 1814,
      "IC": 1815,
      "Ġfair": 1816,
      "mp": 1817,
      "Ġir": 1818,
      "tered": 1819,
      "ission": 1820,
      "ls": 1821,
      "Ġrespect": 1822,
      "ĠLe": 1823,
      "Ġhar": 1824,
      "ining": 1825,
      "owers": 1826,
      "Ġclear": 1827,
      "Ġremark": 1828,
      "under": 1829,
      "Ġbring": 1830,
      "Illustr": 1831,
      "side": 1832,
      "Ġbar": 1833,
      "ught": 1834,
      "Ġval": 1835,
      "ained": 1836,
      "que": 1837,
      "Ġauthor": 1838,
      "Ġran": 1839,
      "ression": 1840,
      "Ġfav": 1841,
      "ĠRe": 1842,
      "ased": 1843,
      "Ġtruth": 1844,
      "Ġca": 1845,
      "Ġpossess": 1846,
      "Ġprof": 1847,
      "ho": 1848,
      "Ġeng": 1849,
      "Ġport": 1850,
      "Ġwish": 1851,
      "Ġlive": 1852,
      "ĊĠĠĠĠĠĠĠ": 1853,
      "band": 1854,
      "Ġstra": 1855,
      "arch": 1856,
      "Ġcommand": 1857,
      "head": 1858,
      "Ġfamily": 1859,
      "ĠWith": 1860,
      "Ġred": 1861,
      "lled": 1862,
      "iar": 1863,
      "pre": 1864,
      "Ġfre": 1865,
      "ĠCon": 1866,
      "Ġii": 1867,
      "cons": 1868,
      "let": 1869,
      "Ġconc": 1870,
      "Ġmid": 1871,
      "Ġlo": 1872,
      "Ġfive": 1873,
      "Ġcomple": 1874,
      "Ġfort": 1875,
      "Ġlady": 1876,
      "Ġanswered": 1877,
      "Ġtem": 1878,
      "Illustration": 1879,
      "Ġfear": 1880,
      "Ġlost": 1881,
      "Ġwhether": 1882,
      "arent": 1883,
      "Ġmark": 1884,
      ".)": 1885,
      "Ġexpect": 1886,
      "ues": 1887,
      "Ġpurp": 1888,
      "enn": 1889,
      "itions": 1890,
      "Ġpast": 1891,
      "would": 1892,
      "Ġpossible": 1893,
      "Ġline": 1894,
      "ĠWill": 1895,
      "ped": 1896,
      "Ġexam": 1897,
      "Ġperfect": 1898,
      "ann": 1899,
      "Ġet": 1900,
      "Ġdiffic": 1901,
      "icular": 1902,
      "Ġbehind": 1903,
      "cing": 1904,
      "attle": 1905,
      "Ġi": 1906,
      "Ġ14": 1907,
      "Ġcoll": 1908,
      "Ġru": 1909,
      "mber": 1910,
      "Ġgold": 1911,
      "medi": 1912,
      "ones": 1913,
      "....": 1914,
      "Ġmus": 1915,
      "eneral": 1916,
      "Ġjud": 1917,
      "ĠBr": 1918,
      "gy": 1919,
      "Ġmaking": 1920,
      "isf": 1921,
      "Well": 1922,
      "Ġkept": 1923,
      "ondon": 1924,
      "orm": 1925,
      "Ġgover": 1926,
      "Ġarri": 1927,
      "tended": 1928,
      "reg": 1929,
      "inter": 1930,
      "Ġfine": 1931,
      "Ġmere": 1932,
      "Ġwall": 1933,
      "iment": 1934,
      "room": 1935,
      "Ġprob": 1936,
      "HAP": 1937,
      "ots": 1938,
      "Ġsort": 1939,
      "rigin": 1940,
      "ouble": 1941,
      "ilt": 1942,
      "aper": 1943,
      "ize": 1944,
      "sequ": 1945,
      "Ġwhy": 1946,
      "Ġut": 1947,
      "bs": 1948,
      "Ġdecl": 1949,
      "Ġroad": 1950,
      "cript": 1951,
      "Ġtrans": 1952,
      "Ġexcept": 1953,
      "Ġable": 1954,
      "Ġchief": 1955,
      "Ġ13": 1956,
      "cient": 1957,
      "body": 1958,
      "Ġmonth": 1959,
      "do": 1960,
      "Ġdest": 1961,
      "ctor": 1962,
      "ledge": 1963,
      "ging": 1964,
      "night": 1965,
      "Ġ=": 1966,
      "cle": 1967,
      "Ġbes": 1968,
      "aving": 1969,
      "Ġseems": 1970,
      "Ġaround": 1971,
      "Ġregard": 1972,
      "Ġunderstand": 1973,
      "Ġcoming": 1974,
      "flu": 1975,
      "pper": 1976,
      "will": 1977,
      "Ġfollowing": 1978,
      "Ġbusiness": 1979,
      "Ġhorse": 1980,
      "dle": 1981,
      "They": 1982,
      "Ġfig": 1983,
      "ases": 1984,
      "ĠPro": 1985,
      "As": 1986,
      "Ġ&": 1987,
      "Ġsir": 1988,
      "Ġtowards": 1989,
      "Ġlow": 1990,
      "Ġexcl": 1991,
      "oe": 1992,
      "Ġprinci": 1993,
      "Ġsold": 1994,
      "Ġreally": 1995,
      "Ġreceived": 1996,
      "itude": 1997,
      "Ġ11": 1998,
      "Ġsound": 1999,
      "Then": 2000,
      "Ġdef": 2001,
      "HAPTER": 2002,
      "off": 2003,
      "ush": 2004,
      "mand": 2005,
      "Ġshow": 2006,
      "If": 2007,
      "Ġearly": 2008,
      "ĠSc": 2009,
      "Ġleg": 2010,
      "ĠMy": 2011,
      "Ġenem": 2012,
      "usband": 2013,
      "anger": 2014,
      "Ġsit": 2015,
      "Ġanim": 2016,
      "When": 2017,
      "Ġelse": 2018,
      "gan": 2019,
      "ead": 2020,
      "Ġfoot": 2021,
      "Ġlooking": 2022,
      "cont": 2023,
      "wo": 2024,
      "Ġarm": 2025,
      "Th": 2026,
      "io": 2027,
      "Ġbegin": 2028,
      "els": 2029,
      "Ġsight": 2030,
      "Ġblood": 2031,
      "Ġbeautiful": 2032,
      "inct": 2033,
      "ĠOne": 2034,
      "Ġorigin": 2035,
      "Ġquick": 2036,
      "Ġord": 2037,
      "oly": 2038,
      "Ġstri": 2039,
      "Ġcal": 2040,
      "Ġlist": 2041,
      "antly": 2042,
      "Ġlearn": 2043,
      "otion": 2044,
      "Ġpract": 2045,
      "Ġstory": 2046,
      "iver": 2047,
      "inary": 2048,
      "ĠEd": 2049,
      "Ġlater": 2050,
      "Ġpie": 2051,
      "ified": 2052,
      "Ġappro": 2053,
      "ĊĠĠĠĠĠĠĠĠĠ": 2054,
      "Ġtwenty": 2055,
      "ours": 2056,
      "Ġdet": 2057,
      "itten": 2058,
      "itting": 2059,
      "ze": 2060,
      "ĠSe": 2061,
      "Ġexist": 2062,
      "Ġevening": 2063,
      "Ġthee": 2064,
      "airs": 2065,
      "Ġschool": 2066,
      "Ġriver": 2067,
      "come": 2068,
      "Ġarms": 2069,
      "Ġdut": 2070,
      "Ġlad": 2071,
      "min": 2072,
      "Ġve": 2073,
      "Ġtreat": 2074,
      "Ġpay": 2075,
      "Ġwonder": 2076,
      "ND": 2077,
      "Ġcold": 2078,
      "Ġreturned": 2079,
      "Ġcross": 2080,
      "ength": 2081,
      "Ġsol": 2082,
      "Ġresult": 2083,
      "Ġmove": 2084,
      "rel": 2085,
      "ries": 2086,
      "Ġwild": 2087,
      "go": 2088,
      "Ġcause": 2089,
      "Ġready": 2090,
      "Ġfollowed": 2091,
      "Ġbad": 2092,
      "bo": 2093,
      "who": 2094,
      "St": 2095,
      "ples": 2096,
      "Ġhur": 2097,
      "ĠCol": 2098,
      "then": 2099,
      "Ġworth": 2100,
      "imp": 2101,
      "ĠGerman": 2102,
      "oman": 2103,
      "arr": 2104,
      "Ġpret": 2105,
      "cially": 2106,
      "light": 2107,
      "Ġeye": 2108,
      "uff": 2109,
      "alked": 2110,
      "Ġaccom": 2111,
      "str": 2112,
      "Ġfaith": 2113,
      "how": 2114,
      "Ġnecessary": 2115,
      "utes": 2116,
      "Ġmain": 2117,
      "riage": 2118,
      "Ġsal": 2119,
      "irm": 2120,
      "bert": 2121,
      "Ġrelig": 2122,
      "At": 2123,
      "ear": 2124,
      "aimed": 2125,
      "more": 2126,
      "Ġidea": 2127,
      "Ġchurch": 2128,
      "ĠChar": 2129,
      "Ġstep": 2130,
      "Ġlab": 2131,
      "ĠGe": 2132,
      "ume": 2133,
      "ences": 2134,
      "'re": 2135,
      "Ġcarried": 2136,
      "000": 2137,
      "bled": 2138,
      "Ġcast": 2139,
      "ĠLondon": 2140,
      "Ġdisp": 2141,
      "ils": 2142,
      "irt": 2143,
      "avy": 2144,
      "Ġtable": 2145,
      "Ġage": 2146,
      "ĠNow": 2147,
      "cell": 2148,
      "Ġmiles": 2149,
      "Ġtou": 2150,
      "Ġclass": 2151,
      "On": 2152,
      "Ġposition": 2153,
      "An": 2154,
      "look": 2155,
      "Ġbit": 2156,
      "Ġdraw": 2157,
      "Ġfront": 2158,
      "Ġoccasion": 2159,
      "Ġmag": 2160,
      "Ġanswer": 2161,
      "Ġask": 2162,
      "Ġfif": 2163,
      "OU": 2164,
      "ops": 2165,
      "ploy": 2166,
      "Ġparty": 2167,
      "ustom": 2168,
      "ĠBrit": 2169,
      "Ġprot": 2170,
      "resh": 2171,
      "ĠAd": 2172,
      "idge": 2173,
      "vo": 2174,
      "Ġacross": 2175,
      "Ġnearly": 2176,
      "Ġsense": 2177,
      "ivers": 2178,
      "Ġentire": 2179,
      "dom": 2180,
      "Ġquiet": 2181,
      "ously": 2182,
      "ape": 2183,
      "Ġeff": 2184,
      "ina": 2185,
      "appe": 2186,
      "Ġsometimes": 2187,
      "ĠâĢľ": 2188,
      "Ġbene": 2189,
      "when": 2190,
      "can": 2191,
      "iod": 2192,
      "Ġpict": 2193,
      "Ġesc": 2194,
      "some": 2195,
      "Ġacqu": 2196,
      "Ġforce": 2197,
      "yond": 2198,
      "vol": 2199,
      "got": 2200,
      "cies": 2201,
      "Ġhusband": 2202,
      "rank": 2203,
      "ctions": 2204,
      "Ġmist": 2205,
      "ogn": 2206,
      "ĠBl": 2207,
      "To": 2208,
      "iers": 2209,
      "gra": 2210,
      "Ġstrange": 2211,
      "EL": 2212,
      "Ġdro": 2213,
      "bur": 2214,
      "ĠDr": 2215,
      "Ġfurther": 2216,
      "ested": 2217,
      "hand": 2218,
      "ING": 2219,
      "ler": 2220,
      "ork": 2221,
      "rodu": 2222,
      "angu": 2223,
      "Ġlonger": 2224,
      "been": 2225,
      "Ġvill": 2226,
      "ĠOf": 2227,
      "ords": 2228,
      "des": 2229,
      "Ġrepresent": 2230,
      "OT": 2231,
      "usion": 2232,
      "fer": 2233,
      "Ġreached": 2234,
      "Ġpray": 2235,
      "Ġdeal": 2236,
      "ision": 2237,
      "Ġbri": 2238,
      ".[": 2239,
      "Ġver": 2240,
      "Ġought": 2241,
      "Ġeight": 2242,
      "ribut": 2243,
      "Ġlatter": 2244,
      "Ġ(_": 2245,
      "Ġhours": 2246,
      "stem": 2247,
      "na": 2248,
      "Ġplain": 2249,
      "Ġsett": 2250,
      "Ġdeg": 2251,
      "house": 2252,
      "ically": 2253,
      "gl": 2254,
      "Ġpurpose": 2255,
      "inion": 2256,
      "Ġforth": 2257,
      "ency": 2258,
      "Ġlate": 2259,
      "Ġpeace": 2260,
      "Ġlength": 2261,
      "eterm": 2262,
      "Ġrock": 2263,
      "ask": 2264,
      "Ġsleep": 2265,
      "Ġann": 2266,
      "Ġvisit": 2267,
      "ivid": 2268,
      "Ġparticular": 2269,
      "Ġcontinued": 2270,
      "ital": 2271,
      "Ġappeared": 2272,
      "ĠThese": 2273,
      "cend": 2274,
      "Ġmaster": 2275,
      "aged": 2276,
      "ciety": 2277,
      "Ġsqu": 2278,
      "Ġwon": 2279,
      "Ġrose": 2280,
      "inc": 2281,
      "orge": 2282,
      "Ġmountain": 2283,
      "part": 2284,
      "Ġled": 2285,
      "joy": 2286,
      "Ġadded": 2287,
      "oes": 2288,
      "Ġincl": 2289,
      "pecially": 2290,
      "Ġbuild": 2291,
      "DW": 2292,
      "Ġbig": 2293,
      "Ġnatural": 2294,
      "ump": 2295,
      "ening": 2296,
      "Ġsweet": 2297,
      "My": 2298,
      "Ġglad": 2299,
      "CHAPTER": 2300,
      "Ġquar": 2301,
      "iling": 2302,
      "Ġdanger": 2303,
      "Ġhast": 2304,
      "Ġperiod": 2305,
      "Ġscar": 2306,
      "Ġvi": 2307,
      "ounds": 2308,
      "Ġtaking": 2309,
      "kn": 2310,
      "ossible": 2311,
      "umst": 2312,
      "ĠNot": 2313,
      "after": 2314,
      "ĠPl": 2315,
      "THE": 2316,
      "Ġsecret": 2317,
      "Ġattempt": 2318,
      "ium": 2319,
      "Ġhill": 2320,
      "Ġformer": 2321,
      "Ġsatisf": 2322,
      "Ġself": 2323,
      "Ġaffect": 2324,
      "ories": 2325,
      "hys": 2326,
      "ĠStates": 2327,
      "ighb": 2328,
      "Ġsend": 2329,
      "Ġslow": 2330,
      "Ġx": 2331,
      "Ġplaced": 2332,
      "asure": 2333,
      "Ġwatch": 2334,
      "uke": 2335,
      "Ġla": 2336,
      "10": 2337,
      "Ġwit": 2338,
      "Ġhair": 2339,
      "Ġimmedi": 2340,
      "Ġ20": 2341,
      "Ġwalk": 2342,
      "Ġfellow": 2343,
      "ior": 2344,
      "Ġhistory": 2345,
      "How": 2346,
      "Ġfield": 2347,
      "Ġspoke": 2348,
      "Ġpriv": 2349,
      "ference": 2350,
      "gu": 2351,
      "Ġinflu": 2352,
      "Ġmed": 2353,
      "Ġbreak": 2354,
      "hood": 2355,
      "Ġfac": 2356,
      "ald": 2357,
      "Ġsac": 2358,
      "ises": 2359,
      "oral": 2360,
      "Ġpost": 2361,
      "...": 2362,
      "Ġsurpr": 2363,
      "sec": 2364,
      "LE": 2365,
      "rupt": 2366,
      "ror": 2367,
      "Ġforward": 2368,
      "has": 2369,
      "face": 2370,
      "Ġimag": 2371,
      "Ġdied": 2372,
      "ires": 2373,
      "ĠCar": 2374,
      "For": 2375,
      "count": 2376,
      "Ġbeyond": 2377,
      "ift": 2378,
      "amed": 2379,
      "ational": 2380,
      "Ġmur": 2381,
      "Ġcorn": 2382,
      "Ġsoft": 2383,
      "ĠFrance": 2384,
      "ingly": 2385,
      "Ġdog": 2386,
      "ray": 2387,
      "ixed": 2388,
      "chan": 2389,
      "Ġchange": 2390,
      "Ġaccording": 2391,
      "Ġfight": 2392,
      "Ġhot": 2393,
      "erv": 2394,
      "Ġbird": 2395,
      "aul": 2396,
      "15": 2397,
      "pan": 2398,
      "ushed": 2399,
      "Ġhappy": 2400,
      "OM": 2401,
      "Ġhig": 2402,
      "nor": 2403,
      "inner": 2404,
      "sha": 2405,
      "ests": 2406,
      "Ġproceed": 2407,
      "Ġfeeling": 2408,
      "Ġpop": 2409,
      "ys": 2410,
      "urs": 2411,
      "Ġoccup": 2412,
      "17": 2413,
      "ext": 2414,
      "Ġlaid": 2415,
      "atic": 2416,
      "Ġbright": 2417,
      "ned": 2418,
      "Ġprep": 2419,
      "ĠPer": 2420,
      "16": 2421,
      "velop": 2422,
      "Ġpretty": 2423,
      "12": 2424,
      "set": 2425,
      "uct": 2426,
      "pid": 2427,
      "bel": 2428,
      "==": 2429,
      "Ġdaughter": 2430,
      "Ġsuddenly": 2431,
      "Ġcomes": 2432,
      "ĠWh": 2433,
      "Ġemploy": 2434,
      "urope": 2435,
      "ively": 2436,
      "Ġdream": 2437,
      "Ġjoy": 2438,
      "Ġcreat": 2439,
      "Ġstay": 2440,
      "rough": 2441,
      "ĠZ": 2442,
      "ma": 2443,
      "Ġincre": 2444,
      "Ġliving": 2445,
      "wise": 2446,
      "ience": 2447,
      "Ġgrand": 2448,
      "orts": 2449,
      "AS": 2450,
      "Ġsugg": 2451,
      "Ġda": 2452,
      "ming": 2453,
      "iding": 2454,
      "Ġsuppose": 2455,
      "aching": 2456,
      "af": 2457,
      "sem": 2458,
      "ĠHar": 2459,
      "ĠMad": 2460,
      "Ġknowledge": 2461,
      "Ġstreng": 2462,
      "Ġdelight": 2463,
      "ĠDo": 2464,
      "Ġprobably": 2465,
      "Ġwritten": 2466,
      "ĠAND": 2467,
      "Ġbreat": 2468,
      "Ġsaying": 2469,
      "Ġemb": 2470,
      "isted": 2471,
      "Ġrepe": 2472,
      "Ġprison": 2473,
      "Ġarmy": 2474,
      "Ġeverything": 2475,
      "irty": 2476,
      "Why": 2477,
      "iff": 2478,
      "kes": 2479,
      "Ġservice": 2480,
      "eness": 2481,
      "ouses": 2482,
      "Ġsad": 2483,
      "ral": 2484,
      "Ġmention": 2485,
      "ager": 2486,
      "Ġbelong": 2487,
      "Ġjo": 2488,
      "Ġago": 2489,
      "Ġentered": 2490,
      "aff": 2491,
      "rs": 2492,
      "unity": 2493,
      "ION": 2494,
      "Ġ<": 2495,
      "teen": 2496,
      "Ġobl": 2497,
      "Ġdesp": 2498,
      "Ġcourt": 2499,
      "ites": 2500,
      "Ġexperi": 2501,
      "ĠChurch": 2502,
      "Ġfast": 2503,
      "So": 2504,
      "Ġalthough": 2505,
      "ae": 2506,
      "Ġnone": 2507,
      "Ġpal": 2508,
      "Ġcamp": 2509,
      "Ġremember": 2510,
      "just": 2511,
      "time": 2512,
      "Ġ25": 2513,
      "upon": 2514,
      "ancy": 2515,
      "Ġenemy": 2516,
      "Ġlim": 2517,
      "ĠMay": 2518,
      "cience": 2519,
      "ument": 2520,
      "ĠAfter": 2521,
      "road": 2522,
      "orses": 2523,
      "Ġwat": 2524,
      "athe": 2525,
      "formed": 2526,
      "Ġparts": 2527,
      "Ġheaven": 2528,
      "Ġ--": 2529,
      "Ġer": 2530,
      "ded": 2531,
      "Ġslight": 2532,
      "Ġgreater": 2533,
      "Ġdistance": 2534,
      "could": 2535,
      "Ġbear": 2536,
      "Ġcra": 2537,
      "orted": 2538,
      "ored": 2539,
      "into": 2540,
      "Ġtop": 2541,
      "Now": 2542,
      "Ġship": 2543,
      "AM": 2544,
      "Ġboys": 2545,
      "ille": 2546,
      "Ġdoing": 2547,
      "?'": 2548,
      "lect": 2549,
      "ĀĀĀĀ": 2550,
      "itary": 2551,
      "ivil": 2552,
      "Ġopened": 2553,
      "Ġund": 2554,
      "Ġconne": 2555,
      "Ġcomplete": 2556,
      "Ġtoward": 2557,
      "Ġcrow": 2558,
      "ellow": 2559,
      "ĊĊĊ": 2560,
      "gar": 2561,
      "Ġattack": 2562,
      "great": 2563,
      "Ġdeterm": 2564,
      "vere": 2565,
      "oses": 2566,
      "Ġmo": 2567,
      "Ġsystem": 2568,
      "Ġrich": 2569,
      "ĠLet": 2570,
      "Ġty": 2571,
      "thern": 2572,
      "Ġdirect": 2573,
      "stit": 2574,
      "Ġmouth": 2575,
      "ĠFrom": 2576,
      "Ġpaper": 2577,
      "cely": 2578,
      "ĠHen": 2579,
      "bes": 2580,
      "Ġlaugh": 2581,
      "ship": 2582,
      "Ch": 2583,
      "Ġtrees": 2584,
      "Ġcompany": 2585,
      "ĠChristian": 2586,
      "Ġvarious": 2587,
      "see": 2588,
      "note": 2589,
      "ford": 2590,
      "ĠPhil": 2591,
      "bet": 2592,
      "Ġden": 2593,
      "OL": 2594,
      "hel": 2595,
      "Ġneither": 2596,
      "never": 2597,
      "acy": 2598,
      "osp": 2599,
      "about": 2600,
      "sm": 2601,
      "ession": 2602,
      "ator": 2603,
      "ection": 2604,
      "Ġpen": 2605,
      "Ġconv": 2606,
      "Ġintell": 2607,
      "Ġprev": 2608,
      "anced": 2609,
      "cent": 2610,
      "Ġattention": 2611,
      "Ġaccept": 2612,
      "ĠAb": 2613,
      ":--": 2614,
      "Ġsens": 2615,
      "sy": 2616,
      "ED": 2617,
      "Ġ22": 2618,
      "Ġcontr": 2619,
      "Ġlived": 2620,
      "ĠAmerican": 2621,
      "Ġmakes": 2622,
      "ĠHere": 2623,
      "14": 2624,
      "ĠBar": 2625,
      "Ġduty": 2626,
      "IG": 2627,
      "hard": 2628,
      "Ġinqu": 2629,
      "arden": 2630,
      "Ġanx": 2631,
      "ilar": 2632,
      "Ġsuffic": 2633,
      "ply": 2634,
      "lling": 2635,
      "Ġneighb": 2636,
      "Ġpolit": 2637,
      "certain": 2638,
      "Ġplan": 2639,
      "ike": 2640,
      "should": 2641,
      "oose": 2642,
      "Ġcertainly": 2643,
      "Not": 2644,
      "Ġenjoy": 2645,
      "Ġcompan": 2646,
      "pass": 2647,
      "Ġimportant": 2648,
      "ĠCha": 2649,
      "Ġjour": 2650,
      "tr": 2651,
      "Ġmem": 2652,
      "Ġdifficult": 2653,
      "uture": 2654,
      "idered": 2655,
      "ĠOr": 2656,
      "Ġmine": 2657,
      "Ġpleasure": 2658,
      "Ġ24": 2659,
      "ĊĊĠĠ": 2660,
      "Ġdescri": 2661,
      "eks": 2662,
      "ĠSee": 2663,
      "long": 2664,
      "roy": 2665,
      "Ġtried": 2666,
      "ĠGover": 2667,
      "13": 2668,
      "ĠEurope": 2669,
      "Ġappl": 2670,
      "iety": 2671,
      "Ġpersons": 2672,
      "Ġaf": 2673,
      ".=": 2674,
      "Ġopinion": 2675,
      "spect": 2676,
      "comm": 2677,
      "mn": 2678,
      "Ġdemand": 2679,
      "Ġcircumst": 2680,
      "Ġgreen": 2681,
      "ching": 2682,
      "ĠCan": 2683,
      "ĠMan": 2684,
      "reek": 2685,
      "aded": 2686,
      "olute": 2687,
      "ĠFl": 2688,
      "Ġlangu": 2689,
      "Ġpoet": 2690,
      "tic": 2691,
      "cceed": 2692,
      "ye": 2693,
      "Ġgun": 2694,
      "ishing": 2695,
      "pping": 2696,
      "ĠWilliam": 2697,
      "Ġdidn": 2698,
      "Ġwindow": 2699,
      "than": 2700,
      "uous": 2701,
      "rible": 2702,
      "ĠCaptain": 2703,
      "Ġwide": 2704,
      "19": 2705,
      "ĠLady": 2706,
      "Ġespecially": 2707,
      "mit": 2708,
      "Ġsto": 2709,
      "Ġrecogn": 2710,
      "Ġ23": 2711,
      "bling": 2712,
      "Ġtro": 2713,
      "reed": 2714,
      "Ġblue": 2715,
      "Ġconcl": 2716,
      "Ġcompl": 2717,
      "enth": 2718,
      "Ġconce": 2719,
      "ĠMary": 2720,
      "Ġgrow": 2721,
      "again": 2722,
      "alley": 2723,
      "Ġboat": 2724,
      "yn": 2725,
      "Ġcoun": 2726,
      "Ġcomfort": 2727,
      "Ġheavy": 2728,
      "Ġestab": 2729,
      "pond": 2730,
      "ividual": 2731,
      "Ġdepart": 2732,
      "ĠGeneral": 2733,
      "Ġexclaimed": 2734,
      "spe": 2735,
      "Ġgenerally": 2736,
      "Ġgentleman": 2737,
      "oted": 2738,
      "ourage": 2739,
      "erc": 2740,
      "Ġremained": 2741,
      "Ġhat": 2742,
      "Ġbelow": 2743,
      "__": 2744,
      "Ġdress": 2745,
      "Ġwanted": 2746,
      "Ġminutes": 2747,
      "Ġstat": 2748,
      "Ġburn": 2749,
      "iant": 2750,
      "iction": 2751,
      "Ġwrong": 2752,
      "Ġmass": 2753,
      "osop": 2754,
      "Ġmonths": 2755,
      "Ġaction": 2756,
      "Ã©": 2757,
      "together": 2758,
      "hold": 2759,
      "Ġthick": 2760,
      "Ġtrust": 2761,
      "ethod": 2762,
      "ips": 2763,
      "known": 2764,
      "cil": 2765,
      "raid": 2766,
      "Ġgovernment": 2767,
      "ĠAm": 2768,
      "Ġsingle": 2769,
      "osing": 2770,
      "ĠYork": 2771,
      "Ġgen": 2772,
      "Ġsister": 2773,
      "place": 2774,
      "umb": 2775,
      "ĠParis": 2776,
      "Ġstrength": 2777,
      "Ġdesire": 2778,
      "Ġspo": 2779,
      "Ġweek": 2780,
      "een": 2781,
      "arrow": 2782,
      "Ġyouth": 2783,
      "Ġbeauty": 2784,
      "Ġplaces": 2785,
      "ech": 2786,
      "Ġfrequ": 2787,
      "Ġhardly": 2788,
      "All": 2789,
      "stood": 2790,
      "rand": 2791,
      "inn": 2792,
      "ĠRo": 2793,
      "Ġgod": 2794,
      "Ġsn": 2795,
      "ĠPe": 2796,
      "ulty": 2797,
      "said": 2798,
      "Ġconsequ": 2799,
      "car": 2800,
      "Ġstone": 2801,
      "ulation": 2802,
      "ding": 2803,
      "Ġletters": 2804,
      "Ġfresh": 2805,
      "ĠSome": 2806,
      "Ġbound": 2807,
      "aled": 2808,
      "ITH": 2809,
      "Ġmad": 2810,
      "Ġcry": 2811,
      "imate": 2812,
      "Ġtry": 2813,
      "ogra": 2814,
      "Ġbattle": 2815,
      "ston": 2816,
      "Ġoffe": 2817,
      "Ġtree": 2818,
      "Ġoffice": 2819,
      "little": 2820,
      "bles": 2821,
      "Ġsave": 2822,
      "pri": 2823,
      "Ġvict": 2824,
      "alled": 2825,
      "gress": 2826,
      "Ġlips": 2827,
      "ĠEx": 2828,
      "Ġisland": 2829,
      "Ġthird": 2830,
      "ĠDon": 2831,
      "arm": 2832,
      "ĊĠĠĠĠĠĠ": 2833,
      "icked": 2834,
      "Ġtrouble": 2835,
      "Ġhorses": 2836,
      "Ġinfluence": 2837,
      "Ġcondition": 2838,
      "ales": 2839,
      "ajor": 2840,
      "Ġcru": 2841,
      "ĠWhy": 2842,
      "Ġdie": 2843,
      "ruction": 2844,
      "Ġfood": 2845,
      "Ġnorth": 2846,
      "ĠBritish": 2847,
      "Ġexact": 2848,
      "Ġchance": 2849,
      "aterial": 2850,
      "ĠGeorge": 2851,
      "Ġviol": 2852,
      "ication": 2853,
      "Ġsepar": 2854,
      "pel": 2855,
      "Ġ26": 2856,
      "Ġnote": 2857,
      "Ġwarm": 2858,
      "Ġstanding": 2859,
      "onel": 2860,
      "Ġoccur": 2861,
      "Ġbooks": 2862,
      "Ġweak": 2863,
      "ĠEl": 2864,
      "oured": 2865,
      "acher": 2866,
      "Ġhop": 2867,
      "ĠItal": 2868,
      "before": 2869,
      "Ġbroken": 2870,
      "ashion": 2871,
      "ST": 2872,
      "Ġcost": 2873,
      "Ġancient": 2874,
      "ram": 2875,
      "iles": 2876,
      "Ġcentury": 2877,
      "Ġappearance": 2878,
      "AC": 2879,
      "Ġlie": 2880,
      "Ġwhis": 2881,
      "itation": 2882,
      "reme": 2883,
      "orough": 2884,
      "ingu": 2885,
      "essel": 2886,
      "ghed": 2887,
      "Ġeat": 2888,
      "ĠQue": 2889,
      "Ġbott": 2890,
      "Ġrapid": 2891,
      "ointed": 2892,
      "Ġ30": 2893,
      "!'": 2894,
      "dered": 2895,
      "uted": 2896,
      "Ġshar": 2897,
      "esty": 2898,
      "Ġoper": 2899,
      "rang": 2900,
      "Ġsuper": 2901,
      "Ġwrote": 2902,
      "ox": 2903,
      "inal": 2904,
      "Ġlines": 2905,
      "Ġfuture": 2906,
      "Ġformed": 2907,
      "ean": 2908,
      "olly": 2909,
      "iced": 2910,
      "Ġyourself": 2911,
      "Ġimmediately": 2912,
      "icate": 2913,
      "Ġsmile": 2914,
      "mar": 2915,
      "Ġenc": 2916,
      "ĠJack": 2917,
      "Ġfle": 2918,
      "yl": 2919,
      "Ġgri": 2920,
      "ĠTom": 2921,
      "Ġsimple": 2922,
      "Ġang": 2923,
      "Ġ27": 2924,
      "essed": 2925,
      "Ġfilled": 2926,
      "only": 2927,
      "Ġeasy": 2928,
      "Ġfat": 2929,
      "Ġinn": 2930,
      "Ġdrew": 2931,
      "ishop": 2932,
      "Ġchair": 2933,
      "ĠĠĠĠĠĠĠĠĠ": 2934,
      "while": 2935,
      "Ġsilence": 2936,
      "Ġsucceed": 2937,
      "Ġsafe": 2938,
      "Ġwis": 2939,
      "Ġafterwards": 2940,
      "ourt": 2941,
      "every": 2942,
      "Ġworks": 2943,
      "ĠEm": 2944,
      "Ġfurn": 2945,
      "erson": 2946,
      "culiar": 2947,
      "aries": 2948,
      "Ġpresence": 2949,
      "noon": 2950,
      "lo": 2951,
      "formation": 2952,
      "Ġnoble": 2953,
      "dist": 2954,
      "reet": 2955,
      "Ġinstead": 2956,
      "ux": 2957,
      "Ġusual": 2958,
      "ĠQu": 2959,
      "Ġliter": 2960,
      "rid": 2961,
      "Ġhappened": 2962,
      "Ġconvers": 2963,
      "bar": 2964,
      "Ġbeginning": 2965,
      "your": 2966,
      "Ġyes": 2967,
      "Ġfun": 2968,
      "Ġmeant": 2969,
      "Ġhy": 2970,
      "Ġfool": 2971,
      "Ġcontain": 2972,
      "ĠCount": 2973,
      "ĠHouse": 2974,
      "Ġ28": 2975,
      "Ġcarry": 2976,
      "ĠState": 2977,
      "Ġvessel": 2978,
      "Ġraised": 2979,
      "fact": 2980,
      "----------------": 2981,
      "gment": 2982,
      "uation": 2983,
      "Al": 2984,
      "Ġknows": 2985,
      "Ġdevelop": 2986,
      "action": 2987,
      "Ġclot": 2988,
      "Ġbecom": 2989,
      "Ġglass": 2990,
      "Ġarrived": 2991,
      "ĠUnited": 2992,
      "itable": 2993,
      ".âĢĿ": 2994,
      "Ġfamil": 2995,
      "Ġwalked": 2996,
      "ENT": 2997,
      "uded": 2998,
      "Ġentirely": 2999,
      "Ġgiving": 3000,
      "Ġfigure": 3001,
      "ootnote": 3002,
      "Ġenter": 3003,
      "Ġimpossible": 3004,
      "Ġdrink": 3005,
      "Ġcovered": 3006,
      "Ġsouth": 3007,
      "ĠHenry": 3008,
      "Ġdefe": 3009,
      "Ġsomewhat": 3010,
      "ĠIndian": 3011,
      "Ġliber": 3012,
      "Ġdinner": 3013,
      "Ġphys": 3014,
      "Ġcre": 3015,
      "Ġpiece": 3016,
      "por": 3017,
      "Ġmerely": 3018,
      "âĢĶ": 3019,
      "Ġpaid": 3020,
      "Ġspring": 3021,
      "Ġcases": 3022,
      "eed": 3023,
      "Ġstruck": 3024,
      "Ġeasily": 3025,
      "Ġgrave": 3026,
      "Ġresol": 3027,
      "Ġshore": 3028,
      "jo": 3029,
      "ĠII": 3030,
      "Ġslowly": 3031,
      "rif": 3032,
      "wood": 3033,
      "Ġexpress": 3034,
      "III": 3035,
      "Ġsole": 3036,
      "Ġstream": 3037,
      "aste": 3038,
      "ashing": 3039,
      "Ġune": 3040,
      "Ġmusic": 3041,
      "rep": 3042,
      "With": 3043,
      "Ġpun": 3044,
      "ibly": 3045,
      "ett": 3046,
      "enced": 3047,
      "uses": 3048,
      "oom": 3049,
      "Ġthinking": 3050,
      "Footnote": 3051,
      "Be": 3052,
      "ades": 3053,
      "Ġafraid": 3054,
      "Ġintrodu": 3055,
      "Is": 3056,
      "two": 3057,
      "Ġgirls": 3058,
      "anted": 3059,
      "Ġunto": 3060,
      "work": 3061,
      "Ġpure": 3062,
      "isc": 3063,
      "Ġdom": 3064,
      "Ġgall": 3065,
      "Ġfru": 3066,
      "happ": 3067,
      "Ġguard": 3068,
      "Ġorgan": 3069,
      "ourse": 3070,
      "Ġcaught": 3071,
      "Ġdirection": 3072,
      "mbers": 3073,
      "ĠWITH": 3074,
      "Ġspot": 3075,
      "64": 3076,
      "riend": 3077,
      "comp": 3078,
      "istic": 3079,
      "omen": 3080,
      "Ġloved": 3081,
      "Ġstarted": 3082,
      "Ġvillage": 3083,
      "umn": 3084,
      "Ġlearned": 3085,
      "Ġevil": 3086,
      "Ġprevent": 3087,
      "Ġvalue": 3088,
      "Ġoblig": 3089,
      "ails": 3090,
      "IA": 3091,
      "Ġ29": 3092,
      "apers": 3093,
      "bers": 3094,
      "Ġdesign": 3095,
      "dy": 3096,
      "ĠGu": 3097,
      "Ġcivil": 3098,
      "Ġmoved": 3099,
      "Ġindividual": 3100,
      "Ġbroad": 3101,
      "eds": 3102,
      "ris": 3103,
      "Ġtrem": 3104,
      "irth": 3105,
      "Ġlower": 3106,
      "Ġtone": 3107,
      "ĠWest": 3108,
      "erous": 3109,
      "Ġstraight": 3110,
      "cription": 3111,
      "Ġsimilar": 3112,
      "Ġfing": 3113,
      "itive": 3114,
      "Ġthoughts": 3115,
      "umed": 3116,
      "elve": 3117,
      "Ġiron": 3118,
      "inite": 3119,
      "vation": 3120,
      "Ġban": 3121,
      "His": 3122,
      "Ġmarried": 3123,
      "Ġboard": 3124,
      "Ġborn": 3125,
      "Ġjourney": 3126,
      "eb": 3127,
      "Ġmill": 3128,
      "Ġcover": 3129,
      "Ġseeing": 3130,
      "Ġsick": 3131,
      "bered": 3132,
      "bec": 3133,
      "ables": 3134,
      "Ġcustom": 3135,
      "Ġstreet": 3136,
      "ĊĊĠĠĠĠĠĠ": 3137,
      "asp": 3138,
      "ĠLou": 3139,
      "Ġconsidered": 3140,
      "Ġpress": 3141,
      "Ġforget": 3142,
      "Ġpubl": 3143,
      "Ġsociety": 3144,
      "rict": 3145,
      "Ġgrew": 3146,
      "ĠIN": 3147,
      "Ġwhatever": 3148,
      "zen": 3149,
      "Ġgetting": 3150,
      "occ": 3151,
      "erve": 3152,
      "antage": 3153,
      "Ġdue": 3154,
      "Ġtears": 3155,
      "Ġseven": 3156,
      "iring": 3157,
      "Ar": 3158,
      "Ġforms": 3159,
      "Ġobserved": 3160,
      "fast": 3161,
      "Ġgreatest": 3162,
      "Ġwrite": 3163,
      "Ġsummer": 3164,
      "Ġlaughed": 3165,
      "Ġquickly": 3166,
      "lt": 3167,
      "ishment": 3168,
      "Ġbank": 3169,
      "dra": 3170,
      "Ġcomb": 3171,
      "oyal": 3172,
      "Do": 3173,
      "Ġhost": 3174,
      "zz": 3175,
      "clock": 3176,
      "oup": 3177,
      "Ġball": 3178,
      "Ġallowed": 3179,
      "20": 3180,
      "even": 3181,
      "IV": 3182,
      "field": 3183,
      "mission": 3184,
      "ĠCharles": 3185,
      "Ġamount": 3186,
      "back": 3187,
      "Ġgaz": 3188,
      "uge": 3189,
      "Ġutter": 3190,
      "Ġign": 3191,
      "worth": 3192,
      "heart": 3193,
      "through": 3194,
      "Ġphil": 3195,
      "Ġbuilt": 3196,
      "Ġfirm": 3197,
      "ĠSte": 3198,
      "Ġscarcely": 3199,
      "ny": 3200,
      "Ġshowed": 3201,
      "Ġscene": 3202,
      "ception": 3203,
      "pal": 3204,
      "Ġforgot": 3205,
      "kind": 3206,
      "lls": 3207,
      "ĠJes": 3208,
      "Ġexpression": 3209,
      "Ġcharge": 3210,
      "ugust": 3211,
      "Ġleaving": 3212,
      "Ġcloud": 3213,
      "Ġgrace": 3214,
      "Ġprocess": 3215,
      "icated": 3216,
      "wing": 3217,
      "ented": 3218,
      "nat": 3219,
      "Ġrace": 3220,
      "made": 3221,
      "Ġpeculiar": 3222,
      "good": 3223,
      "ĠOh": 3224,
      "Ġstopped": 3225,
      "Ġleaves": 3226,
      "50": 3227,
      "ĠSha": 3228,
      "RO": 3229,
      "Ġgives": 3230,
      "know": 3231,
      "Ġlanguage": 3232,
      "Ġchanged": 3233,
      "Ġhath": 3234,
      "Ġhealth": 3235,
      "ĠSouth": 3236,
      "Ġpath": 3237,
      "Ġmiddle": 3238,
      "Ġpra": 3239,
      "Ġetc": 3240,
      "Ġcapt": 3241,
      "Ġextra": 3242,
      "Ġvirt": 3243,
      "ague": 3244,
      "Ġmethod": 3245,
      "Ġshown": 3246,
      "Ġwalls": 3247,
      "Ġmaterial": 3248,
      "Ġsnow": 3249,
      "osite": 3250,
      "Ġcop": 3251,
      "ĠWell": 3252,
      "rect": 3253,
      "these": 3254,
      "Ġhouses": 3255,
      "ĠLa": 3256,
      "ĠNorth": 3257,
      "Ġexpected": 3258,
      "gel": 3259,
      "Ġexperience": 3260,
      "Ġsupposed": 3261,
      "unk": 3262,
      "Ġclaim": 3263,
      "Ġspecies": 3264,
      "erved": 3265,
      "bing": 3266,
      "aced": 3267,
      "Ġmodern": 3268,
      "Ġflowers": 3269,
      "hest": 3270,
      "sub": 3271,
      "Ġmot": 3272,
      "mitted": 3273,
      "After": 3274,
      "lend": 3275,
      "Ġoutside": 3276,
      "Ġwait": 3277,
      "Ġloc": 3278,
      "Ġfal": 3279,
      "cher": 3280,
      "Ġshad": 3281,
      "ĠIndians": 3282,
      "Ġcircumstances": 3283,
      "may": 3284,
      "Ġstudy": 3285,
      "himself": 3286,
      "ĠJames": 3287,
      "Ġapparent": 3288,
      "ceived": 3289,
      "Ġlives": 3290,
      "Ġimpro": 3291,
      "Ġpull": 3292,
      "Ġhung": 3293,
      "arer": 3294,
      "lin": 3295,
      "ĠQueen": 3296,
      "Ġdi": 3297,
      "Ġbran": 3298,
      "estions": 3299,
      "Ġdrawn": 3300,
      "Ġgoes": 3301,
      "Ġeduc": 3302,
      "Ġthirty": 3303,
      "Ġmagn": 3304,
      "vey": 3305,
      "lying": 3306,
      "Ġwinter": 3307,
      "Ġcommun": 3308,
      "sk": 3309,
      "ĠPrince": 3310,
      "Ġdim": 3311,
      "ĠFran": 3312,
      "rees": 3313,
      "Ġgarden": 3314,
      "aces": 3315,
      "Ġstrugg": 3316,
      "ere": 3317,
      "ĠAmerica": 3318,
      "Ġconstit": 3319,
      "Ġproduced": 3320,
      "Ġopport": 3321,
      "Ġreach": 3322,
      "Ġforest": 3323,
      "play": 3324,
      "opt": 3325,
      "11": 3326,
      "One": 3327,
      "nce": 3328,
      "first": 3329,
      "ĠYet": 3330,
      "ois": 3331,
      "Ġpicture": 3332,
      "Ġdepend": 3333,
      "Ġofficers": 3334,
      "Ġid": 3335,
      "UR": 3336,
      "CH": 3337,
      "ĠSpan": 3338,
      "Ġcaptain": 3339,
      "such": 3340,
      "ĠGreat": 3341,
      "thought": 3342,
      "Ġtender": 3343,
      "Ġmess": 3344,
      "bre": 3345,
      "habit": 3346,
      "Ġeager": 3347,
      "arily": 3348,
      "ĠRome": 3349,
      "Ġsurr": 3350,
      "Ġder": 3351,
      "Ġnotice": 3352,
      "Ġexcell": 3353,
      "Ġartic": 3354,
      "Ġneck": 3355,
      "Ġspecial": 3356,
      "fortun": 3357,
      "hal": 3358,
      "Ġdread": 3359,
      "ibility": 3360,
      "Ġoriginal": 3361,
      "Ġnames": 3362,
      "Ġhero": 3363,
      "Ġant": 3364,
      "Ġcou": 3365,
      "Ġdu": 3366,
      "father": 3367,
      "Ġbreath": 3368,
      "illy": 3369,
      "down": 3370,
      "Ġexec": 3371,
      "Of": 3372,
      "without": 3373,
      "ergy": 3374,
      "lar": 3375,
      "Ġshout": 3376,
      "uten": 3377,
      "Ġloss": 3378,
      "Ġsin": 3379,
      "nal": 3380,
      "Ġdoctor": 3381,
      "Ġwaiting": 3382,
      "Ġproperty": 3383,
      "sed": 3384,
      "Ġkilled": 3385,
      "acc": 3386,
      "Ġequal": 3387,
      "Ġkne": 3388,
      "Ġshot": 3389,
      "Ġrid": 3390,
      "ocked": 3391,
      "much": 3392,
      "Ġsitting": 3393,
      "Ġafternoon": 3394,
      "idently": 3395,
      "Ġsong": 3396,
      "Ġappears": 3397,
      "ĠPaul": 3398,
      "Ġlaws": 3399,
      "Ġmut": 3400,
      "IR": 3401,
      "ĠRoman": 3402,
      "By": 3403,
      "Ġhang": 3404,
      "Ġfra": 3405,
      "Ġ186": 3406,
      "Ġcat": 3407,
      "char": 3408,
      "Ġnews": 3409,
      "lly": 3410,
      "Ġearn": 3411,
      "Ġnarrow": 3412,
      "Ġfifty": 3413,
      "Ġpassion": 3414,
      "lected": 3415,
      "Ġdistinct": 3416,
      "ology": 3417,
      "sur": 3418,
      "ify": 3419,
      "ĠThom": 3420,
      "rec": 3421,
      "Ġkiss": 3422,
      "Ġpursu": 3423,
      "Ġ----": 3424,
      "Ġlikely": 3425,
      "Ġprivate": 3426,
      "Ġfixed": 3427,
      "Ġsilent": 3428,
      "Ġmarriage": 3429,
      "ustri": 3430,
      "Ġbeside": 3431,
      "Ġtemper": 3432,
      "ĠĠĠĠĠĠĠĠĠĠĠĠĠĠĠĠĠĠĠĠĠĠĠĠĠĠĠĠĠĠĠĠĠĠĠĠĠĠĠĠ": 3433,
      "ait": 3434,
      "race": 3435,
      "morrow": 3436,
      "ĠSh": 3437,
      "ias": 3438,
      "25": 3439,
      "chant": 3440,
      "ĠJew": 3441,
      "Ġusually": 3442,
      "iently": 3443,
      "peror": 3444,
      "iny": 3445,
      "ĊĠĠĠĠĠĠĠĠĠĠĠĠĠĠĠĠ": 3446,
      "Ġreligion": 3447,
      "Ġpleasant": 3448,
      "Ġfloor": 3449,
      "US": 3450,
      "Ġexistence": 3451,
      "ĠDuke": 3452,
      "retched": 3453,
      "Ġminute": 3454,
      "Ġwished": 3455,
      "ĠThus": 3456,
      "respond": 3457,
      "Ġbroke": 3458,
      "Ġdeclared": 3459,
      "Ġassist": 3460,
      "Ġdiscovered": 3461,
      "Ġsand": 3462,
      "_;": 3463,
      "soci": 3464,
      "might": 3465,
      "Ġfavour": 3466,
      "iments": 3467,
      "Ġforeign": 3468,
      "Ġpassage": 3469,
      "eg": 3470,
      "Ġattend": 3471,
      "Ġdry": 3472,
      "Ġheat": 3473,
      "rol": 3474,
      "Ġdistingu": 3475,
      "ĠGr": 3476,
      "somet": 3477,
      "Ġreve": 3478,
      "Ġsurface": 3479,
      "Ġspeaking": 3480,
      "Ġmaid": 3481,
      "reen": 3482,
      "Ġabsolute": 3483,
      "Ġreply": 3484,
      "Ġdecided": 3485,
      "Ġpale": 3486,
      "ification": 3487,
      "Ġextreme": 3488,
      "gain": 3489,
      "Ġspread": 3490,
      "Ġreceive": 3491,
      "Ġauthority": 3492,
      "Ġarg": 3493,
      "rey": 3494,
      "ĠWhere": 3495,
      "Ġescape": 3496,
      "Ġpassing": 3497,
      "dif": 3498,
      "ounced": 3499,
      "Ġphilosop": 3500,
      ",âĢĿ": 3501,
      "Ġsymp": 3502,
      "olic": 3503,
      "Ġtend": 3504,
      "Ġsoldiers": 3505,
      "ctr": 3506,
      "ĠSm": 3507,
      "Ġfavor": 3508,
      "Ġdegree": 3509,
      "iqu": 3510,
      "iden": 3511,
      "ĠCo": 3512,
      "chief": 3513,
      "Ġspeech": 3514,
      "30": 3515,
      "Ġhabit": 3516,
      "pon": 3517,
      "Ġfit": 3518,
      "antic": 3519,
      "emed": 3520,
      "tra": 3521,
      "Ġdetermined": 3522,
      "Ġsimply": 3523,
      "Let": 3524,
      "yle": 3525,
      "Ġbread": 3526,
      "ĠPres": 3527,
      "ocks": 3528,
      "Ġanimal": 3529,
      "Ġcrowd": 3530,
      "Ġrepeated": 3531,
      "Ġbox": 3532,
      "ĠGl": 3533,
      "Ġnation": 3534,
      "Ġrise": 3535,
      "Ġladies": 3536,
      "Ġsky": 3537,
      "Ġreligious": 3538,
      "AD": 3539,
      "Ġfail": 3540,
      "Ġsides": 3541,
      "Ġess": 3542,
      "Ġsmo": 3543,
      "iration": 3544,
      "arl": 3545,
      "Ġrule": 3546,
      "Ġhigher": 3547,
      "ĠJu": 3548,
      "ization": 3549,
      "Ġheight": 3550,
      "Ġconduct": 3551,
      "Ġvain": 3552,
      "Ġoffered": 3553,
      "Ġmeeting": 3554,
      "Ġbelieved": 3555,
      "aped": 3556,
      "Ġcab": 3557,
      "Ġlif": 3558,
      "Ġprepared": 3559,
      "Ġcrit": 3560,
      "itor": 3561,
      "Ġ...": 3562,
      "amb": 3563,
      "ĠTheir": 3564,
      "Ġinteresting": 3565,
      "ieve": 3566,
      "Ġwise": 3567,
      "Don": 3568,
      "Ġmoral": 3569,
      "ik": 3570,
      "Ġmiss": 3571,
      "Ġsail": 3572,
      "Ġones": 3573,
      "Ġpersonal": 3574,
      "Ġtroops": 3575,
      "Ġcit": 3576,
      "umber": 3577,
      "ected": 3578,
      "Ġmoon": 3579,
      "aval": 3580,
      "ems": 3581,
      "Ġallow": 3582,
      "Ġunless": 3583,
      "Ġhonour": 3584,
      "alt": 3585,
      "pered": 3586,
      "ĠGovernment": 3587,
      "Ġbeneath": 3588,
      "ĠRev": 3589,
      "Ġplease": 3590,
      "Ġrail": 3591,
      "Ġsor": 3592,
      "Ġmembers": 3593,
      "ration": 3594,
      "inted": 3595,
      "Ġrevol": 3596,
      "Ġtest": 3597,
      "pet": 3598,
      "Ġlord": 3599,
      "did": 3600,
      "Ġevidence": 3601,
      "law": 3602,
      "Ġexample": 3603,
      "ĠMor": 3604,
      "ortion": 3605,
      "Ġdestroy": 3606,
      "Ġ$": 3607,
      "ĠMon": 3608,
      "pter": 3609,
      "Ġph": 3610,
      "ĠSw": 3611,
      "Ġband": 3612,
      "Ġfol": 3613,
      "eav": 3614,
      "ailed": 3615,
      "Def": 3616,
      "Ġtit": 3617,
      "Ġgame": 3618,
      "Ġconsiderable": 3619,
      "Ġbill": 3620,
      "Ġdifficulty": 3621,
      "Ġproved": 3622,
      "Ġsufficient": 3623,
      "being": 3624,
      "Ġcoast": 3625,
      "Ġtrave": 3626,
      "Ġfashion": 3627,
      "Ġcrown": 3628,
      "ajesty": 3629,
      "Ġcorner": 3630,
      "Ġmentioned": 3631,
      "Mrs": 3632,
      "Ġdiscuss": 3633,
      "Ġsteps": 3634,
      "ĠFather": 3635,
      "Ġ189": 3636,
      "Ġcalm": 3637,
      "Ġdeb": 3638,
      "Ġsupport": 3639,
      "Ġdoll": 3640,
      "Ġav": 3641,
      "ĠCal": 3642,
      "Ġappre": 3643,
      "TH": 3644,
      "ĠEvery": 3645,
      "ander": 3646,
      "\"'": 3647,
      "ĠRuss": 3648,
      "Ġsilver": 3649,
      "Ġclosed": 3650,
      "bey": 3651,
      "inst": 3652,
      "Ġremem": 3653,
      "uments": 3654,
      "supp": 3655,
      "Ġtrain": 3656,
      "van": 3657,
      "essor": 3658,
      "72": 3659,
      "Ġcaused": 3660,
      "Ġturning": 3661,
      "Ġtwelve": 3662,
      "must": 3663,
      "view": 3664,
      "ĠDav": 3665,
      "Ġur": 3666,
      "quis": 3667,
      "Eng": 3668,
      "ipp": 3669,
      "Ġpet": 3670,
      "Ġorders": 3671,
      "four": 3672,
      "Ġperfectly": 3673,
      "ĠWar": 3674,
      "found": 3675,
      "Ġmatters": 3676,
      "Ġanimals": 3677,
      "Ġkill": 3678,
      "Ġmel": 3679,
      "Ġterrible": 3680,
      "Ġwest": 3681,
      "Ġmotion": 3682,
      "isters": 3683,
      "inent": 3684,
      "idenote": 3685,
      "Ġ{": 3686,
      "half": 3687,
      "Ġbuilding": 3688,
      "Ġ188": 3689,
      "pany": 3690,
      "Ġbrown": 3691,
      "Ġbeat": 3692,
      "Ġserious": 3693,
      "duced": 3694,
      "ĠCor": 3695,
      "Ġspent": 3696,
      "Ġexerc": 3697,
      "Ġhonor": 3698,
      "Ġpolitical": 3699,
      "Ġapart": 3700,
      "Ġrunning": 3701,
      "ĠRic": 3702,
      "Ġrul": 3703,
      "ids": 3704,
      "Ġbitter": 3705,
      "Ġconversation": 3706,
      "Ġbow": 3707,
      "Sidenote": 3708,
      "ĠSam": 3709,
      "Ġconcern": 3710,
      "Ġwitness": 3711,
      "Ġbirds": 3712,
      "Ġcult": 3713,
      "gypt": 3714,
      "Ġsli": 3715,
      "Ġrare": 3716,
      "gen": 3717,
      "Ġgrass": 3718,
      "ĠXX": 3719,
      "lished": 3720,
      "Ġhall": 3721,
      "Ġspite": 3722,
      "Ġobtained": 3723,
      "Ġtouch": 3724,
      "Ġpit": 3725,
      "ores": 3726,
      "Ġwriting": 3727,
      "vention": 3728,
      "those": 3729,
      "Ġpot": 3730,
      "Ġofficer": 3731,
      "Ġvalley": 3732,
      "sl": 3733,
      "ses": 3734,
      "Ġrequired": 3735,
      "Ġstop": 3736,
      "ste": 3737,
      "AP": 3738,
      "Ġbod": 3739,
      "give": 3740,
      "Ġordinary": 3741,
      "Ġcurious": 3742,
      "ternal": 3743,
      "ading": 3744,
      "Ġnative": 3745,
      "Defn": 3746,
      "Ġadopt": 3747,
      "Ġshut": 3748,
      "Ġfro": 3749,
      "Ġdescend": 3750,
      "ege": 3751,
      "Ġspace": 3752,
      "Ġimm": 3753,
      "Ġopposite": 3754,
      "eping": 3755,
      "Ġsteam": 3756,
      "Ġregular": 3757,
      "SIL": 3758,
      "ĠJud": 3759,
      "cr": 3760,
      "Ġsav": 3761,
      "ĠAugust": 3762,
      "perior": 3763,
      "Ġportion": 3764,
      "lex": 3765,
      "Ġagree": 3766,
      "Ġtrying": 3767,
      "Ġyellow": 3768,
      "Ġlying": 3769,
      "orious": 3770,
      "ival": 3771,
      "Ġdeli": 3772,
      "Ġinstance": 3773,
      "ially": 3774,
      "Ġprogress": 3775,
      "order": 3776,
      "Ġgrad": 3777,
      "From": 3778,
      "Ġpleased": 3779,
      "Ġspir": 3780,
      "don": 3781,
      "Ġroy": 3782,
      "hib": 3783,
      "Ġourselves": 3784,
      "water": 3785,
      "ĠPeter": 3786,
      "Ġmemory": 3787,
      "appeared": 3788,
      "Ġseat": 3789,
      "Ġtakes": 3790,
      "Ġring": 3791,
      "irgin": 3792,
      "Ġsharp": 3793,
      "Ġcolour": 3794,
      "Ġweight": 3795,
      "Ġheads": 3796,
      "icious": 3797,
      "friend": 3798,
      "ien": 3799,
      "Ġsusp": 3800,
      "Ġoffer": 3801,
      "Ġpossession": 3802,
      "Ġwealth": 3803,
      "urally": 3804,
      "five": 3805,
      "24": 3806,
      "Ġsake": 3807,
      "Ġep": 3808,
      "Ġ184": 3809,
      "._,": 3810,
      "ashed": 3811,
      "Ġunderstood": 3812,
      "Ġinj": 3813,
      "Ġproud": 3814,
      "Ġvast": 3815,
      "Ġsize": 3816,
      "Ġsplend": 3817,
      "Ġsurprise": 3818,
      "Ġsocial": 3819,
      "Ah": 3820,
      "Ġlooks": 3821,
      "fit": 3822,
      "asc": 3823,
      "Here": 3824,
      "Ġvent": 3825,
      "Ġways": 3826,
      "Ġtrade": 3827,
      "Ġaut": 3828,
      "Ġsorrow": 3829,
      "bu": 3830,
      "Ġdrawing": 3831,
      "Ġmort": 3832,
      "vi": 3833,
      "ĠBur": 3834,
      "Ġengaged": 3835,
      "ffic": 3836,
      "standing": 3837,
      "exp": 3838,
      "Ġjustice": 3839,
      "igned": 3840,
      "ĠST": 3841,
      "Ġmeaning": 3842,
      "Ġintellig": 3843,
      "Ġopportunity": 3844,
      "Ġprove": 3845,
      "Ġris": 3846,
      "ĠTr": 3847,
      "eper": 3848,
      "ĠOur": 3849,
      "Ġfalse": 3850,
      ");": 3851,
      "Ġwine": 3852,
      "ranger": 3853,
      "asons": 3854,
      "Ġrain": 3855,
      "Ġfem": 3856,
      "Ġadvantage": 3857,
      "ĠJesus": 3858,
      "Ġfright": 3859,
      "Ġvan": 3860,
      "ville": 3861,
      "rose": 3862,
      "Ġfinally": 3863,
      "looking": 3864,
      "Ġordered": 3865,
      "Ġstar": 3866,
      "Ġcand": 3867,
      "bell": 3868,
      "Ġspoken": 3869,
      "Ġintended": 3870,
      "Ġtall": 3871,
      "bid": 3872,
      "Ġpieces": 3873,
      "Ġfish": 3874,
      "Ġcred": 3875,
      "Ġears": 3876,
      "child": 3877,
      "Ġgreatly": 3878,
      "ĠEven": 3879,
      "ĠSec": 3880,
      "burg": 3881,
      "hor": 3882,
      "Ġdescribed": 3883,
      "ĠBo": 3884,
      "ios": 3885,
      "Ġod": 3886,
      "ĊĠĠĠĠĠĠĠĠĠĠ": 3887,
      "Ġearli": 3888,
      "Ġiii": 3889,
      "oned": 3890,
      "Ġreading": 3891,
      "Ġtrou": 3892,
      "Ġemp": 3893,
      "Ġhappiness": 3894,
      "ĠWho": 3895,
      "ais": 3896,
      "Ġworse": 3897,
      "Ġthrew": 3898,
      "liament": 3899,
      "Ġfully": 3900,
      "Ġpock": 3901,
      "23": 3902,
      "estern": 3903,
      "ams": 3904,
      "vis": 3905,
      "._--": 3906,
      "oles": 3907,
      "Ġthin": 3908,
      "ĠTO": 3909,
      "Ġimportance": 3910,
      "tw": 3911,
      "ability": 3912,
      "Ġpoints": 3913,
      "Ġfallen": 3914,
      "ancing": 3915,
      "!--": 3916,
      "ĠNe": 3917,
      "atures": 3918,
      "Ġpromise": 3919,
      "Ġwid": 3920,
      "Ġnamed": 3921,
      "think": 3922,
      "Ġstro": 3923,
      "Ġinstant": 3924,
      "Ġthrown": 3925,
      "isto": 3926,
      "lement": 3927,
      "Ġcourage": 3928,
      "rig": 3929,
      "Ġ185": 3930,
      "Ġfacts": 3931,
      "Ġillustr": 3932,
      "Ġforty": 3933,
      "Ġarch": 3934,
      "Ġtong": 3935,
      "Ġsearch": 3936,
      "GE": 3937,
      "ĠLouis": 3938,
      "Ġfier": 3939,
      "Ġweeks": 3940,
      "Ġclean": 3941,
      "Ġ+": 3942,
      "ĠAnt": 3943,
      "mother": 3944,
      "Ġignor": 3945,
      "Ġstation": 3946,
      "Ġcheer": 3947,
      "Ġfruit": 3948,
      "ensive": 3949,
      "cks": 3950,
      "Ġconscious": 3951,
      "Ġavo": 3952,
      "Ġspeed": 3953,
      "Ġ187": 3954,
      "Ġwrit": 3955,
      "ĊĊĠĠĠĠĠ": 3956,
      "using": 3957,
      "Ġgro": 3958,
      "EC": 3959,
      "Ġpopular": 3960,
      "rud": 3961,
      "stone": 3962,
      "Ġmeasure": 3963,
      "Ġroyal": 3964,
      "istory": 3965,
      "Ġmountains": 3966,
      "Ġbottom": 3967,
      "aked": 3968,
      "Ġaccompl": 3969,
      "ID": 3970,
      "Ġimper": 3971,
      "Ġupper": 3972,
      "orne": 3973,
      "Ġfrequently": 3974,
      "Ġparent": 3975,
      "Ġtalking": 3976,
      "follow": 3977,
      "eal": 3978,
      "sit": 3979,
      "Ġwonderful": 3980,
      "Ġmovement": 3981,
      "Ġobtain": 3982,
      "Ġemployed": 3983,
      "ĠThomas": 3984,
      "ulous": 3985,
      "AU": 3986,
      "icks": 3987,
      "Ġstage": 3988,
      "Ġtaste": 3989,
      "Ġjudge": 3990,
      "Ġsituation": 3991,
      "ators": 3992,
      "eder": 3993,
      "Ġ{~": 3994,
      "Ġfill": 3995,
      "Her": 3996,
      "Ġmilitary": 3997,
      "Ġcapital": 3998,
      "nes": 3999,
      "del": 4000,
      "Ġbrave": 4001,
      "Ġstir": 4002,
      "Ġearnest": 4003,
      "tering": 4004,
      "--_": 4005,
      "take": 4006,
      "fall": 4007,
      "Ġterms": 4008,
      "cer": 4009,
      "Ġ0": 4010,
      "Ġworking": 4011,
      "ordinary": 4012,
      "Ġseason": 4013,
      "Ġfortune": 4014,
      "Ġconditions": 4015,
      "pelled": 4016,
      "Ind": 4017,
      "athered": 4018,
      "Ġthorough": 4019,
      "ĠCr": 4020,
      "Ġthreat": 4021,
      "Ġremains": 4022,
      "ora": 4023,
      "ĠAL": 4024,
      "Ġcarefully": 4025,
      "ĠScot": 4026,
      "Ġstock": 4027,
      "cond": 4028,
      "ĠOld": 4029,
      "ok": 4030,
      "cts": 4031,
      "hens": 4032,
      "say": 4033,
      "mas": 4034,
      "Ġlot": 4035,
      "Ġpublished": 4036,
      "Ġ34": 4037,
      "29": 4038,
      "aret": 4039,
      "Ġtran": 4040,
      "het": 4041,
      "ners": 4042,
      "Ġexactly": 4043,
      "Ġbreast": 4044,
      "Ġworthy": 4045,
      "ata": 4046,
      "Ġhunt": 4047,
      "three": 4048,
      "Ġbold": 4049,
      "Ġobliged": 4050,
      "Ġstyle": 4051,
      "ĠMin": 4052,
      "Ġdifference": 4053,
      "Ġwel": 4054,
      "ĠIII": 4055,
      "Ġmach": 4056,
      "athy": 4057,
      "Ġeffort": 4058,
      "Ġ33": 4059,
      "Ġaffairs": 4060,
      "Ġsorry": 4061,
      "Ġaston": 4062,
      "ĠIr": 4063,
      "Ġpowers": 4064,
      "Ġhonest": 4065,
      "Ġanxious": 4066,
      "Ġsword": 4067,
      "ĠFrank": 4068,
      "Ġconqu": 4069,
      "ĠSuch": 4070,
      "Ġattract": 4071,
      "jud": 4072,
      "leg": 4073,
      "ĠCourt": 4074,
      "cip": 4075,
      "erable": 4076,
      "ferent": 4077,
      "Ġfancy": 4078,
      "28": 4079,
      "Ġendeav": 4080,
      "Ġbas": 4081,
      "Ġpictures": 4082,
      "Ġblind": 4083,
      "ulated": 4084,
      "people": 4085,
      "hum": 4086,
      "Ġloud": 4087,
      "ental": 4088,
      "Ġservant": 4089,
      "Ġpresented": 4090,
      "life": 4091,
      "iance": 4092,
      "Ġbesides": 4093,
      "ieur": 4094,
      "ĠMart": 4095,
      "ĠJer": 4096,
      "Ġglance": 4097,
      "outhern": 4098,
      "bro": 4099,
      "Ġaffection": 4100,
      "Ġspec": 4101,
      "Ġweather": 4102,
      "Ġexcellent": 4103,
      "lebr": 4104,
      "ĠEgypt": 4105,
      "26": 4106,
      "Ġevents": 4107,
      "Ġwear": 4108,
      "Ġarrange": 4109,
      "Ġquarter": 4110,
      "Ġgate": 4111,
      "ĠCong": 4112,
      "ĠRep": 4113,
      "Ġ35": 4114,
      "Ġfinished": 4115,
      "Ġproof": 4116,
      "ĀĀĀĀĀĀĀĀ": 4117,
      "Ġquant": 4118,
      "olution": 4119,
      "Ġoccupied": 4120,
      "Ġforced": 4121,
      "Ġideas": 4122,
      "Ġrough": 4123,
      "Ġaid": 4124,
      "Ġthank": 4125,
      "**": 4126,
      "Ġlies": 4127,
      "ule": 4128,
      "many": 4129,
      "ette": 4130,
      "serv": 4131,
      "Ġbare": 4132,
      "Ġexplain": 4133,
      "incess": 4134,
      "Ġeast": 4135,
      "Con": 4136,
      "Ġburst": 4137,
      "Ġlean": 4138,
      "----\"": 4139,
      "Ġplant": 4140,
      "ese": 4141,
      "Ġere": 4142,
      "ainted": 4143,
      "Ġnumerous": 4144,
      "turn": 4145,
      "Ġremarkable": 4146,
      "Ġbirth": 4147,
      "ulf": 4148,
      "aches": 4149,
      "Ġfamiliar": 4150,
      "Ġrefer": 4151,
      "27": 4152,
      "ĠJan": 4153,
      "Ġinformation": 4154,
      "Ġdwell": 4155,
      "ndered": 4156,
      "Ġ40": 4157,
      "Ġsubst": 4158,
      "Ġserve": 4159,
      "Ġgain": 4160,
      "aker": 4161,
      "interest": 4162,
      "usted": 4163,
      "Ġholding": 4164,
      "bon": 4165,
      "acle": 4166,
      "lands": 4167,
      "astic": 4168,
      "Ġsmiled": 4169,
      "Ġsettled": 4170,
      "Ġegg": 4171,
      "Ġdarkness": 4172,
      "necess": 4173,
      "Ġunivers": 4174,
      "Ġreport": 4175,
      "Ġquestions": 4176,
      "Ġsour": 4177,
      "God": 4178,
      "ĠMadame": 4179,
      "Ġextent": 4180,
      "Ġhid": 4181,
      "fle": 4182,
      "Ġbab": 4183,
      "aud": 4184,
      "Ġfreed": 4185,
      "ode": 4186,
      "====": 4187,
      "book": 4188,
      "Ġpack": 4189,
      "atory": 4190,
      "Ġshook": 4191,
      "ĠHim": 4192,
      "pons": 4193,
      "Ġtor": 4194,
      "Ġdam": 4195,
      "Ġfeelings": 4196,
      "ĠBer": 4197,
      "ĠDick": 4198,
      "Ġregarded": 4199,
      "hant": 4200,
      "Ġhills": 4201,
      "ounted": 4202,
      "Ġprec": 4203,
      "Ġrecord": 4204,
      "inces": 4205,
      "Ġmarked": 4206,
      "conf": 4207,
      "asant": 4208,
      "Ġsucceeded": 4209,
      "Ġliberty": 4210,
      "Ġfamous": 4211,
      "leep": 4212,
      "utions": 4213,
      "Ġsuffer": 4214,
      "Ġsought": 4215,
      "called": 4216,
      "Ġmor": 4217,
      "_)": 4218,
      "Ġgentlemen": 4219,
      "pes": 4220,
      "Ġ190": 4221,
      "rate": 4222,
      "ĠColonel": 4223,
      "last": 4224,
      "ky": 4225,
      "ĠJust": 4226,
      "Ġaddress": 4227,
      "stru": 4228,
      "Ġrising": 4229,
      "col": 4230,
      "Ġneg": 4231,
      "Ġclothes": 4232,
      "cis": 4233,
      "Ġyield": 4234,
      "Ġfate": 4235,
      "Mar": 4236,
      "Ġadvance": 4237,
      "course": 4238,
      "pur": 4239,
      "Ġexper": 4240,
      "acity": 4241,
      "Ġdistant": 4242,
      "ograph": 4243,
      "Ġcatch": 4244,
      "attered": 4245,
      "sing": 4246,
      "ca": 4247,
      "present": 4248,
      "nothing": 4249,
      "ĠPal": 4250,
      "uel": 4251,
      "Ġwouldn": 4252,
      "ground": 4253,
      "theless": 4254,
      "Ġhighest": 4255,
      "ĊĠĠĠĠĠĠĠĠĠĠĠĠĠĠĠĠĠĠĠĠĠĠĠĠ": 4256,
      "ushing": 4257,
      "Ġglory": 4258,
      "nding": 4259,
      "Ġopening": 4260,
      "wr": 4261,
      "ault": 4262,
      "Ġleading": 4263,
      "ov": 4264,
      "Ġinhabit": 4265,
      "AY": 4266,
      "Ġwoods": 4267,
      "Ġaltogether": 4268,
      "asures": 4269,
      "Ġuncle": 4270,
      "Ġgrat": 4271,
      "OW": 4272,
      "ĊĊĊĠ": 4273,
      "oms": 4274,
      "ama": 4275,
      "icy": 4276,
      "Ġsquare": 4277,
      "Ġfond": 4278,
      "pers": 4279,
      "Ġrate": 4280,
      "requ": 4281,
      "Ġpride": 4282,
      "Ġlose": 4283,
      "ĠDan": 4284,
      "Ġque": 4285,
      "Ġassoci": 4286,
      "Ġcook": 4287,
      "omin": 4288,
      "Ġevent": 4289,
      "Ġshare": 4290,
      "Ġresem": 4291,
      "âĢĺ": 4292,
      "Ġshape": 4293,
      "adv": 4294,
      "Ġprice": 4295,
      "Ġcitiz": 4296,
      "-+": 4297,
      "Ġpa": 4298,
      "elle": 4299,
      "ths": 4300,
      "These": 4301,
      "esh": 4302,
      "Ġadvent": 4303,
      "Ġstreets": 4304,
      "hem": 4305,
      "ĠColl": 4306,
      "Ġfault": 4307,
      "urb": 4308,
      "Ġ36": 4309,
      "ousin": 4310,
      "Ġsch": 4311,
      "ĠRichard": 4312,
      "onsieur": 4313,
      "ĠGreek": 4314,
      "Ġclim": 4315,
      "ĠHall": 4316,
      "Ġcorrespond": 4317,
      "Ġsolemn": 4318,
      "Ġtea": 4319,
      "isl": 4320,
      "Where": 4321,
      "ributed": 4322,
      "Ġblow": 4323,
      "Ġwatched": 4324,
      "cor": 4325,
      "arest": 4326,
      "ĠMarch": 4327,
      "Ġseek": 4328,
      "Ġdaily": 4329,
      "Ġhistor": 4330,
      "Ġsuppl": 4331,
      "key": 4332,
      "berg": 4333,
      "Ġcruel": 4334,
      "pie": 4335,
      "ipe": 4336,
      "Ġmir": 4337,
      "ique": 4338,
      "Ġedge": 4339,
      "Ġprinciple": 4340,
      "line": 4341,
      "Ġotherwise": 4342,
      "add": 4343,
      "Ġisn": 4344,
      "Ġpromised": 4345,
      "Per": 4346,
      "Ġaddition": 4347,
      "bly": 4348,
      "Ġroof": 4349,
      "conscious": 4350,
      "Ġcentre": 4351,
      "ĠLaw": 4352,
      "Ġbecomes": 4353,
      "sat": 4354,
      "panied": 4355,
      "Ġfaint": 4356,
      "Ġbless": 4357,
      "ĠAp": 4358,
      "pected": 4359,
      "ĠVol": 4360,
      "war": 4361,
      "Ġpractice": 4362,
      "Ġbull": 4363,
      "Ġcompar": 4364,
      "Ġjudgment": 4365,
      "Ġremoved": 4366,
      "llen": 4367,
      "Ġthro": 4368,
      "Ġsevent": 4369,
      "opp": 4370,
      "unday": 4371,
      "Ġdign": 4372,
      "Ġeld": 4373,
      "Ġexped": 4374,
      "Ġevidently": 4375,
      "Ġcool": 4376,
      "ential": 4377,
      "Ġdoctr": 4378,
      "Ġfarm": 4379,
      "Un": 4380,
      "Com": 4381,
      "Ġwounded": 4382,
      "\"--": 4383,
      "Ġbrief": 4384,
      "Ġrob": 4385,
      "Ġdise": 4386,
      "Ġhearts": 4387,
      "Ġtrad": 4388,
      "ĠMag": 4389,
      "Ġscience": 4390,
      "cture": 4391,
      "asts": 4392,
      "Ġ183": 4393,
      "Ġpage": 4394,
      "ashington": 4395,
      "Ġmarry": 4396,
      "umes": 4397,
      "uary": 4398,
      "AND": 4399,
      "Ġempt": 4400,
      "Ġnice": 4401,
      ".--_": 4402,
      "alities": 4403,
      "ĠTe": 4404,
      "pret": 4405,
      "ĠĠĠĠĠĠĠĠĠĠĠĠĠĠĠĠĠĠĠĠĠĠĠĠĠĠĠĠĠĠĠĠĠĠĠĠĠĠĠĠĠĠĠĠĠĠĠĠ": 4406,
      "Ġdiscover": 4407,
      "umph": 4408,
      "Ġforgotten": 4409,
      "another": 4410,
      "ĠStreet": 4411,
      "uries": 4412,
      "Ġholy": 4413,
      "Ġlarger": 4414,
      "met": 4415,
      "orous": 4416,
      "Ġwaters": 4417,
      "verse": 4418,
      "Ġsuperior": 4419,
      "ĠPort": 4420,
      "ims": 4421,
      "tis": 4422,
      "Ġpp": 4423,
      "onder": 4424,
      "Ġstranger": 4425,
      "Ġcup": 4426,
      "Ġvig": 4427,
      "Ġnine": 4428,
      "ĠĠĠĠĠĠĠĠĠĠ": 4429,
      "Ġprince": 4430,
      "ĠSy": 4431,
      "Ġremarked": 4432,
      "Ġrefused": 4433,
      "Ġlover": 4434,
      "Ġiv": 4435,
      "Ġpointed": 4436,
      "away": 4437,
      "Ġships": 4438,
      "oring": 4439,
      "ĠTur": 4440,
      "nded": 4441,
      "Pr": 4442,
      "ĠJune": 4443,
      ";\"": 4444,
      "against": 4445,
      "Ġtravel": 4446,
      "onies": 4447,
      "Ġspirits": 4448,
      "mind": 4449,
      "Ġcompanion": 4450,
      "Ġserved": 4451,
      "Ġequally": 4452,
      "See": 4453,
      "ĠMe": 4454,
      "utation": 4455,
      "still": 4456,
      "Ġpounds": 4457,
      "Ġkingdom": 4458,
      "aver": 4459,
      "Ġbelief": 4460,
      "Ġquietly": 4461,
      "Ġvo": 4462,
      "isions": 4463,
      "Ġbell": 4464,
      "Ġshadow": 4465,
      "ĠWor": 4466,
      "Ġprincipal": 4467,
      "pril": 4468,
      "Ġ\"_": 4469,
      "because": 4470,
      "ĠHam": 4471,
      "Ġcontrary": 4472,
      "Ġgroup": 4473,
      "Ġterm": 4474,
      "atin": 4475,
      "oseph": 4476,
      "Ġdare": 4477,
      "Ġaside": 4478,
      "ĠFort": 4479,
      "Ġestablished": 4480,
      "asing": 4481,
      "mod": 4482,
      "Ġdropped": 4483,
      "anc": 4484,
      "Ġconfidence": 4485,
      "Ġpriest": 4486,
      "Ġcarriage": 4487,
      "Ġ38": 4488,
      "Ġtot": 4489,
      "Will": 4490,
      "Ġmighty": 4491,
      "enes": 4492,
      "Ġstates": 4493,
      "Ġstorm": 4494,
      ",[": 4495,
      "Christ": 4496,
      "ouring": 4497,
      "Ġsoldier": 4498,
      "ai": 4499,
      "atives": 4500,
      "Ġperform": 4501,
      "Ġdivine": 4502,
      "itz": 4503,
      "Ġpair": 4504,
      "Ġsevere": 4505,
      "Ġplayed": 4506,
      "Ġsacred": 4507,
      "iation": 4508,
      "Ġpapers": 4509,
      "Ġestablish": 4510,
      "ĠSu": 4511,
      "Ġproduce": 4512,
      "ishes": 4513,
      "appear": 4514,
      "whe": 4515,
      "Ġknowing": 4516,
      "ĠSan": 4517,
      "Ġfollows": 4518,
      "stitution": 4519,
      "Ġkeeping": 4520,
      "Ġdouble": 4521,
      "Ġpos": 4522,
      "Ġinterrupt": 4523,
      "itement": 4524,
      "agon": 4525,
      "cked": 4526,
      "Ġrelations": 4527,
      "Who": 4528,
      "Ġdate": 4529,
      "Ġnoticed": 4530,
      "Ġafford": 4531,
      "De": 4532,
      "Miss": 4533,
      "Ġwin": 4534,
      "chen": 4535,
      "ĠLu": 4536,
      "Ġexceed": 4537,
      "Ġaud": 4538,
      "Ex": 4539,
      "ĠMc": 4540,
      "Ġentertain": 4541,
      "Ġknight": 4542,
      "Ġgrowing": 4543,
      "ker": 4544,
      "Ġinnoc": 4545,
      "country": 4546,
      "Ġtitle": 4547,
      "yr": 4548,
      "ranged": 4549,
      "ardon": 4550,
      "ĠPresident": 4551,
      "Ġdust": 4552,
      ".;": 4553,
      "Ġdollars": 4554,
      "unch": 4555,
      "Ġhandsome": 4556,
      "ĠMont": 4557,
      "Ġparticularly": 4558,
      "pher": 4559,
      "Ġcloth": 4560,
      "Ġpity": 4561,
      "Ġindepend": 4562,
      "Ġcell": 4563,
      "Ġsuggested": 4564,
      "Ġtaught": 4565,
      "came": 4566,
      "Ġ50": 4567,
      "arly": 4568,
      "ĠSpanish": 4569,
      "Ġprefer": 4570,
      "Ġprim": 4571,
      "ĠWhile": 4572,
      "host": 4573,
      "cur": 4574,
      "Ġgrown": 4575,
      "Ġinches": 4576,
      "Ġcow": 4577,
      "Ġbrill": 4578,
      "ns": 4579,
      "isher": 4580,
      "Ġoccurred": 4581,
      "Ġcouldn": 4582,
      "Ġnecessity": 4583,
      "gged": 4584,
      "Ġ37": 4585,
      "ivered": 4586,
      "ceive": 4587,
      "Ġappointed": 4588,
      "Ġresist": 4589,
      "Ġunf": 4590,
      "Ġmurm": 4591,
      "Ġfailed": 4592,
      "ĠRobert": 4593,
      "Ġlog": 4594,
      "uding": 4595,
      "Ġlegs": 4596,
      "Ġdistrict": 4597,
      "mo": 4598,
      "between": 4599,
      "uls": 4600,
      "ads": 4601,
      "Ġpowerful": 4602,
      "Ġgar": 4603,
      "Ġtired": 4604,
      "Ġremembered": 4605,
      "Ġinsp": 4606,
      "Ġapparently": 4607,
      "poss": 4608,
      "Ġservants": 4609,
      "ĊĊĠĠĠĠĠĠĠĠĠĠĠĠĠĠĠĠĠĠĠĠĠĠĠĠ": 4610,
      "Ġfaces": 4611,
      "Ġsecure": 4612,
      "Ġconcer": 4613,
      "Ġdisapp": 4614,
      "lor": 4615,
      "rue": 4616,
      "ufact": 4617,
      "sw": 4618,
      "Ġworked": 4619,
      "ĠSpain": 4620,
      "ara": 4621,
      "Ġincreased": 4622,
      "ada": 4623,
      "shall": 4624,
      "Ġstands": 4625,
      "Ġnations": 4626,
      "Ġshows": 4627,
      "Ġcelebr": 4628,
      "rie": 4629,
      "Ġeducation": 4630,
      "itch": 4631,
      "uable": 4632,
      "Ġfingers": 4633,
      "ĠProf": 4634,
      "Ġreck": 4635,
      "mond": 4636,
      "Ġprinciples": 4637,
      "Ġexplained": 4638,
      "Ġdesired": 4639,
      "Ġthroughout": 4640,
      "giv": 4641,
      "Ġgolden": 4642,
      "Ġexpressed": 4643,
      "Ġrapidly": 4644,
      "osen": 4645,
      "Ġrocks": 4646,
      "Ġinstru": 4647,
      "lection": 4648,
      "Ġseries": 4649,
      "Ġlod": 4650,
      "OD": 4651,
      "ĠJuly": 4652,
      "Ġfer": 4653,
      "Ġ39": 4654,
      "Ġseized": 4655,
      "Ġpossessed": 4656,
      "Ġhom": 4657,
      "bury": 4658,
      "ittee": 4659,
      "ĠMac": 4660,
      "ĠArch": 4661,
      "ares": 4662,
      "ĠHel": 4663,
      "ĠCast": 4664,
      "Ġamb": 4665,
      "Ġadvanced": 4666,
      "SE": 4667,
      "Ġmajor": 4668,
      "Ġshoulder": 4669,
      "Ġenemies": 4670,
      "flict": 4671,
      "Ġasser": 4672,
      "wind": 4673,
      "Ġguess": 4674,
      "Ġagreed": 4675,
      "ivity": 4676,
      "hus": 4677,
      "ĠAf": 4678,
      "ĠFig": 4679,
      "Ġlear": 4680,
      "terday": 4681,
      "Ġcrossed": 4682,
      "ological": 4683,
      "=,": 4684,
      "utenant": 4685,
      "22": 4686,
      "Ġtransl": 4687,
      "Ġmanif": 4688,
      "izing": 4689,
      "uated": 4690,
      "inet": 4691,
      "Ġpocket": 4692,
      "Ġtongue": 4693,
      "ĠDavid": 4694,
      "bits": 4695,
      "Ġwilling": 4696,
      "Ġvers": 4697,
      "TA": 4698,
      "Ġactually": 4699,
      "Ġbreakfast": 4700,
      "Ã¦": 4701,
      "Ġsubjects": 4702,
      "udden": 4703,
      "Ġice": 4704,
      "Ġskin": 4705,
      "Ġwindows": 4706,
      "Ġtim": 4707,
      "Ġcolor": 4708,
      "Ġbent": 4709,
      "Ġvolume": 4710,
      "Ġunknown": 4711,
      "Ġmult": 4712,
      "ĠWil": 4713,
      "Ġintellect": 4714,
      "Ġdirectly": 4715,
      "Ġpreced": 4716,
      "Ġjoined": 4717,
      "Ġsurprised": 4718,
      "Le": 4719,
      "Ġconsequence": 4720,
      "Ġbodies": 4721,
      "Ġuseful": 4722,
      "ĠEdward": 4723,
      "ĠRiver": 4724,
      "Come": 4725,
      "Ġflesh": 4726,
      "Ġshoulders": 4727,
      "ĠSch": 4728,
      "Ġrank": 4729,
      "ĠHigh": 4730,
      "ĠPat": 4731,
      "Ġprovided": 4732,
      "Pro": 4733,
      "ĠSen": 4734,
      "Ġangry": 4735,
      "ĊĠĠĠĠĠĠĠĠĠĠĠ": 4736,
      "rant": 4737,
      "Ġnaturally": 4738,
      "____": 4739,
      "anch": 4740,
      "ĠComm": 4741,
      "ĠGood": 4742,
      "Ġcontem": 4743,
      "ĠJim": 4744,
      "Ġtheory": 4745,
      "estic": 4746,
      "Ġfigures": 4747,
      "Ġinstr": 4748,
      "RI": 4749,
      "olved": 4750,
      "ĠCH": 4751,
      "Ġdeser": 4752,
      "hall": 4753,
      "ĠSmith": 4754,
      "Ġbore": 4755,
      "Ġcarrying": 4756,
      "Ġtwice": 4757,
      "Ġrights": 4758,
      "astern": 4759,
      "Ġtail": 4760,
      "ĠEast": 4761,
      "Ġteeth": 4762,
      "Ġgathered": 4763,
      "Ġcreature": 4764,
      "PSIL": 4765,
      "PSILON": 4766,
      "Ġdrive": 4767,
      "Ġwriter": 4768,
      "ds": 4769,
      "Ġnational": 4770,
      "rifice": 4771,
      "ĠTwo": 4772,
      "Ġdriven": 4773,
      "something": 4774,
      "Ġwaited": 4775,
      "cles": 4776,
      "Ġsuffered": 4777,
      "Ġtask": 4778,
      "ĠBen": 4779,
      "ĠYes": 4780,
      "Ġsatisfied": 4781,
      "ĠMer": 4782,
      "Ġclearly": 4783,
      "Ġguns": 4784,
      "Ġdem": 4785,
      "Ġflat": 4786,
      "Ġrelief": 4787,
      "inity": 4788,
      "Ġbase": 4789,
      "Ġsurely": 4790,
      "iest": 4791,
      "stra": 4792,
      "Ġcontent": 4793,
      "Ġdistinguished": 4794,
      "Ġpurcha": 4795,
      "Ġmidst": 4796,
      "ico": 4797,
      "Ġsaved": 4798,
      "udes": 4799,
      "ĠMore": 4800,
      "sured": 4801,
      "Ġwhispered": 4802,
      "mat": 4803,
      "mense": 4804,
      "ĠVirgin": 4805,
      "Ġain": 4806,
      "Ġadmitted": 4807,
      "mark": 4808,
      "Good": 4809,
      "Ġfreedom": 4810,
      "enance": 4811,
      "Ġfinding": 4812,
      "Ġreader": 4813,
      "Ġhurried": 4814,
      "ĠRed": 4815,
      "aling": 4816,
      "40": 4817,
      "ĠItaly": 4818,
      "ilst": 4819,
      "ĠOct": 4820,
      "Ġthrow": 4821,
      "ĠĠĠĠĠĠĠĠĠĠĠ": 4822,
      "Ġmission": 4823,
      "Ġstones": 4824,
      "Ġacquaint": 4825,
      "Ġsmoke": 4826,
      "Ġsoil": 4827,
      "Ġsons": 4828,
      "same": 4829,
      "ĠCath": 4830,
      "Ġbag": 4831,
      "Ġtalked": 4832,
      "Ġcoat": 4833,
      "Ġsupply": 4834,
      "Ġmyst": 4835,
      "rab": 4836,
      "ĠBel": 4837,
      "Ġluck": 4838,
      "seen": 4839,
      "Ġfarther": 4840,
      "Ġrode": 4841,
      "contin": 4842,
      "happy": 4843,
      "sue": 4844,
      "ari": 4845,
      "ILL": 4846,
      "ĠChe": 4847,
      "Ġfan": 4848,
      "Ġalive": 4849,
      "Ġtruly": 4850,
      "Ġtouched": 4851,
      "la": 4852,
      "rer": 4853,
      "Ġfly": 4854,
      "Ġregret": 4855,
      "Ġconnected": 4856,
      "Ġapplied": 4857,
      "Ġwand": 4858,
      "Ġfellows": 4859,
      "Ġnumbers": 4860,
      "ĠIrish": 4861,
      "Ġshame": 4862,
      "Ġbusy": 4863,
      "iber": 4864,
      "Ġtelling": 4865,
      "ilities": 4866,
      "Ġlack": 4867,
      "Ġdangerous": 4868,
      "board": 4869,
      "ĠMaster": 4870,
      "ieved": 4871,
      "Ġhosp": 4872,
      "Ġdescription": 4873,
      "Ġharm": 4874,
      "ta": 4875,
      "boy": 4876,
      "ĠMa": 4877,
      "make": 4878,
      "Ġconsist": 4879,
      "Ġsplendid": 4880,
      "ĠIts": 4881,
      "Ġminds": 4882,
      "ĠRom": 4883,
      "MA": 4884,
      "Ġflower": 4885,
      "Ġneeded": 4886,
      "ension": 4887,
      "themselves": 4888,
      "Ġaware": 4889,
      "Ġarrival": 4890,
      "enny": 4891,
      "Ġelect": 4892,
      "Ġtal": 4893,
      "Ġproceeded": 4894,
      "Ġresults": 4895,
      "Ġlake": 4896,
      "Ġz": 4897,
      "Ġshel": 4898,
      "overy": 4899,
      "utch": 4900,
      "Ġdiss": 4901,
      "Ġinside": 4902,
      "ĠSunday": 4903,
      "point": 4904,
      "Ġbearing": 4905,
      "seless": 4906,
      "pres": 4907,
      "cribed": 4908,
      "esides": 4909,
      "ago": 4910,
      "UL": 4911,
      "ĠIV": 4912,
      "Ġtreated": 4913,
      "cean": 4914,
      "fam": 4915,
      "Ġgather": 4916,
      "Ġduties": 4917,
      "Ġyours": 4918,
      "rill": 4919,
      "ĠJe": 4920,
      "[=": 4921,
      "Ġaband": 4922,
      "Ġobjects": 4923,
      "Ġsuspect": 4924,
      "ĠGermany": 4925,
      "Ġdressed": 4926,
      "bus": 4927,
      "ĠHeaven": 4928,
      "ĠPet": 4929,
      "ĠEmperor": 4930,
      "Ġrub": 4931,
      "21": 4932,
      "Ġpalace": 4933,
      "held": 4934,
      "Ġcompletely": 4935,
      "disc": 4936,
      "Ġlisten": 4937,
      "Ġshoot": 4938,
      "ober": 4939,
      "aith": 4940,
      "Ġtype": 4941,
      "Ġlovely": 4942,
      "Ġxx": 4943,
      "isp": 4944,
      "Ġcorrect": 4945,
      "ĠYour": 4946,
      "ERS": 4947,
      "Ġinhabitants": 4948,
      "ician": 4949,
      "Ġhurt": 4950,
      "Ġyards": 4951,
      "equ": 4952,
      "izab": 4953,
      "UM": 4954,
      "power": 4955,
      "ĠWal": 4956,
      "Ġsalt": 4957,
      "ĠAlex": 4958,
      "world": 4959,
      "Ġbal": 4960,
      "ula": 4961,
      "ustomed": 4962,
      "Ġreign": 4963,
      "Ġcurrent": 4964,
      "Ġspect": 4965,
      "Ġlevel": 4966,
      "going": 4967,
      "inions": 4968,
      "Ġgenius": 4969,
      "Ġprayer": 4970,
      "quar": 4971,
      "Ġstruggle": 4972,
      "Ġgloom": 4973,
      "Sir": 4974,
      "Ġhither": 4975,
      "Ġabsence": 4976,
      "Ġclosely": 4977,
      "Ġmile": 4978,
      "ica": 4979,
      "ĠHad": 4980,
      "ĠWhite": 4981,
      "Ġmas": 4982,
      "Ġ21": 4983,
      "Ġlabor": 4984,
      "ĠOM": 4985,
      "urd": 4986,
      "edy": 4987,
      "ĠMany": 4988,
      "ĠMil": 4989,
      "Ġinstit": 4990,
      "lessly": 4991,
      "Ġhide": 4992,
      "ĠSer": 4993,
      "ĠPhilip": 4994,
      "cknow": 4995,
      "aunt": 4996,
      "Ġge": 4997,
      "Ġdemanded": 4998,
      "Ġproposed": 4999,
      "olf": 5000,
      "va": 5001,
      "ĠWashington": 5002,
      "Ġputting": 5003,
      "Ġbuy": 5004,
      "Ġaccompanied": 5005,
      "Ġnovel": 5006,
      "rat": 5007,
      "Ġnod": 5008,
      "ĠSept": 5009,
      "Ġmilk": 5010,
      "Ġflo": 5011,
      "po": 5012,
      "ATION": 5013,
      "hon": 5014,
      "teenth": 5015,
      "ĠBra": 5016,
      "Ġnoise": 5017,
      "Ġslave": 5018,
      "ĠIndia": 5019,
      "Ġdism": 5020,
      "Ġfortun": 5021,
      "irable": 5022,
      "Ġconcerning": 5023,
      "win": 5024,
      "Ġwants": 5025,
      "Ġnearer": 5026,
      "Ġbrain": 5027,
      "Ġefforts": 5028,
      "ĠCongress": 5029,
      "ains": 5030,
      "ĠApril": 5031,
      "anim": 5032,
      "Ġforces": 5033,
      "Ġfifteen": 5034,
      "ĊĊĠĠĠĠĠĠĠĠĠĠĠĠĠĠĠĠ": 5035,
      "Ġwore": 5036,
      "bra": 5037,
      "Ġenthus": 5038,
      "Ġpersu": 5039,
      "Ġplants": 5040,
      "Ġburning": 5041,
      "Ġsupper": 5042,
      "woman": 5043,
      "Ġmember": 5044,
      "Ġrelation": 5045,
      "Ġwatching": 5046,
      "ĠFirst": 5047,
      "Some": 5048,
      "things": 5049,
      "Ġwalking": 5050,
      "Ġacknow": 5051,
      "Ġgods": 5052,
      "Ġsympathy": 5053,
      "master": 5054,
      "ĠJoseph": 5055,
      "taken": 5056,
      "Ġadvice": 5057,
      "UN": 5058,
      "Ġinvest": 5059,
      "Ġspr": 5060,
      "Ġpick": 5061,
      "Ġjoin": 5062,
      "Ġhappen": 5063,
      "Ġproportion": 5064,
      "Ġqueen": 5065,
      "plic": 5066,
      "Ġcrim": 5067,
      "young": 5068,
      "Ġunfortun": 5069,
      "Ġmyster": 5070,
      "Ġhearing": 5071,
      "oration": 5072,
      "Ġamongst": 5073,
      "ointment": 5074,
      "rived": 5075,
      "ĠCam": 5076,
      "nel": 5077,
      "RON": 5078,
      "Ġdevelopment": 5079,
      "Ġcommer": 5080,
      "net": 5081,
      "Ġrom": 5082,
      "ĠMed": 5083,
      "Ġexcited": 5084,
      "Ġstars": 5085,
      "ĠHoly": 5086,
      "Ġaccepted": 5087,
      "reland": 5088,
      "others": 5089,
      "ana": 5090,
      "Ġmarch": 5091,
      "Ġride": 5092,
      "Ġpred": 5093,
      "years": 5094,
      "commend": 5095,
      "Ġhun": 5096,
      "etch": 5097,
      "olit": 5098,
      "Ġimpression": 5099,
      "Ġlands": 5100,
      "Ġofficial": 5101,
      "Ġvirtue": 5102,
      "Ġgradually": 5103,
      "Ġmoving": 5104,
      "circ": 5105,
      "Ġcareful": 5106,
      "ounding": 5107,
      "EM": 5108,
      "Ġminister": 5109,
      "tending": 5110,
      "Ġsmiling": 5111,
      "Ġtempt": 5112,
      "ĠSat": 5113,
      "Ġintroduced": 5114,
      "Ġfeatures": 5115,
      "rael": 5116,
      "took": 5117,
      "Ġrequire": 5118,
      "sper": 5119,
      "Ġsex": 5120,
      "Ġpan": 5121,
      "Ġflag": 5122,
      "Ġrepresented": 5123,
      "kin": 5124,
      "Ġdull": 5125,
      "Ġpill": 5126,
      "too": 5127,
      "Qu": 5128,
      "Ġorn": 5129,
      "ino": 5130,
      "Ġentrance": 5131,
      "Ġdevil": 5132,
      "aps": 5133,
      "Ġtells": 5134,
      "ldom": 5135,
      "Ġdozen": 5136,
      "Ġspiritual": 5137,
      "Ġexplan": 5138,
      "Ġfaithful": 5139,
      "Ġaffair": 5140,
      "Ġdivided": 5141,
      "rated": 5142,
      "Ġcopy": 5143,
      "Ġhighly": 5144,
      "Ġcerem": 5145,
      "ĠAfric": 5146,
      "tell": 5147,
      "eling": 5148,
      "agement": 5149,
      "Ġprevious": 5150,
      "Ġexcitement": 5151,
      "Ġceased": 5152,
      "Ġburied": 5153,
      "Ġrespons": 5154,
      "conom": 5155,
      "mist": 5156,
      "asped": 5157,
      "Ġfields": 5158,
      "Am": 5159,
      "Ġpossibly": 5160,
      "pic": 5161,
      "iform": 5162,
      "ĠLy": 5163,
      "Ġdisplay": 5164,
      "always": 5165,
      "Ġcultiv": 5166,
      "ref": 5167,
      "Ġempty": 5168,
      "ĠMajesty": 5169,
      "Ġpu": 5170,
      "ĠJo": 5171,
      "oused": 5172,
      "Ġsuffering": 5173,
      "ĠBill": 5174,
      "ĠIm": 5175,
      "ĠBlack": 5176,
      "Ġbegun": 5177,
      "?--": 5178,
      "Ġkeen": 5179,
      "Ġcomposed": 5180,
      "ealous": 5181,
      "Ġincrease": 5182,
      "natural": 5183,
      "Ġgray": 5184,
      "Ġswift": 5185,
      "ato": 5186,
      "Ġsaf": 5187,
      "ĠBet": 5188,
      "Ġgained": 5189,
      "Ġworst": 5190,
      "far": 5191,
      "~,": 5192,
      "Ġflight": 5193,
      "uts": 5194,
      "Ġtax": 5195,
      "Ġquantity": 5196,
      "consider": 5197,
      "Ġworship": 5198,
      "Ġassured": 5199,
      "vest": 5200,
      "Ġconnection": 5201,
      "Ġsuspic": 5202,
      "Ġhesit": 5203,
      "acqu": 5204,
      "Ġcouple": 5205,
      "Ġliked": 5206,
      "UT": 5207,
      "Ġmal": 5208,
      "Ġfalling": 5209,
      "ĠPerhaps": 5210,
      "ĠRoyal": 5211,
      "Ġpartly": 5212,
      "asy": 5213,
      "Ġconsideration": 5214,
      "lie": 5215,
      "33": 5216,
      "Ġseated": 5217,
      "Ġprotect": 5218,
      "ixt": 5219,
      "rific": 5220,
      "dire": 5221,
      "Ġcoff": 5222,
      "Ġengine": 5223,
      "Ġpresently": 5224,
      "ĠEn": 5225,
      "Ġlistened": 5226,
      "ige": 5227,
      "Ġrooms": 5228,
      "Ġsuit": 5229,
      "ARD": 5230,
      "Ġends": 5231,
      "ourable": 5232,
      "Ġadmit": 5233,
      "ĠVen": 5234,
      "ĠItalian": 5235,
      "Ġble": 5236,
      "otes": 5237,
      "John": 5238,
      "racters": 5239,
      "Ġdiam": 5240,
      "ĠSal": 5241,
      "Ġhence": 5242,
      "Ġmoments": 5243,
      "ĠÃ": 5244,
      "Ġparents": 5245,
      "Ġshowing": 5246,
      "Ġinstinct": 5247,
      "Ġ45": 5248,
      "Ġcircle": 5249,
      "Ġing": 5250,
      "Your": 5251,
      "cho": 5252,
      "ounce": 5253,
      "atively": 5254,
      "Ġwholly": 5255,
      "aming": 5256,
      "uit": 5257,
      "Nor": 5258,
      "Ġamid": 5259,
      "Ġaver": 5260,
      "Ġwings": 5261,
      "Ġdeeply": 5262,
      "Ġwelcome": 5263,
      "illa": 5264,
      "gs": 5265,
      "Ġextraordinary": 5266,
      "Ġabsolutely": 5267,
      "ĠBrown": 5268,
      "Ġstern": 5269,
      "Ġcro": 5270,
      "Ġaccident": 5271,
      "Ġunable": 5272,
      "Ġcalling": 5273,
      "Ġstore": 5274,
      "kins": 5275,
      "itchen": 5276,
      "Ġgrief": 5277,
      "Ġevident": 5278,
      "Ġwhilst": 5279,
      "Ġtext": 5280,
      "cast": 5281,
      "Ġkinds": 5282,
      "Ġkindly": 5283,
      "izabeth": 5284,
      "prop": 5285,
      "Ġinterests": 5286,
      "Ġho": 5287,
      "Ġloose": 5288,
      "esc": 5289,
      "unning": 5290,
      "reason": 5291,
      "Ġlaughing": 5292,
      "Ġpor": 5293,
      "Ġdespair": 5294,
      "real": 5295,
      "Ġbridge": 5296,
      "Ġcastle": 5297,
      "Ġretreat": 5298,
      "iii": 5299,
      "born": 5300,
      "Ġcolumn": 5301,
      "Ġlifted": 5302,
      "aved": 5303,
      "Ġimmense": 5304,
      "ĠXV": 5305,
      "six": 5306,
      "Ġliterature": 5307,
      "Ġskill": 5308,
      "Ġdrove": 5309,
      "rim": 5310,
      "Ġmat": 5311,
      "Ġwicked": 5312,
      "Ġhuge": 5313,
      "Ġchamber": 5314,
      "Ġstated": 5315,
      "case": 5316,
      "alls": 5317,
      "Ġphysical": 5318,
      "acon": 5319,
      "Ġthoroughly": 5320,
      "tle": 5321,
      "Ġ179": 5322,
      "ĠFred": 5323,
      "Ġhopes": 5324,
      "Ġ-": 5325,
      "aks": 5326,
      "sued": 5327,
      "Ġcapable": 5328,
      "Ġsmooth": 5329,
      "Wh": 5330,
      "inging": 5331,
      "Ġrender": 5332,
      "return": 5333,
      "iture": 5334,
      "iel": 5335,
      "Ġlibr": 5336,
      "CE": 5337,
      "Ġwisdom": 5338,
      "Ġcompanions": 5339,
      "Ġtele": 5340,
      "Ġenv": 5341,
      "Ġactual": 5342,
      "Ġteacher": 5343,
      "Ġparties": 5344,
      "36": 5345,
      "Ġfighting": 5346,
      "inced": 5347,
      "Ġprepar": 5348,
      "Ġobey": 5349,
      "ption": 5350,
      "Ġdelay": 5351,
      "Ġstriking": 5352,
      "Re": 5353,
      "went": 5354,
      "ulate": 5355,
      "ĠJul": 5356,
      "Ġimagine": 5357,
      "gent": 5358,
      "Ġdying": 5359,
      "Ġviews": 5360,
      "Ġinformed": 5361,
      "Ġstick": 5362,
      "ĠVer": 5363,
      "common": 5364,
      "ĠMex": 5365,
      "eless": 5366,
      "Ġprisoner": 5367,
      "urity": 5368,
      "och": 5369,
      "Ġcredit": 5370,
      "Ġbranches": 5371,
      "Ġproject": 5372,
      "Ġcrime": 5373,
      "Ġwed": 5374,
      "IST": 5375,
      "Ġpractical": 5376,
      "Ġarranged": 5377,
      "Pl": 5378,
      "Ġtrial": 5379,
      "ĠĠĠĠĠĠĠĠĠĠĠĠĠĠ": 5380,
      "Ġnose": 5381,
      "having": 5382,
      "arse": 5383,
      "Ġsan": 5384,
      "ĠBook": 5385,
      "ĠHarry": 5386,
      "Ġchosen": 5387,
      "Ġnon": 5388,
      "ĠCa": 5389,
      "sell": 5390,
      "Ġmurder": 5391,
      "Ġcauses": 5392,
      "Ġdevoted": 5393,
      "bour": 5394,
      "ĠCome": 5395,
      "Ġdisci": 5396,
      "love": 5397,
      "rows": 5398,
      "Ġmistake": 5399,
      "ĠPope": 5400,
      "Ġnotes": 5401,
      "Ġfairly": 5402,
      "Ġsurrounded": 5403,
      "Ġstories": 5404,
      "Ġadopted": 5405,
      "Ġresolved": 5406,
      "Ġdoors": 5407,
      "ĠGo": 5408,
      "Ġsingular": 5409,
      "ilty": 5410,
      "Ġreasons": 5411,
      "',": 5412,
      "Ġfever": 5413,
      "Ġrout": 5414,
      "ĠLife": 5415,
      "ĠRob": 5416,
      "oqu": 5417,
      "Ġsatisfaction": 5418,
      "irs": 5419,
      "Ġrad": 5420,
      "ĠMark": 5421,
      "Ġfold": 5422,
      "also": 5423,
      "Ġhoped": 5424,
      "alog": 5425,
      "ĠNature": 5426,
      "Ġdelicate": 5427,
      "riot": 5428,
      "Ġgay": 5429,
      "ena": 5430,
      "Ġremind": 5431,
      "Ġtransp": 5432,
      "necessary": 5433,
      "ĠFrancis": 5434,
      "ĠNat": 5435,
      "dep": 5436,
      "fulness": 5437,
      "Ġactive": 5438,
      "General": 5439,
      "looked": 5440,
      "Ġgle": 5441,
      "Ġinterested": 5442,
      "uddenly": 5443,
      "Ġquality": 5444,
      "beaut": 5445,
      "Ġconstant": 5446,
      "35": 5447,
      "Ġtu": 5448,
      "Ġfemale": 5449,
      "Ġsheep": 5450,
      "Ġterror": 5451,
      "Ġsigh": 5452,
      "aine": 5453,
      "PHA": 5454,
      "ĠCoun": 5455,
      "urely": 5456,
      "Ġrendered": 5457,
      "satisf": 5458,
      "Ġattached": 5459,
      "Ġident": 5460,
      "Ġintention": 5461,
      "gener": 5462,
      "Ġprofession": 5463,
      "IM": 5464,
      "low": 5465,
      "Ġpopulation": 5466,
      "Ġaim": 5467,
      "SS": 5468,
      "sent": 5469,
      "Ġexercise": 5470,
      "Ġarrest": 5471,
      "acles": 5472,
      "Ġvisited": 5473,
      "Ġvessels": 5474,
      "Ġapproach": 5475,
      "Ġassem": 5476,
      "Ġvariety": 5477,
      "ĠWas": 5478,
      "org": 5479,
      "Ġearlier": 5480,
      "thur": 5481,
      "oop": 5482,
      "Ġgrey": 5483,
      "cra": 5484,
      "ĠĠĠĠĠĠĠĠĠĠĠĠĠĠĠ": 5485,
      "Ġescaped": 5486,
      "eding": 5487,
      "Ġvaluable": 5488,
      "hips": 5489,
      "Ġworn": 5490,
      "Ġmerchant": 5491,
      "ĠĠĠĠĠĠĠĠĠĠĠĠĠ": 5492,
      "sey": 5493,
      "Ġreven": 5494,
      "Ġarose": 5495,
      "Ġrejo": 5496,
      "Ġplate": 5497,
      "mes": 5498,
      "ĠMo": 5499,
      "Ġprompt": 5500,
      "however": 5501,
      "Ġcontinue": 5502,
      "Ġprisoners": 5503,
      "aints": 5504,
      "Ġbutter": 5505,
      ".\"[": 5506,
      "Ġdogs": 5507,
      "ĠĠĠĠĠĠĠĠĠĠĠĠ": 5508,
      "cientific": 5509,
      "rors": 5510,
      "ourn": 5511,
      "yer": 5512,
      "Ġ180": 5513,
      "Ġseparate": 5514,
      "Ġbrilliant": 5515,
      "lim": 5516,
      "Ad": 5517,
      "Ġsolid": 5518,
      "Ġstead": 5519,
      "bridge": 5520,
      "Ġsafety": 5521,
      "Ġmercy": 5522,
      "Ġdeck": 5523,
      "ĠAunt": 5524,
      "Ġcollect": 5525,
      "Ġ[_": 5526,
      "Ġtur": 5527,
      "Ġpressed": 5528,
      "ĠNever": 5529,
      "Ġstrict": 5530,
      "asted": 5531,
      "inking": 5532,
      "Ġexha": 5533,
      "Ġinquir": 5534,
      "Can": 5535,
      "Ġappreci": 5536,
      "inction": 5537,
      "Ġexchan": 5538,
      "eyes": 5539,
      "Ġaunt": 5540,
      "Ġdrop": 5541,
      "Ġhate": 5542,
      "Ġrev": 5543,
      "mir": 5544,
      "Ġcondem": 5545,
      "Ġprinted": 5546,
      "Ġflour": 5547,
      "phy": 5548,
      "Ġfinal": 5549,
      "Ġconstitution": 5550,
      "rous": 5551,
      "Ġmanufact": 5552,
      "amps": 5553,
      "Ġwet": 5554,
      "Ġvoy": 5555,
      "ills": 5556,
      "Ġabund": 5557,
      "Ġprospect": 5558,
      "sal": 5559,
      "rences": 5560,
      "ĠTem": 5561,
      "Ġpatient": 5562,
      "olid": 5563,
      "oston": 5564,
      "Ġcountries": 5565,
      "coming": 5566,
      "Ġstatement": 5567,
      "Ġadmin": 5568,
      "ĠDes": 5569,
      "Ġ44": 5570,
      "Ġdestroyed": 5571,
      "garet": 5572,
      "racted": 5573,
      "Ġconcerned": 5574,
      "ĠDu": 5575,
      "Ġcitizens": 5576,
      "Ġsuccessful": 5577,
      "care": 5578,
      "oft": 5579,
      "pat": 5580,
      "ĠGree": 5581,
      "Ġdesper": 5582,
      "Ġdoctrine": 5583,
      "Ġavoid": 5584,
      "agger": 5585,
      "Ġsubs": 5586,
      "ĠOnly": 5587,
      "Ġpron": 5588,
      "white": 5589,
      ";--": 5590,
      "ĠMal": 5591,
      "Ġmistress": 5592,
      "Ġmeat": 5593,
      "ELL": 5594,
      "Ġknees": 5595,
      "Ġconfess": 5596,
      "ĠIreland": 5597,
      "iosity": 5598,
      "Cl": 5599,
      "ropri": 5600,
      "ĠBishop": 5601,
      "Ġbringing": 5602,
      "question": 5603,
      "tym": 5604,
      "Ġimpl": 5605,
      "Ġcities": 5606,
      "Ġsooner": 5607,
      "ĠSim": 5608,
      "Ġplaying": 5609,
      "Ġrepro": 5610,
      "].": 5611,
      "ĠMic": 5612,
      "Ġdisease": 5613,
      "Ġindign": 5614,
      "Ġenergy": 5615,
      "nds": 5616,
      "ovember": 5617,
      "Ġteach": 5618,
      "ĠGra": 5619,
      "Ġdirected": 5620,
      "Ġ178": 5621,
      "Ġended": 5622,
      "ĠEs": 5623,
      "Ġnarr": 5624,
      "character": 5625,
      "Ġcattle": 5626,
      "Ġaddressed": 5627,
      "ĠAh": 5628,
      "Ġpolicy": 5629,
      "Ġgoods": 5630,
      "Ġarticle": 5631,
      "Ġrequest": 5632,
      "Ġconstantly": 5633,
      "ĠParliament": 5634,
      "Ġcousin": 5635,
      "Ġcontained": 5636,
      "door": 5637,
      "Ġtum": 5638,
      "Ġimagination": 5639,
      "Ġgently": 5640,
      "ĠGrand": 5641,
      "Ġreward": 5642,
      "Ġclasses": 5643,
      "ĠAcc": 5644,
      "Lord": 5645,
      "ĠALPHA": 5646,
      "ĠAnn": 5647,
      "ĠCat": 5648,
      "Ġbecoming": 5649,
      "fin": 5650,
      "mosp": 5651,
      "success": 5652,
      "Ġchiefly": 5653,
      "Ġclouds": 5654,
      "ĠCompany": 5655,
      "Ġyesterday": 5656,
      "Ġalt": 5657,
      "pent": 5658,
      "heard": 5659,
      "Ġlabour": 5660,
      "Ġfought": 5661,
      "hael": 5662,
      "owned": 5663,
      "Ġchoice": 5664,
      "ĠCity": 5665,
      "Ġimpat": 5666,
      "Ġpainted": 5667,
      "large": 5668,
      "Ġshr": 5669,
      "Ġeffects": 5670,
      "Ġmagnific": 5671,
      "OP": 5672,
      "cember": 5673,
      "Ġbay": 5674,
      "wed": 5675,
      "Ġliqu": 5676,
      "antry": 5677,
      "iah": 5678,
      "Ġslightly": 5679,
      "blem": 5680,
      "erk": 5681,
      "ulse": 5682,
      "ĠSociety": 5683,
      "Ġpartic": 5684,
      "stairs": 5685,
      "Ġtowns": 5686,
      "wa": 5687,
      "Ġolder": 5688,
      "Ġshop": 5689,
      "inate": 5690,
      "atre": 5691,
      "Ġtale": 5692,
      "Ġregion": 5693,
      "Ġprivile": 5694,
      "Ġcompelled": 5695,
      "put": 5696,
      "Ġboats": 5697,
      "ĠBay": 5698,
      "Ab": 5699,
      "owder": 5700,
      "Ġrange": 5701,
      "ĠâĢĺ": 5702,
      "Ġindif": 5703,
      "Ġpraise": 5704,
      "gon": 5705,
      "_--": 5706,
      "foot": 5707,
      "Ġcontrol": 5708,
      "ĠProfessor": 5709,
      "mom": 5710,
      "RA": 5711,
      "perhaps": 5712,
      "Ġthinks": 5713,
      "Ġplenty": 5714,
      "force": 5715,
      "ĊĊĊĠĠĠ": 5716,
      "cut": 5717,
      "Ġprotection": 5718,
      "Î½": 5719,
      "Ġchanges": 5720,
      "Ġhaven": 5721,
      "ĠTra": 5722,
      "Ġdig": 5723,
      "Ġfleet": 5724,
      "Ġ#": 5725,
      "Ġguide": 5726,
      "Ġeggs": 5727,
      "inese": 5728,
      "Ġconven": 5729,
      "ĠMat": 5730,
      "Ġdawn": 5731,
      "writ": 5732,
      "Ġseldom": 5733,
      "otton": 5734,
      "Ġcritic": 5735,
      "ĠAc": 5736,
      "comfort": 5737,
      "Ġpulled": 5738,
      "Ġdignity": 5739,
      "Ġconclusion": 5740,
      "Ġexception": 5741,
      "Ġwasn": 5742,
      "Ġimprove": 5743,
      "ĠAg": 5744,
      "respect": 5745,
      "Ġnerv": 5746,
      "Ġreference": 5747,
      "eps": 5748,
      "name": 5749,
      "........": 5750,
      "apole": 5751,
      "ritory": 5752,
      "aly": 5753,
      "ĠBible": 5754,
      "ĠDid": 5755,
      "Ġbought": 5756,
      "urches": 5757,
      "ighed": 5758,
      "Ġinfer": 5759,
      "mag": 5760,
      "Ġrear": 5761,
      "itated": 5762,
      "ĠStill": 5763,
      "Ġimmediate": 5764,
      "Ġacts": 5765,
      "pless": 5766,
      "Ġmarket": 5767,
      "omer": 5768,
      "Ġslaves": 5769,
      "plain": 5770,
      "Ġheav": 5771,
      "ORD": 5772,
      "usual": 5773,
      "duce": 5774,
      "ums": 5775,
      "Ġweary": 5776,
      "sil": 5777,
      "Ġruin": 5778,
      "Ġneeds": 5779,
      "34": 5780,
      "Ġfriendly": 5781,
      "tem": 5782,
      "Ġnur": 5783,
      "Ġcontempt": 5784,
      "Did": 5785,
      "asions": 5786,
      "Ġvictory": 5787,
      "Ġrecoll": 5788,
      "mus": 5789,
      "Ġstrike": 5790,
      "ĠEr": 5791,
      "once": 5792,
      "emy": 5793,
      "ĠJews": 5794,
      "Ġbid": 5795,
      "ĠMen": 5796,
      "stant": 5797,
      "import": 5798,
      "Ġtriumph": 5799,
      "iddle": 5800,
      "Ġcrew": 5801,
      "Ġchapter": 5802,
      "vious": 5803,
      "Ġfoolish": 5804,
      "ĠLove": 5805,
      "ĠMajor": 5806,
      "person": 5807,
      "fig": 5808,
      "ĠLittle": 5809,
      "Ġmessage": 5810,
      "vell": 5811,
      "Ġsigns": 5812,
      "rian": 5813,
      "Ġbanks": 5814,
      "eight": 5815,
      "igation": 5816,
      "60": 5817,
      "otest": 5818,
      "Ġasleep": 5819,
      "henomen": 5820,
      "ĠHu": 5821,
      "ecause": 5822,
      "apoleon": 5823,
      "Ġvisible": 5824,
      "Ġdetails": 5825,
      "Ġraise": 5826,
      "Ġma": 5827,
      "Ġmental": 5828,
      "ĠThose": 5829,
      "iable": 5830,
      "Col": 5831,
      "Ġhidden": 5832,
      "Americ": 5833,
      "Ġwishes": 5834,
      "Ġweap": 5835,
      "Ġprecious": 5836,
      "ĠDel": 5837,
      "Ġbaby": 5838,
      "ĠWood": 5839,
      "Ġsugar": 5840,
      "Ġcountenance": 5841,
      "Ġvision": 5842,
      "ura": 5843,
      "Ġ48": 5844,
      "Ġhole": 5845,
      "ĠDE": 5846,
      "Ġdisappeared": 5847,
      "37": 5848,
      "ĠDor": 5849,
      "Ġfriendship": 5850,
      "Ġeverywhere": 5851,
      "ctive": 5852,
      "Ġartist": 5853,
      "Ġsen": 5854,
      "among": 5855,
      "Ġhotel": 5856,
      "itect": 5857,
      "Ġsouls": 5858,
      "Ġlat": 5859,
      "matter": 5860,
      "ĠOctober": 5861,
      "Ġsprang": 5862,
      "wild": 5863,
      "eenth": 5864,
      "Ġanger": 5865,
      "],": 5866,
      "ints": 5867,
      "prom": 5868,
      "apan": 5869,
      "Ġben": 5870,
      "Ġlocal": 5871,
      "38": 5872,
      "English": 5873,
      "armed": 5874,
      "May": 5875,
      "Ġahead": 5876,
      "Ġthrone": 5877,
      "ĠDoctor": 5878,
      "Ġjealous": 5879,
      "Ġdiscovery": 5880,
      "Ġsell": 5881,
      "Ġassistance": 5882,
      "Ġneighbour": 5883,
      "Ġdemon": 5884,
      "Ġsinging": 5885,
      "Ġtemple": 5886,
      "Ġsovere": 5887,
      "Ġsacrifice": 5888,
      "Ġsource": 5889,
      "ĠThou": 5890,
      "strong": 5891,
      "Ġgreet": 5892,
      "Ġinquired": 5893,
      "Ġspecim": 5894,
      "ĠBab": 5895,
      "Ġoil": 5896,
      "mis": 5897,
      "ange": 5898,
      "Ġacquaintance": 5899,
      "arts": 5900,
      "iversity": 5901,
      "Ġcalls": 5902,
      "ĠLong": 5903,
      "Ġconsent": 5904,
      "ĠLie": 5905,
      "find": 5906,
      "Ġimpress": 5907,
      "Ġargument": 5908,
      "small": 5909,
      "Ġsmaller": 5910,
      "general": 5911,
      "Our": 5912,
      "pot": 5913,
      "39": 5914,
      "Ġinvent": 5915,
      "ĠLatin": 5916,
      "abor": 5917,
      "comple": 5918,
      "cap": 5919,
      "Ġmaintain": 5920,
      "Just": 5921,
      "Ġnobody": 5922,
      "zy": 5923,
      "ĠScotland": 5924,
      "cal": 5925,
      "Ġwound": 5926,
      "Ġvoices": 5927,
      "tense": 5928,
      "ĠPo": 5929,
      "ĠIsrael": 5930,
      "mouth": 5931,
      "given": 5932,
      "Ġextended": 5933,
      "gover": 5934,
      "Ġpoetry": 5935,
      "icted": 5936,
      "Ġblank": 5937,
      "Ġarticles": 5938,
      "Ġsavage": 5939,
      "ria": 5940,
      "Ġsufficiently": 5941,
      "gments": 5942,
      "ĠUnion": 5943,
      "Ġease": 5944,
      "ĠSeptember": 5945,
      "stead": 5946,
      "tt": 5947,
      "ĠBob": 5948,
      "Ġrushed": 5949,
      "Ġcalcul": 5950,
      "rier": 5951,
      "Ġshouted": 5952,
      "udd": 5953,
      "Ġfourth": 5954,
      "Ġconscience": 5955,
      "Ġcard": 5956,
      "Ġdance": 5957,
      "omb": 5958,
      "ĠHowever": 5959,
      "Ġbrothers": 5960,
      "Ġcord": 5961,
      "Ġpup": 5962,
      "ĠFeb": 5963,
      "Ġexplanation": 5964,
      "Ġlux": 5965,
      "ĠMass": 5966,
      "rog": 5967,
      "Ġsentiment": 5968,
      "ĠPers": 5969,
      "almost": 5970,
      "ĠHon": 5971,
      "Par": 5972,
      "onds": 5973,
      "ante": 5974,
      "ugg": 5975,
      "tow": 5976,
      "Ġkindness": 5977,
      "withstanding": 5978,
      "Ġamaz": 5979,
      "ĠSomet": 5980,
      "vert": 5981,
      "Ġages": 5982,
      "Ġeverybody": 5983,
      "65": 5984,
      "Ġextremely": 5985,
      "Ġpages": 5986,
      "Ġpurposes": 5987,
      "ĠTH": 5988,
      "EW": 5989,
      "arded": 5990,
      "Se": 5991,
      "grace": 5992,
      "------": 5993,
      "urbed": 5994,
      "osom": 5995,
      "rait": 5996,
      "ĠFer": 5997,
      "Ġgrowth": 5998,
      "Ġrecommend": 5999,
      "Ġcho": 6000,
      "ruary": 6001,
      "ola": 6002,
      "Ġobst": 6003,
      "Ġattended": 6004,
      "Ġconvey": 6005,
      "uer": 6006,
      "Ġcommission": 6007,
      "Ġcharming": 6008,
      "ĠCatholic": 6009,
      "apa": 6010,
      "Ġawful": 6011,
      "uns": 6012,
      "ĠEarl": 6013,
      "var": 6014,
      "Ġasking": 6015,
      "Ġaccustomed": 6016,
      "Ġapproached": 6017,
      "Ġnewsp": 6018,
      "Ġframe": 6019,
      "Ġcaut": 6020,
      "New": 6021,
      "ĠScott": 6022,
      "ĠThough": 6023,
      "Ġdish": 6024,
      "Ġnatives": 6025,
      "Ġax": 6026,
      "Ġascend": 6027,
      "Ġfinger": 6028,
      "ĠEtym": 6029,
      "yet": 6030,
      "ĠWhe": 6031,
      "Ġkey": 6032,
      "Ġkings": 6033,
      "dem": 6034,
      "Ġamuse": 6035,
      "acious": 6036,
      "Ġcharacters": 6037,
      "Ġfled": 6038,
      "post": 6039,
      "Ġ47": 6040,
      "table": 6041,
      "Ġsche": 6042,
      "OTA": 6043,
      "Ġchoose": 6044,
      "lers": 6045,
      "ĠVal": 6046,
      "Ġpolice": 6047,
      "bably": 6048,
      "Ġox": 6049,
      "mbly": 6050,
      "Ġdoesn": 6051,
      "umin": 6052,
      "Ġconsult": 6053,
      "Or": 6054,
      "non": 6055,
      "Ġthousands": 6056,
      "Ġhorn": 6057,
      "port": 6058,
      "Ġkitchen": 6059,
      "sim": 6060,
      "pir": 6061,
      "Ġstrang": 6062,
      "While": 6063,
      "children": 6064,
      "Ġtreatment": 6065,
      "seemed": 6066,
      "Ġliterary": 6067,
      "Ġ100": 6068,
      "Ġyounger": 6069,
      "amma": 6070,
      "gest": 6071,
      "ĊĠĠĠĠĠĠĠĠĠĠĠĠĠĠĠĠĠĠĠĠĠĠĠĠĠĠĠĠĠĠĠĠ": 6072,
      "Ġindul": 6073,
      "ĠBritain": 6074,
      "Ġham": 6075,
      "Ġservices": 6076,
      "Ġbree": 6077,
      "Ġcontaining": 6078,
      "regular": 6079,
      "Ġreality": 6080,
      "ĠIsland": 6081,
      "ini": 6082,
      "fr": 6083,
      "Ġcontains": 6084,
      "ĠCHAPTER": 6085,
      "Ġarmed": 6086,
      "fire": 6087,
      "Ġexpedition": 6088,
      "better": 6089,
      "Ġpoison": 6090,
      "Ġcommanded": 6091,
      "Ġpardon": 6092,
      "Ġpreserved": 6093,
      "Ġpermitted": 6094,
      "ĠCons": 6095,
      "ĠProv": 6096,
      "Ġmeal": 6097,
      "Ġreturning": 6098,
      "avery": 6099,
      "BER": 6100,
      "ĠLand": 6101,
      "Ġphr": 6102,
      "Ġdesert": 6103,
      "Ġinfinite": 6104,
      "Ġsentence": 6105,
      "Ġcelebrated": 6106,
      "ĠBefore": 6107,
      "arth": 6108,
      "Ġanxiety": 6109,
      "Mad": 6110,
      "prise": 6111,
      "inth": 6112,
      "each": 6113,
      "Ġunex": 6114,
      "Ġinstantly": 6115,
      "Ġhabits": 6116,
      "Ġthroat": 6117,
      "wers": 6118,
      "sembly": 6119,
      "ols": 6120,
      "Ġclever": 6121,
      "urance": 6122,
      "ĠSpirit": 6123,
      "Ġintelligence": 6124,
      "Ġinclined": 6125,
      "ĠAre": 6126,
      "Ġlearning": 6127,
      "Ġguilty": 6128,
      "Ġformerly": 6129,
      "hire": 6130,
      "dest": 6131,
      "olk": 6132,
      "porary": 6133,
      "ailing": 6134,
      "Ġze": 6135,
      "Ġinnocent": 6136,
      "Ġobserv": 6137,
      "Ġtight": 6138,
      "Ġfamilies": 6139,
      "Ġsixty": 6140,
      "stre": 6141,
      "Ġrecognized": 6142,
      "ĠUncle": 6143,
      "left": 6144,
      "Ġven": 6145,
      "Ġenorm": 6146,
      "tri": 6147,
      "ospel": 6148,
      "ĠElizabeth": 6149,
      "Ġutterly": 6150,
      "dro": 6151,
      "ICRON": 6152,
      "ĠOMICRON": 6153,
      "Ġinterrupted": 6154,
      "Ġdelivered": 6155,
      "Ġcondu": 6156,
      "ache": 6157,
      "Ġdivision": 6158,
      "ĠIOTA": 6159,
      "Ġharmon": 6160,
      "Ġplans": 6161,
      "Ġcommitted": 6162,
      "Ġtent": 6163,
      "Ġfo": 6164,
      "Ġshell": 6165,
      "ĠSon": 6166,
      "ifying": 6167,
      "Ġbranch": 6168,
      "Ġunderstanding": 6169,
      "ictor": 6170,
      "Ġ49": 6171,
      "Never": 6172,
      "passed": 6173,
      "alem": 6174,
      "Ġbehold": 6175,
      "Ġwaste": 6176,
      "Every": 6177,
      "mosphere": 6178,
      "Ġstrongly": 6179,
      "Ġvic": 6180,
      "vals": 6181,
      "making": 6182,
      "Ġthanks": 6183,
      "Ġcaval": 6184,
      "Ġglorious": 6185,
      "Ġinse": 6186,
      "Ġmajority": 6187,
      "Ġspend": 6188,
      "da": 6189,
      "Ġlit": 6190,
      "ĠHor": 6191,
      "za": 6192,
      "Ġschol": 6193,
      "ART": 6194,
      "Ġthrust": 6195,
      "ĠGovernor": 6196,
      "ĠDiv": 6197,
      "Bl": 6198,
      "Char": 6199,
      "Ġprosper": 6200,
      "Î±": 6201,
      "Ġfund": 6202,
      "Ġgranted": 6203,
      "Ġpaused": 6204,
      "Ġprobable": 6205,
      "ĠAct": 6206,
      "Ġsettle": 6207,
      "ka": 6208,
      "Ġcott": 6209,
      "idents": 6210,
      "Ġproc": 6211,
      "whole": 6212,
      "Ġfounded": 6213,
      "Ġviolent": 6214,
      "lot": 6215,
      "Ger": 6216,
      "ĠLake": 6217,
      "._]": 6218,
      "Ġuniversal": 6219,
      "Ġedition": 6220,
      "ANT": 6221,
      "piece": 6222,
      "Ġintense": 6223,
      "Ġast": 6224,
      "Ġ60": 6225,
      "Ed": 6226,
      "Ġclergy": 6227,
      "Ġaspect": 6228,
      "Ġmud": 6229,
      "Ġdefence": 6230,
      "Ġcounty": 6231,
      "Thus": 6232,
      "Ġwaves": 6233,
      "ĠVI": 6234,
      "ĠSpe": 6235,
      "ĠRose": 6236,
      "top": 6237,
      "round": 6238,
      "enough": 6239,
      "ĠBesides": 6240,
      "IF": 6241,
      "Ġexhib": 6242,
      "ĠHave": 6243,
      "full": 6244,
      "Ġsilk": 6245,
      "hia": 6246,
      "Ġadmiration": 6247,
      "Ġqualities": 6248,
      "Ġproperly": 6249,
      "Ġabroad": 6250,
      "ĠJanuary": 6251,
      "Ġmale": 6252,
      "atus": 6253,
      "arted": 6254,
      "Are": 6255,
      "ua": 6256,
      "Ġcheeks": 6257,
      "ĠAmong": 6258,
      "ĠHill": 6259,
      "Ġsetting": 6260,
      "ĠGreen": 6261,
      "Ġrecent": 6262,
      "Ġpil": 6263,
      "abs": 6264,
      "aign": 6265,
      "Ġfrequent": 6266,
      "Ġmachine": 6267,
      "Ġstepped": 6268,
      "Ġgift": 6269,
      "represent": 6270,
      "ĠIndeed": 6271,
      "moment": 6272,
      "OC": 6273,
      "Ġsoftly": 6274,
      "ĠPark": 6275,
      "Cha": 6276,
      "osal": 6277,
      "mean": 6278,
      "Ġmanners": 6279,
      "Ġwhence": 6280,
      "Ġattitude": 6281,
      "Ġbetray": 6282,
      "brought": 6283,
      "hind": 6284,
      "ĠOx": 6285,
      "Ġemer": 6286,
      "Ġemotion": 6287,
      "upid": 6288,
      "ĠChan": 6289,
      "Ġacquainted": 6290,
      "Ġelement": 6291,
      "Very": 6292,
      "mal": 6293,
      "ĠEmp": 6294,
      "Ġlest": 6295,
      "Ġclub": 6296,
      "ESS": 6297,
      "Go": 6298,
      "ancholy": 6299,
      "Ġdreadful": 6300,
      "Ġdefend": 6301,
      "west": 6302,
      "Ġfurnished": 6303,
      "ĠAN": 6304,
      "Ġveget": 6305,
      "Ġmounted": 6306,
      "Ġeconom": 6307,
      "ateful": 6308,
      "yard": 6309,
      "Ġsubsequ": 6310,
      "Ġcompre": 6311,
      "ĠMars": 6312,
      "Ġperpet": 6313,
      "Ġoccasionally": 6314,
      "oln": 6315,
      "rates": 6316,
      "abled": 6317,
      "Ġadminist": 6318,
      "Ġsounds": 6319,
      "Ġspark": 6320,
      "Ġrow": 6321,
      "Ġmiserable": 6322,
      "wick": 6323,
      "Ġchest": 6324,
      "Ġshade": 6325,
      "Ġdeparture": 6326,
      "ĠChinese": 6327,
      "Ġdestruction": 6328,
      "ĠEPSILON": 6329,
      "eral": 6330,
      "iasm": 6331,
      "Perhaps": 6332,
      "ĠSav": 6333,
      "Ġclo": 6334,
      "AB": 6335,
      "othe": 6336,
      "Ġhelped": 6337,
      "Ġcreated": 6338,
      "Ġtribes": 6339,
      "Ge": 6340,
      "Ġappeal": 6341,
      "En": 6342,
      "oper": 6343,
      "Ġobserve": 6344,
      "enger": 6345,
      "ĠPri": 6346,
      "Ġcharm": 6347,
      "Ġfatal": 6348,
      "Ġcabin": 6349,
      "Ġstret": 6350,
      "Ġhollow": 6351,
      "girl": 6352,
      "Ġlibrary": 6353,
      "rub": 6354,
      "ardens": 6355,
      "Ġrude": 6356,
      "Ġstairs": 6357,
      "ipped": 6358,
      "ĠCont": 6359,
      "ĠAustri": 6360,
      "position": 6361,
      "cest": 6362,
      "home": 6363,
      "Ġcareer": 6364,
      "break": 6365,
      "Ġenjoyed": 6366,
      "Ġphilosophy": 6367,
      "ita": 6368,
      "Ġmanifest": 6369,
      "\"_": 6370,
      "Ġconfusion": 6371,
      "Ġmechan": 6372,
      "orial": 6373,
      "pen": 6374,
      "ĠCorn": 6375,
      "days": 6376,
      "Ġcenturies": 6377,
      "lease": 6378,
      "ĠNovember": 6379,
      "Ġabsurd": 6380,
      "morning": 6381,
      "ĠArthur": 6382,
      "Ġnest": 6383,
      "rain": 6384,
      "Ġfulf": 6385,
      "ÏĦ": 6386,
      "rary": 6387,
      "Ġdifficulties": 6388,
      "trans": 6389,
      "Ġreduced": 6390,
      "aws": 6391,
      "Ġaccord": 6392,
      "ĠBoston": 6393,
      "ĠKe": 6394,
      "effect": 6395,
      "subject": 6396,
      "Ġdelighted": 6397,
      "Ġinstrument": 6398,
      "Ġwheel": 6399,
      "rich": 6400,
      "ras": 6401,
      "Ġhit": 6402,
      "Ġspl": 6403,
      "rad": 6404,
      "Ġfeather": 6405,
      "imony": 6406,
      "Ġcuriosity": 6407,
      "Î¿": 6408,
      "Ġstuff": 6409,
      "Ġblessed": 6410,
      "Ġchap": 6411,
      "Ġprocl": 6412,
      "div": 6413,
      "Ġrisk": 6414,
      "Ġinch": 6415,
      "Ġdischar": 6416,
      "Ġaffected": 6417,
      "Ġnorthern": 6418,
      "Ġalike": 6419,
      "Sc": 6420,
      "oubt": 6421,
      "Ġlately": 6422,
      "Ġperformed": 6423,
      "Ġwriters": 6424,
      "reck": 6425,
      "Ġfil": 6426,
      "itled": 6427,
      "stri": 6428,
      "Ġreadily": 6429,
      "eous": 6430,
      "45": 6431,
      "Ġchat": 6432,
      "Ġfeared": 6433,
      "Ġsees": 6434,
      "orable": 6435,
      "taking": 6436,
      "Ġocean": 6437,
      "Ġswept": 6438,
      "Ġreferred": 6439,
      "ĠLike": 6440,
      "ĠBell": 6441,
      "ĠDuring": 6442,
      "inger": 6443,
      "Ġthunder": 6444,
      "since": 6445,
      "Ġremarks": 6446,
      "ustry": 6447,
      "ĠSqu": 6448,
      "ĠCouncil": 6449,
      "Ġlone": 6450,
      "abb": 6451,
      "Ġuniform": 6452,
      "Ġaccomplished": 6453,
      "Ġ31": 6454,
      "liness": 6455,
      "resses": 6456,
      "Ġhousehold": 6457,
      "Ġgrant": 6458,
      "entions": 6459,
      "Ġwing": 6460,
      "aughters": 6461,
      "Ġpunishment": 6462,
      "closed": 6463,
      "Ġsuggest": 6464,
      "bor": 6465,
      "Ġideal": 6466,
      "Ġexcuse": 6467,
      "oubted": 6468,
      "Ġpipe": 6469,
      "Ġpriests": 6470,
      "Ġincident": 6471,
      "Ġelder": 6472,
      "Ġunfortunate": 6473,
      "yes": 6474,
      "gate": 6475,
      "Ġleaf": 6476,
      "ĠSar": 6477,
      "Ġbride": 6478,
      "Ġbones": 6479,
      "ĠVan": 6480,
      "enses": 6481,
      "inder": 6482,
      "bow": 6483,
      "Ġborne": 6484,
      "Ġdepos": 6485,
      "Ġmovements": 6486,
      "Ġeagerly": 6487,
      "ĠMargaret": 6488,
      "Ġdoubtless": 6489,
      "hamed": 6490,
      "ĠFar": 6491,
      "worthy": 6492,
      "ĠDecember": 6493,
      "Ġjew": 6494,
      "Ġ46": 6495,
      "iana": 6496,
      "ĠVi": 6497,
      "ĠPh": 6498,
      "ĠFOR": 6499,
      "Ġlikewise": 6500,
      "Ġfrightened": 6501,
      "Ġlegisl": 6502,
      "Ġexcess": 6503,
      "ĠCent": 6504,
      "ban": 6505,
      "Ġignorant": 6506,
      "Ġmode": 6507,
      "Ġprofound": 6508,
      "ĠMonsieur": 6509,
      "Ġobsc": 6510,
      "iated": 6511,
      "Ġuttered": 6512,
      "hundred": 6513,
      "Ġfierce": 6514,
      "Ġeternal": 6515,
      "Ġcomfortable": 6516,
      "incoln": 6517,
      "IX": 6518,
      "Ġpushed": 6519,
      "Ġrefuse": 6520,
      "ĠVirginia": 6521,
      "Ġschools": 6522,
      "Ġmixed": 6523,
      "Ġrang": 6524,
      "ĠCle": 6525,
      "close": 6526,
      "both": 6527,
      "Ġguests": 6528,
      "ĠEach": 6529,
      "Ġbelonged": 6530,
      "Ġtrace": 6531,
      "ĠÂ": 6532,
      "Ġfare": 6533,
      "Ġhumble": 6534,
      "Ġbuildings": 6535,
      "Ġconstru": 6536,
      "?âĢĿ": 6537,
      "Ġfrank": 6538,
      "either": 6539,
      "Ġflying": 6540,
      "hank": 6541,
      "Ġbenefit": 6542,
      "Ġhoriz": 6543,
      "Ġexecution": 6544,
      "Ġleader": 6545,
      "high": 6546,
      "Ġfee": 6547,
      "forth": 6548,
      "Ġunhappy": 6549,
      "Ġannounced": 6550,
      "Ġessential": 6551,
      "Ġmystery": 6552,
      "uv": 6553,
      "Ġwarri": 6554,
      "swe": 6555,
      "ĠEuropean": 6556,
      "Ġmood": 6557,
      "Ġhorror": 6558,
      "Ġpause": 6559,
      "Ġaccur": 6560,
      "ĠMur": 6561,
      "Ġanybody": 6562,
      "erves": 6563,
      "Ġwooden": 6564,
      "Ġassumed": 6565,
      "Ġrecon": 6566,
      "oser": 6567,
      "Ġconvinced": 6568,
      "Ġretired": 6569,
      "Ġcompet": 6570,
      "Ġinner": 6571,
      "HT": 6572,
      "until": 6573,
      "gentle": 6574,
      "Ġexpense": 6575,
      "Ġremaining": 6576,
      "Ġoath": 6577,
      "ĠSand": 6578,
      "44": 6579,
      "Ġphenomen": 6580,
      "Ġslept": 6581,
      "Ġwretched": 6582,
      "Ġacted": 6583,
      "Ġmysterious": 6584,
      "ĠRussian": 6585,
      "Ġ177": 6586,
      "Ġmeasures": 6587,
      "OS": 6588,
      "Ġvoyage": 6589,
      "suffic": 6590,
      "rust": 6591,
      "amped": 6592,
      "Ġutmost": 6593,
      "suff": 6594,
      "class": 6595,
      "live": 6596,
      "turned": 6597,
      "offic": 6598,
      "actory": 6599,
      "Ġislands": 6600,
      "quite": 6601,
      "Ġgovernor": 6602,
      "Ġflood": 6603,
      "ĠJac": 6604,
      "Ġtribe": 6605,
      "Ġsurre": 6606,
      "Ġsecured": 6607,
      "ĠNapoleon": 6608,
      "Ġnervous": 6609,
      "arrison": 6610,
      "Ġtomb": 6611,
      "ĠMess": 6612,
      "Ġgif": 6613,
      "Ġbreaking": 6614,
      "Ġquarters": 6615,
      "houses": 6616,
      "otted": 6617,
      "Ġseparated": 6618,
      "Ġwra": 6619,
      "Ġplainly": 6620,
      "Ġhal": 6621,
      "Ġacid": 6622,
      "Ġknife": 6623,
      "Ġpicked": 6624,
      "Ġprecise": 6625,
      "Ġrules": 6626,
      "Ġghost": 6627,
      "Ġbark": 6628,
      "Have": 6629,
      "Ġdeveloped": 6630,
      "ĠArt": 6631,
      "anything": 6632,
      "Ġmankind": 6633,
      "ĠDutch": 6634,
      "Ġbeast": 6635,
      "Ġthence": 6636,
      "shine": 6637,
      "Ġcompared": 6638,
      "elp": 6639,
      "coll": 6640,
      "ĠOther": 6641,
      "Ġthread": 6642,
      "Ġalarm": 6643,
      "retary": 6644,
      "black": 6645,
      "ĠHistory": 6646,
      "Ġgets": 6647,
      "XX": 6648,
      "Ġowing": 6649,
      "Ġscientific": 6650,
      "Ġopinions": 6651,
      "ressing": 6652,
      "ĠUnder": 6653,
      "Ġsubstance": 6654,
      "Ġkissed": 6655,
      "different": 6656,
      "olation": 6657,
      "Ġuseless": 6658,
      "Ġstiff": 6659,
      "_\"": 6660,
      "ĠJapan": 6661,
      "fortune": 6662,
      "Ġscheme": 6663,
      "Ġouter": 6664,
      "Ġnet": 6665,
      "Ġabsor": 6666,
      "therefore": 6667,
      "perfect": 6668,
      "Ġrelated": 6669,
      "ocking": 6670,
      "ĠJoe": 6671,
      "icine": 6672,
      "Ġcounsel": 6673,
      "Ġpoem": 6674,
      "princi": 6675,
      "twenty": 6676,
      "Ġmatch": 6677,
      "Ġbelonging": 6678,
      "Ġloving": 6679,
      "lla": 6680,
      "osure": 6681,
      "ĠHal": 6682,
      "Ġtravell": 6683,
      "OH": 6684,
      "Ġdil": 6685,
      "ĠNothing": 6686,
      "iast": 6687,
      "ĠTer": 6688,
      "Ġurged": 6689,
      "Ġwhenever": 6690,
      "ington": 6691,
      "illery": 6692,
      "Ġscorn": 6693,
      "town": 6694,
      "Ġregiment": 6695,
      "Ġlaughter": 6696,
      "peare": 6697,
      "Ġoperation": 6698,
      "Ġded": 6699,
      "Ġshining": 6700,
      "Ġopposition": 6701,
      "Ġscattered": 6702,
      "Ġsection": 6703,
      "bird": 6704,
      "AV": 6705,
      "ĠAss": 6706,
      "burgh": 6707,
      "ĠBon": 6708,
      "_:": 6709,
      "Ġcomr": 6710,
      "Ġfreely": 6711,
      "Ġrent": 6712,
      "Ġpressure": 6713,
      "Ġmanaged": 6714,
      "Ġles": 6715,
      "whose": 6716,
      "icle": 6717,
      "ements": 6718,
      "Ġrolled": 6719,
      "ĠJean": 6720,
      "Ġvague": 6721,
      "Ġexposed": 6722,
      "ĀĀĀĀĀĀĀĀĀĀĀĀĀĀĀĀ": 6723,
      "ĠON": 6724,
      "human": 6725,
      "ĠTw": 6726,
      "Ġdefinite": 6727,
      "Ġrage": 6728,
      "tains": 6729,
      "ero": 6730,
      "ĠConf": 6731,
      "intell": 6732,
      "ĠFlore": 6733,
      "Ġavail": 6734,
      "Ġsteep": 6735,
      "Ġrenew": 6736,
      "Ġestate": 6737,
      "urther": 6738,
      "Ġbosom": 6739,
      "Ġdreams": 6740,
      "Ġforehead": 6741,
      "account": 6742,
      "Ġdelightful": 6743,
      "done": 6744,
      "rage": 6745,
      "Ġsuspicion": 6746,
      "Ġrum": 6747,
      "ele": 6748,
      "ĠSaint": 6749,
      "ĠReg": 6750,
      "boat": 6751,
      "diffic": 6752,
      "hands": 6753,
      "Ġric": 6754,
      "Ġcommenced": 6755,
      "arian": 6756,
      "Ġperman": 6757,
      "Ġgaze": 6758,
      "arling": 6759,
      "Ġdomestic": 6760,
      "Ġcouncil": 6761,
      "ĠChristmas": 6762,
      "igs": 6763,
      "hibit": 6764,
      "orig": 6765,
      "31": 6766,
      "Ġmagnificent": 6767,
      "ĠAng": 6768,
      "Ġroll": 6769,
      "ules": 6770,
      "Ġimage": 6771,
      "HER": 6772,
      "Ġming": 6773,
      "Ġnoted": 6774,
      "Ġlords": 6775,
      "Ġcig": 6776,
      "Ġapproaching": 6777,
      "ĠPol": 6778,
      "Ġintim": 6779,
      "gone": 6780,
      "aux": 6781,
      "Sh": 6782,
      "itors": 6783,
      "Ġodd": 6784,
      "itate": 6785,
      "engers": 6786,
      "verted": 6787,
      "rive": 6788,
      "Ġmarks": 6789,
      "lay": 6790,
      "ĠĠĠĠĠĠĠĠĠĠĠĠĠĠĠĠĠĠĠĠ": 6791,
      "Ġfired": 6792,
      "Ġhitherto": 6793,
      "ĠRog": 6794,
      "Ġcoach": 6795,
      "Ġgazed": 6796,
      "ĠSea": 6797,
      "Ġfame": 6798,
      "ccles": 6799,
      "ĠOX": 6800,
      "Ġsust": 6801,
      "uce": 6802,
      "Ġunited": 6803,
      "Ġwithdra": 6804,
      "EST": 6805,
      "Ġdeliver": 6806,
      "ĠCastle": 6807,
      "RY": 6808,
      "Look": 6809,
      "ĠBro": 6810,
      "Ġcollection": 6811,
      "ĠTre": 6812,
      "usive": 6813,
      "Ġfinds": 6814,
      "Ġsurv": 6815,
      "Ġcentral": 6816,
      "build": 6817,
      "Ġstretched": 6818,
      "Ġdegrees": 6819,
      "umption": 6820,
      "Ġdisposed": 6821,
      "Ġspare": 6822,
      "Ġrush": 6823,
      "ĠBoth": 6824,
      "Phil": 6825,
      "allow": 6826,
      "saw": 6827,
      "riet": 6828,
      "Ġburned": 6829,
      "Ġweakness": 6830,
      "Ġcreatures": 6831,
      "ulp": 6832,
      "Ġcounter": 6833,
      "Ġlights": 6834,
      "Ġobed": 6835,
      "Ġobservation": 6836,
      "zed": 6837,
      "uine": 6838,
      "Ġturns": 6839,
      "ĠMill": 6840,
      "ĠMother": 6841,
      "sign": 6842,
      "Ġpier": 6843,
      "change": 6844,
      "open": 6845,
      "Ġtrembling": 6846,
      "Ġglanced": 6847,
      "ĠSus": 6848,
      "phe": 6849,
      ".),": 6850,
      "ĠNU": 6851,
      "Ġriding": 6852,
      "ĠSil": 6853,
      "ĠFR": 6854,
      "Ġfix": 6855,
      "Ġtrack": 6856,
      "Ġcommunity": 6857,
      "asket": 6858,
      "allel": 6859,
      "Ġgenerous": 6860,
      "Tis": 6861,
      "ĠFebruary": 6862,
      "EG": 6863,
      "Ġmerry": 6864,
      "Ġzeal": 6865,
      "Ġreputation": 6866,
      "Ġhers": 6867,
      "Ġacknowled": 6868,
      "whom": 6869,
      "Ġconcluded": 6870,
      "32": 6871,
      "Ġissue": 6872,
      "hearted": 6873,
      "Ġscenes": 6874,
      "Ġornament": 6875,
      "xed": 6876,
      "appro": 6877,
      "ĠThy": 6878,
      "ountains": 6879,
      "Ġissued": 6880,
      "Ġwestern": 6881,
      "school": 6882,
      "ĠBY": 6883,
      "Ġdared": 6884,
      "compl": 6885,
      "Ġlighted": 6886,
      "Ġattempted": 6887,
      "Ġintellectual": 6888,
      "pleasant": 6889,
      "iverse": 6890,
      "Ġwhisper": 6891,
      "Ġinvited": 6892,
      "Ġcontempl": 6893,
      "Ġbrow": 6894,
      "OUR": 6895,
      "48": 6896,
      "IES": 6897,
      "Ġenormous": 6898,
      "Ġrope": 6899,
      "Ġreported": 6900,
      "Ġswell": 6901,
      "hedral": 6902,
      "ummer": 6903,
      "Ġwidow": 6904,
      "Ġbatt": 6905,
      "Ġcontract": 6906,
      "Ġrust": 6907,
      "istle": 6908,
      "Ġseed": 6909,
      "year": 6910,
      "Ġsignific": 6911,
      "atched": 6912,
      "Ġmoder": 6913,
      "Ġwondered": 6914,
      "exam": 6915,
      "Ġfalls": 6916,
      "ĠPrincess": 6917,
      "umped": 6918,
      "OV": 6919,
      "Ġincluding": 6920,
      "Ġcoffee": 6921,
      ".'\"": 6922,
      "ulations": 6923,
      "ga": 6924,
      "Ġawa": 6925,
      "Ġunion": 6926,
      "Ġadventure": 6927,
      "burn": 6928,
      "ĠPen": 6929,
      "dr": 6930,
      "Ġapt": 6931,
      "Ġunconscious": 6932,
      "prov": 6933,
      "Ġspeaks": 6934,
      "ĠLook": 6935,
      "elf": 6936,
      "Ġsouthern": 6937,
      "Ġdeliber": 6938,
      "Ġfirmly": 6939,
      "told": 6940,
      "ĠDen": 6941,
      "Ġprophe": 6942,
      "Br": 6943,
      "ĠGen": 6944,
      "Ġsovereign": 6945,
      "ĠRussia": 6946,
      "Ġbegins": 6947,
      "fts": 6948,
      "Ġblame": 6949,
      "iary": 6950,
      "Ġdoc": 6951,
      "ĠStep": 6952,
      "ĠSIG": 6953,
      "hur": 6954,
      "Ġrevolution": 6955,
      "rather": 6956,
      "Ġhanded": 6957,
      "Ġpour": 6958,
      "affect": 6959,
      "Ġvac": 6960,
      "Ġarrangement": 6961,
      "ĊĊĠĠĠĠĠĠĠĠĠ": 6962,
      "._)": 6963,
      "inks": 6964,
      "Ġderived": 6965,
      "past": 6966,
      "ĠYe": 6967,
      "thren": 6968,
      "ĠHol": 6969,
      "Ġtied": 6970,
      "usalem": 6971,
      "Ġridic": 6972,
      "Ġmisery": 6973,
      "Ġvel": 6974,
      "Ġmonarch": 6975,
      "sus": 6976,
      "Ġdistinction": 6977,
      "Ġangel": 6978,
      "quisite": 6979,
      "Ġmurmured": 6980,
      "Ġmild": 6981,
      "Sp": 6982,
      "INE": 6983,
      "ucky": 6984,
      "Ġchurches": 6985,
      "usions": 6986,
      "Ġsteel": 6987,
      "Ġatmosphere": 6988,
      "Ġoccasions": 6989,
      "Ġtroubles": 6990,
      "Ġsomewhere": 6991,
      "ĠAgain": 6992,
      "arms": 6993,
      "Ġhurry": 6994,
      "Ġconsciousness": 6995,
      "ulgar": 6996,
      "Ġcontro": 6997,
      "Greek": 6998,
      "England": 6999,
      "whether": 7000,
      "ĊĊĠĠĠĠĠĠĠĠĠĠĠĠĠĠĠĠĠĠĠĠĠĠĠĠĠĠĠĠĠĠĠĠ": 7001,
      "Ġinsult": 7002,
      "sight": 7003,
      "pract": 7004,
      "amation": 7005,
      "Ġcrowded": 7006,
      "Ġbowed": 7007,
      "47": 7008,
      "Ġlamp": 7009,
      "Ġreject": 7010,
      "ican": 7011,
      "Ġgrim": 7012,
      "proper": 7013,
      "command": 7014,
      "tree": 7015,
      "ouch": 7016,
      "Ġtroubled": 7017,
      "antages": 7018,
      "Ġeleven": 7019,
      "Ġhunting": 7020,
      "orter": 7021,
      "Ġcher": 7022,
      "Ġcollected": 7023,
      "Ġforbid": 7024,
      "Ġbul": 7025,
      "ĠCollege": 7026,
      "Ġanch": 7027,
      "ĠDay": 7028,
      "irmed": 7029,
      "text": 7030,
      "ĠCamp": 7031,
      "Ġtort": 7032,
      "best": 7033,
      "Ġsus": 7034,
      "abel": 7035,
      "46": 7036,
      "Ġmethods": 7037,
      "ona": 7038,
      "ĠGold": 7039,
      "Ġfest": 7040,
      "Ġantic": 7041,
      "ieu": 7042,
      "King": 7043,
      "sa": 7044,
      "iate": 7045,
      "Ġhastily": 7046,
      "Ġdiscussion": 7047,
      "Ġascertain": 7048,
      "exc": 7049,
      "Ġresc": 7050,
      "Ġflew": 7051,
      "ĠMartin": 7052,
      "Ġcheek": 7053,
      "ensions": 7054,
      "pose": 7055,
      "Ġhanging": 7056,
      "ĠWall": 7057,
      "Ġsignal": 7058,
      "geon": 7059,
      "OND": 7060,
      "Ġelements": 7061,
      "ĠCap": 7062,
      "Ġvolunt": 7063,
      "Ġflame": 7064,
      "Ġruns": 7065,
      "author": 7066,
      "Ġnodded": 7067,
      "Ġerror": 7068,
      "Ġdecision": 7069,
      "Ġcharacteristic": 7070,
      "ella": 7071,
      "Ġlistening": 7072,
      "taining": 7073,
      "Ġinterior": 7074,
      "Ġignorance": 7075,
      "ĠAfrica": 7076,
      "ĠĠĠĠĠĠĠĠĠĠĠĠĠĠĠĠĠĠĠ": 7077,
      "Dr": 7078,
      "Ġpainful": 7079,
      "Ġperceived": 7080,
      "Ġusing": 7081,
      "Ġpin": 7082,
      "thousand": 7083,
      "obser": 7084,
      "ĠMel": 7085,
      "arrass": 7086,
      "Ġhumanity": 7087,
      "ĠCarol": 7088,
      "ĠOXIA": 7089,
      "agree": 7090,
      "Ġbishop": 7091,
      "Ġcompleted": 7092,
      "ĠAnother": 7093,
      "acco": 7094,
      "fav": 7095,
      "Ġdecor": 7096,
      "Ġuncertain": 7097,
      "Ġindependent": 7098,
      "ĠJane": 7099,
      "Ġresolution": 7100,
      "ĠSchool": 7101,
      "words": 7102,
      "Ġach": 7103,
      "Ġtradition": 7104,
      "estab": 7105,
      "ĠFair": 7106,
      "uther": 7107,
      "aments": 7108,
      "Ġentitled": 7109,
      "Ġneighbor": 7110,
      "ĠDev": 7111,
      "Ġblaz": 7112,
      "Ġacquired": 7113,
      "ography": 7114,
      "Ġexperiment": 7115,
      "Ġdimin": 7116,
      "death": 7117,
      "fell": 7118,
      "Ġconsists": 7119,
      "Ġshelter": 7120,
      "osa": 7121,
      "ĠBoy": 7122,
      "Ġtower": 7123,
      "istor": 7124,
      "ĠEp": 7125,
      "ida": 7126,
      "eman": 7127,
      "Ġinterview": 7128,
      "incl": 7129,
      "herself": 7130,
      "olate": 7131,
      "Ġtrail": 7132,
      "Sec": 7133,
      "lle": 7134,
      "Ġtotal": 7135,
      "\";": 7136,
      "ĠSpani": 7137,
      "rick": 7138,
      "Ġancest": 7139,
      "erity": 7140,
      "dev": 7141,
      "Ġcharged": 7142,
      "Ġaverage": 7143,
      "Ġstructure": 7144,
      "Ġelsewhere": 7145,
      "Ġauthorities": 7146,
      "ositions": 7147,
      "Ġowner": 7148,
      "oups": 7149,
      "Ġannoy": 7150,
      "Ġverse": 7151,
      "Ġagreeable": 7152,
      "glass": 7153,
      "UC": 7154,
      "ĠCur": 7155,
      "Ġvon": 7156,
      "Ġyard": 7157,
      "cel": 7158,
      "Ġhaste": 7159,
      "Ġteaching": 7160,
      "ĠChristians": 7161,
      "pended": 7162,
      "Ġbears": 7163,
      "Ġlonely": 7164,
      "Ġbon": 7165,
      "Ġmistaken": 7166,
      "why": 7167,
      "ĠRepublic": 7168,
      "ĠĠĠĠĠĠĠĠĠĠĠĠĠĠĠĠĠĠ": 7169,
      "esar": 7170,
      "Ġshed": 7171,
      "London": 7172,
      "49": 7173,
      "Ġsed": 7174,
      "Ġstout": 7175,
      "uthors": 7176,
      "Ġexamined": 7177,
      "Ġmelancholy": 7178,
      "lets": 7179,
      "_).": 7180,
      "quet": 7181,
      "Ġwrites": 7182,
      "Ġashamed": 7183,
      "ĠĠĠĠĠĠĠĠĠĠĠĠĠĠĠĠĠ": 7184,
      "Ġsupported": 7185,
      "Ġassert": 7186,
      "Ġviolence": 7187,
      "ros": 7188,
      "ĠHence": 7189,
      "Ġcollege": 7190,
      "Ġtoler": 7191,
      "Ġsummon": 7192,
      "Ġexamination": 7193,
      "Ġwarning": 7194,
      "TON": 7195,
      "Ġprovisions": 7196,
      "Ġloves": 7197,
      "ĠAnne": 7198,
      "occup": 7199,
      "Ġbeloved": 7200,
      "utter": 7201,
      "Ġnevertheless": 7202,
      "appearance": 7203,
      "Ġtide": 7204,
      "ĠThree": 7205,
      "HO": 7206,
      "Ġenthusiasm": 7207,
      "Ġeste": 7208,
      "Ġdepth": 7209,
      "Ġnoon": 7210,
      "ĠSl": 7211,
      "Ġsymb": 7212,
      "Ġmillions": 7213,
      "spirit": 7214,
      "Ġ55": 7215,
      "ATE": 7216,
      "Ġfeast": 7217,
      "second": 7218,
      "list": 7219,
      "Ġchain": 7220,
      "ofty": 7221,
      "Ġeleg": 7222,
      "orus": 7223,
      "ĠGal": 7224,
      "ĠFore": 7225,
      "Ġinvol": 7226,
      "Ġconfined": 7227,
      "aus": 7228,
      "Ġdeny": 7229,
      "Ġforgive": 7230,
      "Ġarchitect": 7231,
      "organ": 7232,
      "Ġpatience": 7233,
      "Ġdebt": 7234,
      "lau": 7235,
      "Ġanticip": 7236,
      "Ġinterpret": 7237,
      "Ġattacked": 7238,
      "70": 7239,
      "Ġflung": 7240,
      "Ġgrounds": 7241,
      "grat": 7242,
      "Such": 7243,
      "wit": 7244,
      "Ġaltern": 7245,
      "Ġslavery": 7246,
      "ĠĠĠĠĠĠĠĠĠĠĠĠĠĠĠĠĠĠĠĠĠĠĠĠĠ": 7247,
      "elly": 7248,
      "Ġfailure": 7249,
      "experi": 7250,
      "istence": 7251,
      "Ġcircumstance": 7252,
      "ĠLincoln": 7253,
      "Ġpasses": 7254,
      "Ġpursued": 7255,
      "mons": 7256,
      "Ġbegged": 7257,
      "Ġinstances": 7258,
      "Ġunexpected": 7259,
      "ĠCham": 7260,
      "Ġnearest": 7261,
      "ribution": 7262,
      "Ġrecovered": 7263,
      "Ġadapt": 7264,
      "Ġgrasp": 7265,
      "ĠĠĠĠĠĠĠĠĠĠĠĠĠĠĠĠĠĠĠĠĠĠĠĠĠĠĠĠĠ": 7266,
      "Ġglo": 7267,
      "Ġgas": 7268,
      "ĠÎ": 7269,
      "ĠSol": 7270,
      "Ġappropri": 7271,
      "plicity": 7272,
      "Ġdiff": 7273,
      "Ġrival": 7274,
      "IP": 7275,
      "Ġwave": 7276,
      "URE": 7277,
      "Ġelectric": 7278,
      "soon": 7279,
      "Ġterritory": 7280,
      "particular": 7281,
      "Ġbrings": 7282,
      "mediately": 7283,
      "greg": 7284,
      "Ġbatter": 7285,
      "Ġcries": 7286,
      "Ġstronger": 7287,
      "illing": 7288,
      "mel": 7289,
      "ĠBO": 7290,
      "Ġsteady": 7291,
      "quarters": 7292,
      "75": 7293,
      "ications": 7294,
      "Ġsisters": 7295,
      "Ġforming": 7296,
      "Ġcompass": 7297,
      "Ġroads": 7298,
      "Ġsorts": 7299,
      "Ġult": 7300,
      "Ġconflict": 7301,
      "relig": 7302,
      "iron": 7303,
      "Ġdece": 7304,
      "Ġexisted": 7305,
      "Ġentering": 7306,
      "Ġcliff": 7307,
      "Ġcas": 7308,
      "Ġaudience": 7309,
      "Ġpenet": 7310,
      "Ġaccordingly": 7311,
      "ĠOrd": 7312,
      "á½": 7313,
      "OK": 7314,
      "Ġtreasure": 7315,
      "Ġloyal": 7316,
      "era": 7317,
      "ĠPart": 7318,
      "Ġtear": 7319,
      "Ġprejud": 7320,
      "Ġprint": 7321,
      ",)": 7322,
      "nature": 7323,
      "Ġdram": 7324,
      "Ġgates": 7325,
      "dark": 7326,
      "--'": 7327,
      "Ġrig": 7328,
      "ĠOff": 7329,
      "icken": 7330,
      "Ġopposed": 7331,
      "keeper": 7332,
      "icians": 7333,
      "money": 7334,
      "does": 7335,
      "Ġpaint": 7336,
      "ĠSIGMA": 7337,
      "_.\"": 7338,
      "Ġren": 7339,
      "ĠTAU": 7340,
      "Ġneat": 7341,
      "Ġsenses": 7342,
      "Ġrailroad": 7343,
      "anned": 7344,
      "Ġdisposition": 7345,
      "ĠRh": 7346,
      "icable": 7347,
      "horse": 7348,
      "Ġextend": 7349,
      "Ġlegal": 7350,
      "Ġaccounts": 7351,
      "Ġdeparted": 7352,
      "ĠOnce": 7353,
      "unction": 7354,
      "Har": 7355,
      "Ġresidence": 7356,
      "wich": 7357,
      "Ġwag": 7358,
      "ĠVIII": 7359,
      "Ġ~": 7360,
      "Ġscale": 7361,
      "rection": 7362,
      "onial": 7363,
      "aping": 7364,
      "inations": 7365,
      "believe": 7366,
      "ĠArab": 7367,
      "Ġcheck": 7368,
      "ients": 7369,
      "Ġpreviously": 7370,
      "ioned": 7371,
      "Ġrecently": 7372,
      "Ġrailway": 7373,
      "Ġaccompany": 7374,
      "Ġcoal": 7375,
      "wl": 7376,
      "Ġprofit": 7377,
      "Ġstandard": 7378,
      "ĠTri": 7379,
      "maid": 7380,
      "Ġindustry": 7381,
      "bler": 7382,
      "aration": 7383,
      "Ġbeha": 7384,
      "eanwhile": 7385,
      "Ġcomment": 7386,
      "Ġcotton": 7387,
      "OHN": 7388,
      "Ġaltar": 7389,
      "fashion": 7390,
      "Ġoh": 7391,
      "Ġfoundation": 7392,
      "Ġsupplied": 7393,
      "gram": 7394,
      "Ġdesperate": 7395,
      "Ġinher": 7396,
      "vity": 7397,
      "ouraged": 7398,
      "eries": 7399,
      "Ġsmell": 7400,
      "80": 7401,
      "Ġprovince": 7402,
      "ĠHoll": 7403,
      "Ġsincere": 7404,
      "Ġproblem": 7405,
      "Ġtables": 7406,
      "Ġpoured": 7407,
      "Ġburden": 7408,
      "Ġpuzz": 7409,
      "ĠChristianity": 7410,
      "Ġspecul": 7411,
      "ĠRem": 7412,
      "ĠOxford": 7413,
      "mem": 7414,
      "Ġsang": 7415,
      "alks": 7416,
      "Ġdevotion": 7417,
      "Another": 7418,
      "ĠMus": 7419,
      "IE": 7420,
      "bishop": 7421,
      "Ġclaims": 7422,
      "Ġsank": 7423,
      "Ġstor": 7424,
      "Two": 7425,
      "ĠAlexander": 7426,
      "ĠDar": 7427,
      "prof": 7428,
      "Ġbeings": 7429,
      "Ġvote": 7430,
      "Ġmart": 7431,
      "Ġholds": 7432,
      "Ġsleeping": 7433,
      "Ġprayers": 7434,
      "Ġlanded": 7435,
      "ado": 7436,
      "ĠDun": 7437,
      "object": 7438,
      "reading": 7439,
      "Ġrested": 7440,
      "Ġhungry": 7441,
      "def": 7442,
      "ĠKent": 7443,
      "Ġcutting": 7444,
      "sac": 7445,
      "Ġcampaign": 7446,
      "_),": 7447,
      "ĠUpon": 7448,
      "Ġdemonstr": 7449,
      "ĠRE": 7450,
      "ustral": 7451,
      "Ġreaders": 7452,
      "Ġpresents": 7453,
      "ĠTy": 7454,
      "--------------------------------": 7455,
      "forms": 7456,
      "Ġunusual": 7457,
      "Ġslightest": 7458,
      "ixture": 7459,
      "Ġdescended": 7460,
      "dec": 7461,
      "Ġsacrific": 7462,
      "Ġtreaty": 7463,
      "Ġpermit": 7464,
      "ĠApp": 7465,
      "cannot": 7466,
      "Ġard": 7467,
      "amm": 7468,
      "Ġtrip": 7469,
      "ĠFin": 7470,
      "LY": 7471,
      "Ġfavourite": 7472,
      "Ġsore": 7473,
      "dig": 7474,
      "Ġdaughters": 7475,
      "possible": 7476,
      "istol": 7477,
      "ertainly": 7478,
      "Ġmidnight": 7479,
      "Ġlimited": 7480,
      "Ġconception": 7481,
      "ĠĠĠĠĠĠĠĠĠĠĠĠĠĠĠĠĠĠĠĠĠĠĠĠĠĠ": 7482,
      "mere": 7483,
      "Ġremove": 7484,
      "Ġcart": 7485,
      "ĠLee": 7486,
      "ĠChina": 7487,
      "ĠSax": 7488,
      "Ġstraw": 7489,
      "TION": 7490,
      "Ġrestored": 7491,
      "Ġgeneration": 7492,
      "hers": 7493,
      "Ġbottle": 7494,
      "Ġlargely": 7495,
      "ĠUniversity": 7496,
      "Ġsem": 7497,
      "sometimes": 7498,
      "OG": 7499,
      "Ġmarble": 7500,
      "Ġsym": 7501,
      "Ġlege": 7502,
      "Ġbrig": 7503,
      "thus": 7504,
      "ĠVII": 7505,
      "riff": 7506,
      "isation": 7507,
      "phant": 7508,
      "wall": 7509,
      "sett": 7510,
      "Ġafterward": 7511,
      "ĠBaron": 7512,
      "urday": 7513,
      "Ġtones": 7514,
      "Ġforever": 7515,
      "Ġsolution": 7516,
      "ribute": 7517,
      "ĠEle": 7518,
      "Nothing": 7519,
      "Ġcottage": 7520,
      "Ġtrick": 7521,
      "Ġinform": 7522,
      "Ġcontrast": 7523,
      "ĠVictor": 7524,
      "ĠIllustr": 7525,
      "Ġgest": 7526,
      "ĠWhich": 7527,
      "beautiful": 7528,
      "iency": 7529,
      "Ġnotion": 7530,
      "pton": 7531,
      "business": 7532,
      "ĠPost": 7533,
      "Ġjoint": 7534,
      "Ġabandoned": 7535,
      "myself": 7536,
      "Ġdirections": 7537,
      "Ġeloqu": 7538,
      "Ġsupre": 7539,
      "Ġeating": 7540,
      "QU": 7541,
      "orders": 7542,
      "Ġinsisted": 7543,
      "ĠJacob": 7544,
      "French": 7545,
      "Ġapplication": 7546,
      "Ġmasters": 7547,
      "ARY": 7548,
      "Ġmarched": 7549,
      "Ġsupreme": 7550,
      "ĠDem": 7551,
      "achment": 7552,
      "Ġmaintained": 7553,
      "Ġautumn": 7554,
      "Ġdrift": 7555,
      "Ġfarmer": 7556,
      "Ġours": 7557,
      "except": 7558,
      "oubtedly": 7559,
      "Ġflow": 7560,
      "(_": 7561,
      "ĠWater": 7562,
      "Ġwinds": 7563,
      "Ġbarbar": 7564,
      "erick": 7565,
      "Ġingen": 7566,
      "Ġseriously": 7567,
      "Ġhelpless": 7568,
      "ĠPan": 7569,
      "Ġexceedingly": 7570,
      "Ġcrying": 7571,
      "ĠAny": 7572,
      "Ġrivers": 7573,
      "ĠHelen": 7574,
      "rot": 7575,
      "Ġcontact": 7576,
      "idel": 7577,
      "La": 7578,
      "Ġrevel": 7579,
      "Ġmuttered": 7580,
      "Ġstudied": 7581,
      "alling": 7582,
      "raction": 7583,
      "Ġecho": 7584,
      "Ġactivity": 7585,
      "Ġnurse": 7586,
      "Ġdoth": 7587,
      "Ġerected": 7588,
      "Ġhistorical": 7589,
      "Ġmillion": 7590,
      "lessness": 7591,
      "oid": 7592,
      "Ġgent": 7593,
      "Ġcorrupt": 7594,
      "public": 7595,
      "Ġoperations": 7596,
      "ĠFour": 7597,
      "Ġplat": 7598,
      "Ġdancing": 7599,
      "Ġcorp": 7600,
      "ĠRel": 7601,
      "Ġacting": 7602,
      "Ġaloud": 7603,
      "iner": 7604,
      "Ġslipped": 7605,
      "trees": 7606,
      "Ġsuggestion": 7607,
      "ĠHaving": 7608,
      "ĠWould": 7609,
      "few": 7610,
      "Ġcavalry": 7611,
      "Ġparish": 7612,
      "ĠProtest": 7613,
      "istry": 7614,
      "Ġcommittee": 7615,
      "ĊĊĠĠĠĠĠĠĠ": 7616,
      "grand": 7617,
      "Ġshortly": 7618,
      "ĠSince": 7619,
      "Ġdisturb": 7620,
      "brew": 7621,
      "Before": 7622,
      "Ġbi": 7623,
      "inding": 7624,
      "indeed": 7625,
      "Ġtorn": 7626,
      "understand": 7627,
      "rels": 7628,
      "ĠMost": 7629,
      "Ġdetail": 7630,
      "Ġabst": 7631,
      "gels": 7632,
      "Ġcaptured": 7633,
      "ĠHy": 7634,
      "Ġimpr": 7635,
      "ĠDeath": 7636,
      "Ġwives": 7637,
      "Ġrarely": 7638,
      "Ġrecover": 7639,
      "stud": 7640,
      "Ġscream": 7641,
      "Ġdeclare": 7642,
      "Ġhell": 7643,
      "inqu": 7644,
      "pop": 7645,
      "Ġsafely": 7646,
      "52": 7647,
      "ĠCrown": 7648,
      "Ġgratitude": 7649,
      "Ġwire": 7650,
      "useum": 7651,
      "artment": 7652,
      "former": 7653,
      "Ġfears": 7654,
      "ĠAT": 7655,
      "Ġdriving": 7656,
      "During": 7657,
      "Ġmaiden": 7658,
      "women": 7659,
      "miral": 7660,
      "arson": 7661,
      "Ġstupid": 7662,
      "Ġceremony": 7663,
      "vy": 7664,
      "omach": 7665,
      "ĠPre": 7666,
      "Ġcommonly": 7667,
      "IAN": 7668,
      "ĠBal": 7669,
      "Ġearliest": 7670,
      "Ã¨": 7671,
      "hast": 7672,
      "kerchief": 7673,
      "ĠCanada": 7674,
      "AG": 7675,
      "ĠLib": 7676,
      "Ġalter": 7677,
      "Fig": 7678,
      "main": 7679,
      "Ġmortal": 7680,
      "ĠĠĠĠĠĠĠĠĠĠĠĠĠĠĠĠĠĠĠĠĠ": 7681,
      "Ġpermission": 7682,
      "ĠAccording": 7683,
      "assad": 7684,
      "wife": 7685,
      "kespeare": 7686,
      "word": 7687,
      "cross": 7688,
      "Ġempire": 7689,
      "Ġsending": 7690,
      "Ġped": 7691,
      "gave": 7692,
      "Ġshoes": 7693,
      "ĠTemple": 7694,
      "often": 7695,
      "Ġcam": 7696,
      "Ġprud": 7697,
      "pert": 7698,
      "ĠBu": 7699,
      "already": 7700,
      "IGHT": 7701,
      "Ġcapacity": 7702,
      "Ġsport": 7703,
      "Ġnights": 7704,
      "omed": 7705,
      "Ġroot": 7706,
      "Ġidle": 7707,
      "tes": 7708,
      "Ġrelative": 7709,
      "ĠJohnson": 7710,
      "urred": 7711,
      "Ġscra": 7712,
      "mann": 7713,
      "especially": 7714,
      "Ġbelongs": 7715,
      "rained": 7716,
      "ĠCON": 7717,
      "forward": 7718,
      "eff": 7719,
      "Ġdisg": 7720,
      "Ġlap": 7721,
      "Ġconcealed": 7722,
      "criptions": 7723,
      "Ġconviction": 7724,
      "Ġshake": 7725,
      "Ġmount": 7726,
      "Ġagent": 7727,
      "ĠRes": 7728,
      "Ġconsequently": 7729,
      "Ġthine": 7730,
      "city": 7731,
      "Ġhorrible": 7732,
      "Ġpreceding": 7733,
      "ĠWalter": 7734,
      "occasion": 7735,
      "grow": 7736,
      "Ġash": 7737,
      "Ġbrid": 7738,
      "ĠSometimes": 7739,
      "ĊĠĠĠĠĠĠĠĠĠĠĠĠĠ": 7740,
      "ĠDep": 7741,
      "Ġsunshine": 7742,
      "ulating": 7743,
      "Ġexperienced": 7744,
      "Ġpowder": 7745,
      "keep": 7746,
      "Ġrespond": 7747,
      "hab": 7748,
      "Ġleaders": 7749,
      "Ġreflect": 7750,
      "Ġsomehow": 7751,
      "Ġventure": 7752,
      "ĠCape": 7753,
      "Ġinferior": 7754,
      "Ġ32": 7755,
      "Ġaven": 7756,
      "Ġcheerful": 7757,
      "expl": 7758,
      "circumst": 7759,
      "Ġvictim": 7760,
      "Ġperil": 7761,
      "encies": 7762,
      "covered": 7763,
      "sea": 7764,
      "Ġstared": 7765,
      "Ġroute": 7766,
      "illes": 7767,
      "vin": 7768,
      "rical": 7769,
      "Ġimagined": 7770,
      "Ġabrupt": 7771,
      "pled": 7772,
      "Ġlofty": 7773,
      "Ġconceal": 7774,
      "Ġau": 7775,
      "========": 7776,
      "Ġsituated": 7777,
      "roduced": 7778,
      "uously": 7779,
      "geant": 7780,
      "Ġantiqu": 7781,
      "Ġresumed": 7782,
      "Ġtestimony": 7783,
      "Ġhaunt": 7784,
      "lad": 7785,
      "aph": 7786,
      "blance": 7787,
      "Ġactions": 7788,
      "bacco": 7789,
      "Car": 7790,
      "ĠFe": 7791,
      "izes": 7792,
      "friends": 7793,
      "Ġreaching": 7794,
      "ieties": 7795,
      "Ġassembled": 7796,
      "ĠMichael": 7797,
      "Ġhomes": 7798,
      "Ġgenuine": 7799,
      "Ġresistance": 7800,
      "69": 7801,
      "dri": 7802,
      "Ġtendency": 7803,
      "Ġdistinctly": 7804,
      "Ġreckon": 7805,
      "Ġrifle": 7806,
      "Ġshield": 7807,
      "several": 7808,
      "Ġrefuge": 7809,
      "Ġstrain": 7810,
      "thy": 7811,
      "lest": 7812,
      "Ġconducted": 7813,
      "Ġadmire": 7814,
      "ĠSouthern": 7815,
      "bal": 7816,
      "feet": 7817,
      "ferred": 7818,
      "Ġsale": 7819,
      "Ġplun": 7820,
      "everything": 7821,
      "chess": 7822,
      "itself": 7823,
      "Ġshadows": 7824,
      "box": 7825,
      "oping": 7826,
      "Ġseeking": 7827,
      "Ġtiny": 7828,
      "rene": 7829,
      "aned": 7830,
      "Ġmasses": 7831,
      "iot": 7832,
      "Ġfeed": 7833,
      "ifully": 7834,
      "ĠDra": 7835,
      "commun": 7836,
      "above": 7837,
      "within": 7838,
      "Ġdistress": 7839,
      "azz": 7840,
      "Ġguest": 7841,
      "Ġabsent": 7842,
      "ki": 7843,
      "hour": 7844,
      "Ġprecip": 7845,
      "Ġdrunk": 7846,
      "Ġcontinually": 7847,
      "á¼": 7848,
      "Ġsettlement": 7849,
      "Ġborrow": 7850,
      "Ġthrowing": 7851,
      "Ġ70": 7852,
      "ĠYoung": 7853,
      "Ġheavily": 7854,
      "prot": 7855,
      "iforn": 7856,
      "Ġinev": 7857,
      "ĠMax": 7858,
      "ĠRu": 7859,
      "remark": 7860,
      "uscript": 7861,
      "aur": 7862,
      "Ġastonished": 7863,
      "brother": 7864,
      "Ġshock": 7865,
      "vag": 7866,
      "vate": 7867,
      "Ġmeas": 7868,
      "ĠHard": 7869,
      "Ġ/": 7870,
      "NE": 7871,
      "short": 7872,
      "Ġexternal": 7873,
      "giving": 7874,
      "awn": 7875,
      "Ġastonishment": 7876,
      "Man": 7877,
      "ĠMem": 7878,
      "iano": 7879,
      "Ġpurple": 7880,
      "oked": 7881,
      "ĠJerusalem": 7882,
      "ĠRomans": 7883,
      "ggy": 7884,
      "ogue": 7885,
      "Ġshalt": 7886,
      "justice": 7887,
      "ilton": 7888,
      "Ġstrangers": 7889,
      "Ġcontents": 7890,
      "Ġquoted": 7891,
      "Ġdescribe": 7892,
      "ĠSur": 7893,
      "during": 7894,
      "Yet": 7895,
      "poor": 7896,
      "Captain": 7897,
      "ĠPruss": 7898,
      ".\"--_": 7899,
      "Ġreceiving": 7900,
      "Ġfathers": 7901,
      "Ġchose": 7902,
      "Ġsins": 7903,
      "blood": 7904,
      "Ġruins": 7905,
      "resist": 7906,
      "olet": 7907,
      "Ġsaddle": 7908,
      "59": 7909,
      "onsense": 7910,
      "ĠScript": 7911,
      "Ġpersec": 7912,
      "Ġphrase": 7913,
      "Ġfitted": 7914,
      "Ġcommunication": 7915,
      "Ġability": 7916,
      "Ġcomplex": 7917,
      "Ġindividuals": 7918,
      "leness": 7919,
      "Ġthreatened": 7920,
      "ĠĠĠĠĠĠĠĠĠĠĠĠĠĠĠĠĠĠĠĠĠĠĠ": 7921,
      "ĠSto": 7922,
      "ĠCy": 7923,
      "ĠCross": 7924,
      "otions": 7925,
      "Ġhundreds": 7926,
      "Ġincreasing": 7927,
      "!âĢĿ": 7928,
      "VI": 7929,
      "knew": 7930,
      "Ġcared": 7931,
      "ifications": 7932,
      "Ġnecessarily": 7933,
      "lord": 7934,
      "Ġestablishment": 7935,
      "alo": 7936,
      "Ġapply": 7937,
      "eer": 7938,
      "headed": 7939,
      "cia": 7940,
      "Ġnaked": 7941,
      "ĠEst": 7942,
      "Ġtar": 7943,
      "El": 7944,
      "oof": 7945,
      "Ġswim": 7946,
      "Ġfires": 7947,
      "Ġanyone": 7948,
      "Ġshone": 7949,
      "fif": 7950,
      "tre": 7951,
      "Ġremo": 7952,
      "Ġirrit": 7953,
      "ĠEv": 7954,
      "Christian": 7955,
      "Ġinquiry": 7956,
      "Ġselected": 7957,
      "decl": 7958,
      "Ġestim": 7959,
      "Ġexert": 7960,
      "third": 7961,
      "oiselle": 7962,
      "Ġlimbs": 7963,
      "Ġexisting": 7964,
      "Ġneighbourhood": 7965,
      "arned": 7966,
      "Ġbade": 7967,
      "gly": 7968,
      "Ġdrinking": 7969,
      "ustrious": 7970,
      "Ġgracious": 7971,
      "erness": 7972,
      "Ġstayed": 7973,
      "itudes": 7974,
      "Ġpursuit": 7975,
      "Ġsuitable": 7976,
      "Ġblock": 7977,
      "Ġpractically": 7978,
      "Ġraising": 7979,
      "Ġlesson": 7980,
      "Ġfolk": 7981,
      "Ġeffic": 7982,
      "ulars": 7983,
      "Ġresour": 7984,
      "according": 7985,
      "hension": 7986,
      "Ġleads": 7987,
      "bye": 7988,
      "Ġresting": 7989,
      "det": 7990,
      "ĠTrans": 7991,
      "till": 7992,
      "spring": 7993,
      "utenberg": 7994,
      "complete": 7995,
      "istics": 7996,
      "SON": 7997,
      "ĠĠĠĠĠĠĠĠĠĠĠĠĠĠĠĠĠĠĠĠĠĠ": 7998,
      "along": 7999,
      "Ġrevealed": 8000,
      "conven": 8001,
      "ocr": 8002,
      "arte": 8003,
      "iege": 8004,
      "oos": 8005,
      "chester": 8006,
      "Ġ59": 8007,
      "adj": 8008,
      "Ġjob": 8009,
      "ĠSecretary": 8010,
      "Ġslender": 8011,
      "Ġsob": 8012,
      "need": 8013,
      "ĠAthen": 8014,
      "Ġconstruction": 8015,
      "Ġtouching": 8016,
      "ĠMoses": 8017,
      "Ġdeed": 8018,
      "Ġfearful": 8019,
      "Ġqueer": 8020,
      "uity": 8021,
      "Ġbloom": 8022,
      "ĠTherefore": 8023,
      "Ġexhausted": 8024,
      "mil": 8025,
      "Ġwondering": 8026,
      "Ġoriginally": 8027,
      "Ġwrath": 8028,
      "bear": 8029,
      "Ġobjection": 8030,
      "Ġenabled": 8031,
      "Ġsuccession": 8032,
      "Ġprevented": 8033,
      "Ġmetal": 8034,
      "Ġobvious": 8035,
      "Ġthir": 8036,
      "Ġproduction": 8037,
      "Ġdeeds": 8038,
      "ĠEmpire": 8039,
      "anta": 8040,
      "Ġpover": 8041,
      "Ġprotest": 8042,
      "ayed": 8043,
      "alys": 8044,
      "Ġmoreover": 8045,
      "Ġbadly": 8046,
      "ester": 8047,
      "55": 8048,
      "Ġseas": 8049,
      "ĠPur": 8050,
      "vet": 8051,
      "urious": 8052,
      "conne": 8053,
      "steps": 8054,
      "ĠCard": 8055,
      "hot": 8056,
      "green": 8057,
      "andal": 8058,
      "coat": 8059,
      "continued": 8060,
      "Ġbasis": 8061,
      "Ġeighteen": 8062,
      "ties": 8063,
      "pleasure": 8064,
      "Ġbath": 8065,
      "zing": 8066,
      "isk": 8067,
      "ricult": 8068,
      "anny": 8069,
      "Ġcrossing": 8070,
      "Ġimmort": 8071,
      "Ġpains": 8072,
      "Ġchapel": 8073,
      "acific": 8074,
      "Ġpoverty": 8075,
      "Ġgrateful": 8076,
      "Ġindicated": 8077,
      "leton": 8078,
      "Ġextrem": 8079,
      "Ġpassages": 8080,
      "lady": 8081,
      "Ġsharply": 8082,
      "66": 8083,
      "pline": 8084,
      "ĠAR": 8085,
      "Ġwanting": 8086,
      "whel": 8087,
      "Ġ\"'": 8088,
      "Ġregarding": 8089,
      "allowed": 8090,
      "Ġincluded": 8091,
      "Ġcommerce": 8092,
      "ĠOR": 8093,
      "court": 8094,
      "inv": 8095,
      "ĠĠĠĠĠĠĠĠĠĠĠĠĠĠĠĠĠĠĠĠĠĠĠĠĠĠĠ": 8096,
      "fellow": 8097,
      "Ġsomebody": 8098,
      "Ġrequires": 8099,
      "Brit": 8100,
      "Ġengra": 8101,
      "Ġmerit": 8102,
      "Ġdeserted": 8103,
      "scar": 8104,
      "following": 8105,
      "ĠLieutenant": 8106,
      "Ġfurniture": 8107,
      "igne": 8108,
      "Ġsounded": 8109,
      "LES": 8110,
      "adelp": 8111,
      "ĠColumb": 8112,
      "Ġchim": 8113,
      "END": 8114,
      "Ġleaned": 8115,
      "Ġsul": 8116,
      "uty": 8117,
      "Ġportrait": 8118,
      "Ġrot": 8119,
      "Ġperceive": 8120,
      "Ġhadn": 8121,
      "speak": 8122,
      "Ġburnt": 8123,
      "Ġsuspected": 8124,
      "lder": 8125,
      "Ġassure": 8126,
      "ĠGrace": 8127,
      "meet": 8128,
      "Ġunlike": 8129,
      "irk": 8130,
      "Ġvivid": 8131,
      "Ġambition": 8132,
      "Ġfolks": 8133,
      "Ġclay": 8134,
      "Ġga": 8135,
      "important": 8136,
      "Ġtemp": 8137,
      "Ġparted": 8138,
      "ĠFlorence": 8139,
      "ulties": 8140,
      "AST": 8141,
      "inf": 8142,
      "ĠConstitution": 8143,
      "Ġwedding": 8144,
      "Ġdeeper": 8145,
      "Ġimpulse": 8146,
      "agle": 8147,
      "MAN": 8148,
      "sold": 8149,
      "Ġsailed": 8150,
      "Ġprem": 8151,
      "Ġtoss": 8152,
      "Ġfinish": 8153,
      "Ġ58": 8154,
      "ounter": 8155,
      "Î¹": 8156,
      "Ġpossibility": 8157,
      "inson": 8158,
      "Ġwaist": 8159,
      "ĠTake": 8160,
      "Ġrepeat": 8161,
      "Ġeastern": 8162,
      "Ġenable": 8163,
      "Ġsteadily": 8164,
      "fare": 8165,
      "creat": 8166,
      "Ġseventy": 8167,
      "Ġfinest": 8168,
      "times": 8169,
      "broken": 8170,
      "ĠJones": 8171,
      "mont": 8172,
      "ĠGall": 8173,
      "Ġprepare": 8174,
      "Ġmaterials": 8175,
      "Ġbuck": 8176,
      "Ġleis": 8177,
      "doubt": 8178,
      "gging": 8179,
      "imag": 8180,
      "umm": 8181,
      "Ġlightly": 8182,
      "number": 8183,
      "pict": 8184,
      "icles": 8185,
      "ĠPass": 8186,
      "terior": 8187,
      "Ġ80": 8188,
      "Ġgovern": 8189,
      "Ġphot": 8190,
      "Ġinterfe": 8191,
      "hered": 8192,
      "emoiselle": 8193,
      "ĠSecond": 8194,
      "Ġtriump": 8195,
      "_]": 8196,
      "Ġlawyer": 8197,
      "Ġdisturbed": 8198,
      "Ġemperor": 8199,
      "Ġsighed": 8200,
      "rily": 8201,
      "Ġscarce": 8202,
      "Ġfert": 8203,
      "ĠBern": 8204,
      "57": 8205,
      "ĠNational": 8206,
      "ĠJudge": 8207,
      "Ġdismiss": 8208,
      "Ġexquisite": 8209,
      "Ġbeasts": 8210,
      "felt": 8211,
      "igence": 8212,
      "American": 8213,
      "Ġcheap": 8214,
      "Ġlimit": 8215,
      "Ġpine": 8216,
      "ĠDist": 8217,
      "Ġleather": 8218,
      "Ġexchange": 8219,
      "olph": 8220,
      "Ġclerk": 8221,
      "ww": 8222,
      "Ġgroups": 8223,
      "ball": 8224,
      "Ġpound": 8225,
      "ĠWestern": 8226,
      "Ġgifts": 8227,
      "Ġanywhere": 8228,
      "Ġstaff": 8229,
      "Ġcolours": 8230,
      "manner": 8231,
      "Ġlion": 8232,
      "willing": 8233,
      "Ġprovide": 8234,
      "ĠCOM": 8235,
      "Ġendure": 8236,
      "Ġdecide": 8237,
      "ĠLeg": 8238,
      "bene": 8239,
      "Ġtermin": 8240,
      "ĠĠĠĠĠĠĠĠĠĠĠĠĠĠĠĠĠĠĠĠĠĠĠĠĠĠĠĠ": 8241,
      "Ġrealized": 8242,
      "Ġpace": 8243,
      "Ġpatriot": 8244,
      "Ġdenied": 8245,
      "Ġsongs": 8246,
      "Ġsensible": 8247,
      "Ġcopper": 8248,
      "Ġranks": 8249,
      "adelphia": 8250,
      "treat": 8251,
      "ĊĊĊĊĊ": 8252,
      "ĠTell": 8253,
      "Ġreflection": 8254,
      "super": 8255,
      "grim": 8256,
      "Ġfastened": 8257,
      "ĠPier": 8258,
      "ibus": 8259,
      "AK": 8260,
      "cs": 8261,
      "Ġembarrass": 8262,
      "cclesiast": 8263,
      "Ġgazing": 8264,
      "NOT": 8265,
      "Ġconsequences": 8266,
      "ĠLuc": 8267,
      "ws": 8268,
      "ISH": 8269,
      "Ġpatron": 8270,
      "Ġarts": 8271,
      "68": 8272,
      "Fl": 8273,
      "Ġovercome": 8274,
      "Ġgrain": 8275,
      "Ġsigned": 8276,
      "early": 8277,
      "Ġfolly": 8278,
      "eur": 8279,
      "ĠBas": 8280,
      "ĠFIG": 8281,
      "Ġsheet": 8282,
      "ĠEve": 8283,
      "PH": 8284,
      "prison": 8285,
      "Ġcure": 8286,
      "Ġbuff": 8287,
      "itty": 8288,
      "Ġrebell": 8289,
      "sels": 8290,
      "Ġheavens": 8291,
      "shire": 8292,
      "Ġyell": 8293,
      "Ġbeaten": 8294,
      "ĠInt": 8295,
      "Ġaffl": 8296,
      "OUN": 8297,
      "Ġstudent": 8298,
      "ĠRos": 8299,
      "Ġvolumes": 8300,
      "Ġtraining": 8301,
      "received": 8302,
      "Ġprize": 8303,
      "Pe": 8304,
      "Ġlou": 8305,
      "Ġelection": 8306,
      "Ġbrethren": 8307,
      "Ġlimits": 8308,
      "ishops": 8309,
      "Ġmedicine": 8310,
      "Ġconvention": 8311,
      "Ġremote": 8312,
      "rified": 8313,
      "Ġthereby": 8314,
      "Ġcraft": 8315,
      "Ġleaning": 8316,
      "Ġextensive": 8317,
      "Ġauthors": 8318,
      "aire": 8319,
      "Ġarrive": 8320,
      "graph": 8321,
      "bb": 8322,
      "ylon": 8323,
      "oped": 8324,
      "42": 8325,
      "Ġcourts": 8326,
      "drew": 8327,
      "Ġblessing": 8328,
      "irect": 8329,
      "ĠHugh": 8330,
      "Ġminor": 8331,
      "ĠMaria": 8332,
      "ĠOut": 8333,
      "ĠCra": 8334,
      "Ġmead": 8335,
      "Îµ": 8336,
      "Ġstair": 8337,
      "istent": 8338,
      "agues": 8339,
      "Ġcomposition": 8340,
      "UB": 8341,
      "Ġlin": 8342,
      "TS": 8343,
      "jour": 8344,
      "aneous": 8345,
      "Ġbreeze": 8346,
      "ĠAndrew": 8347,
      "ĠMexico": 8348,
      "atherine": 8349,
      "Ġdetect": 8350,
      "Take": 8351,
      "isting": 8352,
      "Ġmagic": 8353,
      "ĠWorld": 8354,
      "Ġcontrad": 8355,
      "Ġregions": 8356,
      "Ġcrack": 8357,
      "Ġneglect": 8358,
      "Ġquarrel": 8359,
      "Ġbapt": 8360,
      "Ġcents": 8361,
      "Ġselfish": 8362,
      "itality": 8363,
      "Ġpatter": 8364,
      "Ġintend": 8365,
      "Ġhastened": 8366,
      "dess": 8367,
      "Ġvisitor": 8368,
      "Ġwrought": 8369,
      "Ġmars": 8370,
      "daughter": 8371,
      "Ġcondemned": 8372,
      "Ġlun": 8373,
      "ĠMount": 8374,
      "Ġwash": 8375,
      "ĠSenate": 8376,
      "Ġjump": 8377,
      "Ġcommander": 8378,
      "wart": 8379,
      "Ġmanage": 8380,
      "ĠSun": 8381,
      "ĠGermans": 8382,
      "Ġparallel": 8383,
      "Ġindifferent": 8384,
      "idd": 8385,
      "________": 8386,
      "ĠGrant": 8387,
      "Ġ75": 8388,
      "Ġmotive": 8389,
      "cas": 8390,
      "Ġintimate": 8391,
      "Ġcombined": 8392,
      "Ġretire": 8393,
      "ĠThrough": 8394,
      "Ġ57": 8395,
      "Ġintelligent": 8396,
      "ĠAtl": 8397,
      "Ġhesitated": 8398,
      "Ġlic": 8399,
      "Ġawake": 8400,
      "Ġtick": 8401,
      "inence": 8402,
      "influ": 8403,
      "enc": 8404,
      "Ġcease": 8405,
      "Ġstartled": 8406,
      "Ġreasonable": 8407,
      "Ġfasc": 8408,
      "Ġcomparison": 8409,
      "iations": 8410,
      "Ġprincess": 8411,
      "Ġlan": 8412,
      "rup": 8413,
      "ĠTown": 8414,
      "41": 8415,
      "Ġlargest": 8416,
      "omy": 8417,
      "Ġcoo": 8418,
      "Ġmerc": 8419,
      "ĠTim": 8420,
      "Ġboil": 8421,
      "uming": 8422,
      "Ġlust": 8423,
      "consequ": 8424,
      "UST": 8425,
      "Ġlively": 8426,
      "Even": 8427,
      "Ġrav": 8428,
      "Ġju": 8429,
      "Ġencourage": 8430,
      "hope": 8431,
      "olt": 8432,
      "Ġinduced": 8433,
      "comes": 8434,
      "Ġcandid": 8435,
      "Ġgoodness": 8436,
      "fles": 8437,
      "Because": 8438,
      "family": 8439,
      "rers": 8440,
      "Ġvary": 8441,
      "ppers": 8442,
      "nut": 8443,
      "rooms": 8444,
      "Ġoak": 8445,
      "ĠFle": 8446,
      "Ġprinces": 8447,
      "stitute": 8448,
      "Ġbeds": 8449,
      "Ġpolitics": 8450,
      "Ġperformance": 8451,
      "unce": 8452,
      "uing": 8453,
      "sun": 8454,
      "Ġgrows": 8455,
      "although": 8456,
      "Ġplays": 8457,
      "Ġinstructions": 8458,
      "Ġrelieved": 8459,
      "compan": 8460,
      "Ġpronounced": 8461,
      "Ġvine": 8462,
      "Ġhospital": 8463,
      "acing": 8464,
      "Ġpreserve": 8465,
      "Ġdisgrace": 8466,
      "Ġgardens": 8467,
      "neighb": 8468,
      "ĠAbout": 8469,
      "Ġfury": 8470,
      "Ġtemperature": 8471,
      "nation": 8472,
      "oting": 8473,
      "Ġfet": 8474,
      "Ġstim": 8475,
      "Ġstarting": 8476,
      "Hen": 8477,
      "Ġeaten": 8478,
      "Ġpainting": 8479,
      "Ġdefect": 8480,
      "bot": 8481,
      "Ġlaying": 8482,
      "alone": 8483,
      "akened": 8484,
      "gedy": 8485,
      "Su": 8486,
      "Ġpointing": 8487,
      "Ġpermanent": 8488,
      "everal": 8489,
      "Ġgloomy": 8490,
      "ĠLeon": 8491,
      "regard": 8492,
      "ĠGil": 8493,
      "Ġconj": 8494,
      "Ġslain": 8495,
      "iveness": 8496,
      "Ġimprison": 8497,
      "reci": 8498,
      "Ġhatred": 8499,
      "ights": 8500,
      "Ġtobacco": 8501,
      "Ġtheatre": 8502,
      "Ġfran": 8503,
      "Ġdwelling": 8504,
      "DE": 8505,
      "Ġattain": 8506,
      "chard": 8507,
      "icing": 8508,
      "Ġtin": 8509,
      "government": 8510,
      "determ": 8511,
      "Ġfeature": 8512,
      "guard": 8513,
      "Ġwherever": 8514,
      "Ġ200": 8515,
      "Ġexamine": 8516,
      "ĠSpr": 8517,
      "Ġmajesty": 8518,
      "Ġduke": 8519,
      "ĠAustral": 8520,
      "roll": 8521,
      "Ġfortunate": 8522,
      "Ġmagist": 8523,
      "Ġmedium": 8524,
      "orse": 8525,
      "Ġthereof": 8526,
      "acks": 8527,
      "Ġhind": 8528,
      "Ġmultitude": 8529,
      "Ġreb": 8530,
      "90": 8531,
      "riages": 8532,
      "knowledge": 8533,
      "towards": 8534,
      "aying": 8535,
      "Ġdragged": 8536,
      "ĠBa": 8537,
      "geance": 8538,
      "thr": 8539,
      "free": 8540,
      "quer": 8541,
      "ashes": 8542,
      "ĠChief": 8543,
      "ĠCaesar": 8544,
      "ĠTest": 8545,
      "Ġslip": 8546,
      "Ġcoward": 8547,
      "Ġintervals": 8548,
      "conc": 8549,
      "Ġarise": 8550,
      "ĠPER": 8551,
      "iece": 8552,
      "othy": 8553,
      "Ġprofess": 8554,
      "Ġswear": 8555,
      "Ġvillages": 8556,
      "Ġroots": 8557,
      "Ġintroduction": 8558,
      "Ġcommercial": 8559,
      "ĠHaw": 8560,
      "Ġugly": 8561,
      "ervation": 8562,
      "Ġrecorded": 8563,
      "urg": 8564,
      "Ġdarling": 8565,
      "Ġcustoms": 8566,
      "Ġboots": 8567,
      "Ġexecuted": 8568,
      "sters": 8569,
      "Ġknee": 8570,
      "Ġmould": 8571,
      "Ġate": 8572,
      "Ġexists": 8573,
      "utive": 8574,
      "ĠPortug": 8575,
      "Ġemployment": 8576,
      "picuous": 8577,
      "quiet": 8578,
      "Ġmusical": 8579,
      "Ġpurchase": 8580,
      "alph": 8581,
      "Ġbeach": 8582,
      "Gu": 8583,
      "67": 8584,
      "hend": 8585,
      "feel": 8586,
      "Ġoutward": 8587,
      "voice": 8588,
      "Ġsne": 8589,
      "apping": 8590,
      "Ste": 8591,
      "Ġattracted": 8592,
      "Ġclock": 8593,
      "Ġbeheld": 8594,
      "Gover": 8595,
      "Ġdelic": 8596,
      "Ġexamples": 8597,
      "seven": 8598,
      "squ": 8599,
      "hill": 8600,
      ".\"--": 8601,
      "Ġconsisted": 8602,
      "Ġplot": 8603,
      "Ġcreation": 8604,
      "Ġthirst": 8605,
      "Ġlock": 8606,
      "aston": 8607,
      "Ġowe": 8608,
      "Ġfatig": 8609,
      "Ġprimitive": 8610,
      "phil": 8611,
      "ĠRock": 8612,
      "Ġarea": 8613,
      "Ġmoist": 8614,
      "ĠPeople": 8615,
      "Ġshaking": 8616,
      "want": 8617,
      "Bar": 8618,
      "Ġartific": 8619,
      "Ġsupplies": 8620,
      "ipt": 8621,
      "inated": 8622,
      "Ġprominent": 8623,
      "agreeable": 8624,
      "scape": 8625,
      "haw": 8626,
      "Ġinspired": 8627,
      "Ġirregular": 8628,
      "inburgh": 8629,
      "ĠSpaniards": 8630,
      "ORE": 8631,
      "resently": 8632,
      "lyn": 8633,
      "placed": 8634,
      "Ġdrank": 8635,
      "Ġsixteen": 8636,
      "ba": 8637,
      "Ġmob": 8638,
      "Ġsteamer": 8639,
      "Ġtimid": 8640,
      "Ġnotwithstanding": 8641,
      "Ġassume": 8642,
      "Ġphysician": 8643,
      "Ġelected": 8644,
      "grad": 8645,
      "ORY": 8646,
      "ÏĤ": 8647,
      "Ġadvantages": 8648,
      "Ġcleared": 8649,
      "began": 8650,
      "Ġlift": 8651,
      "near": 8652,
      "incre": 8653,
      "Ġapost": 8654,
      "Mon": 8655,
      "58": 8656,
      "ingham": 8657,
      "ĠXXX": 8658,
      "Ġdoubtful": 8659,
      "PER": 8660,
      "Ġkeeps": 8661,
      "Ġattempts": 8662,
      "chn": 8663,
      "followed": 8664,
      "Ġfed": 8665,
      "tery": 8666,
      "Ġgraceful": 8667,
      "enna": 8668,
      "Ġdisplayed": 8669,
      "Ġhed": 8670,
      "Ġrespects": 8671,
      "achel": 8672,
      "deep": 8673,
      "ĠCommission": 8674,
      "Ġfeels": 8675,
      "Ġwritings": 8676,
      "Ġcards": 8677,
      "Ġdang": 8678,
      "ĠGar": 8679,
      "ĠCro": 8680,
      "inery": 8681,
      "mill": 8682,
      "Ġprey": 8683,
      "Ġcoarse": 8684,
      "Ġpink": 8685,
      "Ġamend": 8686,
      "aria": 8687,
      "reement": 8688,
      "Ġrays": 8689,
      "Ġconfident": 8690,
      "Ġwashed": 8691,
      "ĠBert": 8692,
      "Ġperfection": 8693,
      "ĠSk": 8694,
      "Lady": 8695,
      "reath": 8696,
      "Ġplates": 8697,
      "Ġsolitary": 8698,
      "Ġmostly": 8699,
      "begin": 8700,
      "ouched": 8701,
      "Ġnarrative": 8702,
      "Ġcovering": 8703,
      "Ġentreat": 8704,
      "Ġfurnish": 8705,
      "Ġrepublic": 8706,
      "Ġhappens": 8707,
      "Ġrecords": 8708,
      "Ġyer": 8709,
      "ĠMS": 8710,
      "Ġadorn": 8711,
      "ĠPoor": 8712,
      "chair": 8713,
      "Ġcivilization": 8714,
      "Ġdining": 8715,
      "church": 8716,
      "Ġdemands": 8717,
      "Ġgallant": 8718,
      "Ġbat": 8719,
      "Ġling": 8720,
      "Ġqual": 8721,
      "Ġraces": 8722,
      "Ġpaying": 8723,
      "lines": 8724,
      "Ġhated": 8725,
      "Ġpoets": 8726,
      "Ġbrass": 8727,
      "Ġconsidering": 8728,
      "ĠProject": 8729,
      "vas": 8730,
      "Ġdepths": 8731,
      "Ġoffering": 8732,
      "bod": 8733,
      "Ġmodest": 8734,
      "ĠChild": 8735,
      "Ġscore": 8736,
      "epend": 8737,
      "ifornia": 8738,
      "anda": 8739,
      "Ġstring": 8740,
      "Ġoccupation": 8741,
      "William": 8742,
      "Ġjest": 8743,
      "Ġhut": 8744,
      "ĠBilly": 8745,
      "cied": 8746,
      "Ġembra": 8747,
      "vill": 8748,
      "Ġwars": 8749,
      "Ġstudies": 8750,
      "ippi": 8751,
      "Ġheed": 8752,
      "Ġvaried": 8753,
      "ĠTurk": 8754,
      "pture": 8755,
      "Ġdaring": 8756,
      "probably": 8757,
      "office": 8758,
      "Ġabandon": 8759,
      "cester": 8760,
      "ushes": 8761,
      "adm": 8762,
      "Ġdepends": 8763,
      "Ġvulgar": 8764,
      "ĠPR": 8765,
      "ĠAlthough": 8766,
      "asked": 8767,
      "ĠRich": 8768,
      "Again": 8769,
      "ensity": 8770,
      "Ġstreams": 8771,
      "plom": 8772,
      "Ġfourteen": 8773,
      "ulus": 8774,
      "adise": 8775,
      "Ġstomach": 8776,
      "Ġconquer": 8777,
      "akers": 8778,
      "ĠFra": 8779,
      "Ġcu": 8780,
      "employ": 8781,
      "Ġsway": 8782,
      "43": 8783,
      "sufficient": 8784,
      "became": 8785,
      "ĠIll": 8786,
      "Ġhoney": 8787,
      "_,\"": 8788,
      "produ": 8789,
      "Thank": 8790,
      "uting": 8791,
      "Ġtribut": 8792,
      "ĠMinister": 8793,
      "means": 8794,
      "Ġstroke": 8795,
      "Ġruined": 8796,
      "olen": 8797,
      "Ġfeeble": 8798,
      "earth": 8799,
      "Ġpositive": 8800,
      "Ġwages": 8801,
      "Ġthither": 8802,
      "Ġwhereas": 8803,
      "Ġerect": 8804,
      "sure": 8805,
      "'.": 8806,
      "Ġpoems": 8807,
      "Ġpreferred": 8808,
      "Ġcomparatively": 8809,
      "Ġmamma": 8810,
      "Ġgathering": 8811,
      "ĠHolland": 8812,
      "Ġrat": 8813,
      "Ġtrunk": 8814,
      "Ġlament": 8815,
      "Ġreception": 8816,
      "ĠFr": 8817,
      "ĠĠĠĠĠĠĠĠĠĠĠĠĠĠĠĠĠĠĠĠĠĠĠĠĠĠĠĠĠĠ": 8818,
      "Ġclaimed": 8819,
      "Ġrolling": 8820,
      "onic": 8821,
      "ĠTime": 8822,
      "Ġmanufacture": 8823,
      "fold": 8824,
      "ctic": 8825,
      "Ġelev": 8826,
      "Ġtravelling": 8827,
      "Ġaged": 8828,
      "least": 8829,
      "Ġmate": 8830,
      "Ġsecurity": 8831,
      "become": 8832,
      "Ġarmies": 8833,
      "ĠAdam": 8834,
      "onday": 8835,
      "recogn": 8836,
      "Ġ150": 8837,
      "Ġrevenge": 8838,
      "Ġconvent": 8839,
      "Ġsanct": 8840,
      "olis": 8841,
      "Ġdeer": 8842,
      "intend": 8843,
      "Ġangels": 8844,
      "61": 8845,
      "Ġcolony": 8846,
      "Old": 8847,
      "kward": 8848,
      "Ġpeasant": 8849,
      "ĠArmy": 8850,
      "Ġbasket": 8851,
      "oa": 8852,
      "Ġapartment": 8853,
      "ĠRuth": 8854,
      "ensation": 8855,
      "Ġshru": 8856,
      "Ġflash": 8857,
      "Ġsurrender": 8858,
      "Ġartillery": 8859,
      "eers": 8860,
      "ĠSaturday": 8861,
      "Ġpreparing": 8862,
      "Ġmant": 8863,
      "state": 8864,
      "Ġmap": 8865,
      "run": 8866,
      "Ġprecisely": 8867,
      "Ġharsh": 8868,
      "ĠGutenberg": 8869,
      "Ġharmony": 8870,
      "ĠRevolution": 8871,
      "ĠAlice": 8872,
      "obl": 8873,
      "Ġcrept": 8874,
      "Ġdict": 8875,
      "Ġinvolved": 8876,
      "Ġclimate": 8877,
      "Ġearnestly": 8878,
      "Ġ160": 8879,
      "Ġconceived": 8880,
      "letter": 8881,
      "bott": 8882,
      "cat": 8883,
      "Ġadditional": 8884,
      "Ġwherein": 8885,
      "Ġadmirable": 8886,
      "uk": 8887,
      "Ġfruits": 8888,
      "ĠStephen": 8889,
      "Ġreflected": 8890,
      "Ġconvenient": 8891,
      "osity": 8892,
      "forced": 8893,
      "Ġcapture": 8894,
      "iger": 8895,
      "Ġadmir": 8896,
      "mine": 8897,
      "Ġrecognised": 8898,
      "First": 8899,
      "agn": 8900,
      "olas": 8901,
      "endous": 8902,
      "Poor": 8903,
      "Ġjumped": 8904,
      "Ġmour": 8905,
      "Ġbloss": 8906,
      "Ġenterprise": 8907,
      "Ġpapa": 8908,
      "ĠPenn": 8909,
      "Ġspecimens": 8910,
      "ĠNa": 8911,
      "Indeed": 8912,
      "Ġobservations": 8913,
      "umbled": 8914,
      "sole": 8915,
      "usually": 8916,
      "ACE": 8917,
      "Ġvanished": 8918,
      "Ġdesires": 8919,
      "Ġfollowers": 8920,
      "Ġlocked": 8921,
      "ĠSP": 8922,
      "urrection": 8923,
      "APP": 8924,
      "TO": 8925,
      "Ġcommence": 8926,
      "Ġsummit": 8927,
      "fa": 8928,
      "ĠĠĠĠĠĠĠĠĠĠĠĠĠĠĠĠĠĠĠĠĠĠĠĠĠĠĠĠĠĠĠ": 8929,
      "icating": 8930,
      "About": 8931,
      "Ġscul": 8932,
      "wen": 8933,
      "Ġobedience": 8934,
      "alking": 8935,
      "Ġstudents": 8936,
      "Ġpond": 8937,
      "chance": 8938,
      "ĠBre": 8939,
      "Ġmingled": 8940,
      "ĠJOHN": 8941,
      "condition": 8942,
      "Ġdepartment": 8943,
      "iche": 8944,
      "Ġprivilege": 8945,
      "ĠRod": 8946,
      "ĠIsa": 8947,
      "plied": 8948,
      "Ġregards": 8949,
      "ano": 8950,
      "Ġmischief": 8951,
      "behind": 8952,
      "din": 8953,
      "Ġbrand": 8954,
      "Ġcir": 8955,
      "nders": 8956,
      "bound": 8957,
      "shad": 8958,
      "Ġpolite": 8959,
      "Ġappet": 8960,
      "gold": 8961,
      "ĠAmericans": 8962,
      "Ġsolic": 8963,
      "perial": 8964,
      "Ġattained": 8965,
      "wering": 8966,
      "Ġcolumns": 8967,
      "Ġwagon": 8968,
      "hio": 8969,
      "ĠSamuel": 8970,
      "Ġpled": 8971,
      "Ġchron": 8972,
      "viously": 8973,
      "Ġfishing": 8974,
      "ĠTurn": 8975,
      "iac": 8976,
      "Ġwearing": 8977,
      "Ġknocked": 8978,
      "Ġnewspaper": 8979,
      "Ġverses": 8980,
      "Ġflatter": 8981,
      "aining": 8982,
      "ĠAlf": 8983,
      "Ġresponsible": 8984,
      "cession": 8985,
      "shi": 8986,
      "ĠBru": 8987,
      "Ġthri": 8988,
      "ifted": 8989,
      "Ġamusement": 8990,
      "Ġaccess": 8991,
      "works": 8992,
      "ĠRoger": 8993,
      "Ġoccurs": 8994,
      "Ġproceedings": 8995,
      "ĠStan": 8996,
      "prep": 8997,
      "Ġrecall": 8998,
      "Ġrud": 8999,
      "Ġrug": 9000,
      "Ġsatisfactory": 9001,
      "Äĵ": 9002,
      "Ġgig": 9003,
      "herent": 9004,
      "Ġcunning": 9005,
      "umps": 9006,
      "carried": 9007,
      "Ġbalance": 9008,
      "ĠJewish": 9009,
      "ĠJeff": 9010,
      "ĠShakespeare": 9011,
      "Ġrhy": 9012,
      "feeling": 9013,
      "Ġinjury": 9014,
      "racts": 9015,
      "wonder": 9016,
      "Ġinit": 9017,
      "Ġimpressed": 9018,
      "ribly": 9019,
      "Ġcandle": 9020,
      "Ġconfused": 9021,
      "Tell": 9022,
      "Ġcryst": 9023,
      "Ġshells": 9024,
      "Ġplains": 9025,
      "Ġpark": 9026,
      "Ġdisgu": 9027,
      "Only": 9028,
      "ĠCommittee": 9029,
      "true": 9030,
      "comb": 9031,
      "jac": 9032,
      "Ġhorizon": 9033,
      "Ġbone": 9034,
      "ictions": 9035,
      "dead": 9036,
      "Ġbeard": 9037,
      "Ġdefeat": 9038,
      "ĠTor": 9039,
      "ĠShall": 9040,
      "Ġretained": 9041,
      "Ġappar": 9042,
      "imately": 9043,
      "Ġmixture": 9044,
      "Ġenjoyment": 9045,
      "pain": 9046,
      "Ġdetermination": 9047,
      "Ġnois": 9048,
      "ĠNorman": 9049,
      "borough": 9050,
      "ĠWy": 9051,
      "Ġvirtues": 9052,
      "Ġsensation": 9053,
      "places": 9054,
      "Ġbeating": 9055,
      "Ġinvitation": 9056,
      "Ġpicturesque": 9057,
      "Ġclothing": 9058,
      "Ġindependence": 9059,
      "Ġrises": 9060,
      "Ġroar": 9061,
      "Ġelabor": 9062,
      "Ġphenomena": 9063,
      "Ġrespectable": 9064,
      "ĠServ": 9065,
      "liver": 9066,
      "Ġadministration": 9067,
      "ĠMet": 9068,
      "Ġmedical": 9069,
      "ĠAsia": 9070,
      "ĠBE": 9071,
      "Ġreform": 9072,
      "Ġprocession": 9073,
      "Ġqui": 9074,
      "pha": 9075,
      "Ġ42": 9076,
      "ĠIX": 9077,
      "ĠInf": 9078,
      "Ġarrested": 9079,
      "vous": 9080,
      "Ġexhibit": 9081,
      "Ġdried": 9082,
      "Ġrespecting": 9083,
      "Ġsurvey": 9084,
      "osh": 9085,
      "Ġhandle": 9086,
      "Ïģ": 9087,
      "Ġupright": 9088,
      "Ġvisitors": 9089,
      "ĠWat": 9090,
      "dog": 9091,
      "Ġreports": 9092,
      "entire": 9093,
      "Ġweapons": 9094,
      "Ġpassions": 9095,
      "Ġagony": 9096,
      "Ġfeathers": 9097,
      "anks": 9098,
      "Ġshores": 9099,
      "Ġcannon": 9100,
      "Ġtimber": 9101,
      "Ġdirty": 9102,
      "Ġcharity": 9103,
      "esy": 9104,
      "Ġinvestig": 9105,
      "ĠRO": 9106,
      "shaped": 9107,
      "Me": 9108,
      "Ġlanding": 9109,
      "Thou": 9110,
      "Ġafforded": 9111,
      "icago": 9112,
      "Ġtun": 9113,
      "Ġagricult": 9114,
      "Ġcriminal": 9115,
      "quick": 9116,
      "Ġpile": 9117,
      "Ġroses": 9118,
      "aired": 9119,
      "attention": 9120,
      "Ġformation": 9121,
      "ographical": 9122,
      "Ġfain": 9123,
      "Ġconcent": 9124,
      "Ġinstruction": 9125,
      "Ġwake": 9126,
      "street": 9127,
      "Ġrisen": 9128,
      "Ġvest": 9129,
      "Ġaccused": 9130,
      "ĠLucy": 9131,
      "Ġmodel": 9132,
      "Ġslee": 9133,
      "faith": 9134,
      "Ġcloser": 9135,
      "OUS": 9136,
      "Ġplatform": 9137,
      "Ġtranslation": 9138,
      "Ġoffices": 9139,
      "ctors": 9140,
      "Ġplanted": 9141,
      "Ġcave": 9142,
      "Ġhumour": 9143,
      "Somet": 9144,
      "polit": 9145,
      "ibilities": 9146,
      "ridge": 9147,
      "Ġindignation": 9148,
      "Ġveil": 9149,
      "cause": 9150,
      "oonful": 9151,
      "move": 9152,
      "rice": 9153,
      "Ġsatisfy": 9154,
      "books": 9155,
      "ala": 9156,
      "ournal": 9157,
      "Ġanchor": 9158,
      "conce": 9159,
      "ila": 9160,
      "Ġbond": 9161,
      "bable": 9162,
      "Ġministers": 9163,
      "Jack": 9164,
      "#,": 9165,
      "ĊĠĠĠĠĠĠĠĠĠĠĠĠĠĠĠ": 9166,
      "Ġbush": 9167,
      "Ġlightning": 9168,
      "Ġgown": 9169,
      "dress": 9170,
      "ĠHebrew": 9171,
      "Ġ168": 9172,
      "Ġmanuscript": 9173,
      "Ġfairy": 9174,
      "agan": 9175,
      "usk": 9176,
      "phew": 9177,
      "irts": 9178,
      "zes": 9179,
      "company": 9180,
      "Ġarrangements": 9181,
      "atching": 9182,
      "bad": 9183,
      "written": 9184,
      "Ġrecollect": 9185,
      "Ġchamp": 9186,
      "Ġengagement": 9187,
      "Ġcomrades": 9188,
      "press": 9189,
      "Ġuniverse": 9190,
      "Ġdeadly": 9191,
      "Ġsummoned": 9192,
      "Ġundoubtedly": 9193,
      "Ġfavorite": 9194,
      "aging": 9195,
      "Ġfarewell": 9196,
      "party": 9197,
      "Ġber": 9198,
      "ati": 9199,
      "hate": 9200,
      "inch": 9201,
      "wealth": 9202,
      "azine": 9203,
      "Ġclam": 9204,
      "says": 9205,
      "ĠNed": 9206,
      "Ġspell": 9207,
      "Ġprosperity": 9208,
      "ignor": 9209,
      "Ġeighty": 9210,
      "Ġpersuaded": 9211,
      "strange": 9212,
      "Ġwandering": 9213,
      "writing": 9214,
      "Ant": 9215,
      "deal": 9216,
      "emon": 9217,
      "ITY": 9218,
      "Ġgiant": 9219,
      "Ġneglected": 9220,
      "Ġjack": 9221,
      "ĠGreeks": 9222,
      "George": 9223,
      "Ġload": 9224,
      "ands": 9225,
      "Ġ90": 9226,
      "Ġstaring": 9227,
      "Ġvigorous": 9228,
      "Ġflu": 9229,
      "cting": 9230,
      "Ġdisappointed": 9231,
      "Ġabol": 9232,
      "corn": 9233,
      "Ġcloak": 9234,
      "ĠSher": 9235,
      "Ġmutual": 9236,
      "Ġcens": 9237,
      "ĠBurn": 9238,
      "ships": 9239,
      "amental": 9240,
      "Ġgrandfather": 9241,
      "mur": 9242,
      "Father": 9243,
      "hin": 9244,
      "really": 9245,
      "Ġpreparation": 9246,
      "Ġlessons": 9247,
      "ferences": 9248,
      "Ġsimplicity": 9249,
      "issippi": 9250,
      "aman": 9251,
      "Ġdiver": 9252,
      "Their": 9253,
      "Ġprovision": 9254,
      "ĠAdmiral": 9255,
      "requently": 9256,
      "Great": 9257,
      "Ġvice": 9258,
      "Ġdrops": 9259,
      "sugg": 9260,
      "Ġretain": 9261,
      "fair": 9262,
      "Ġ68": 9263,
      "Ġ`": 9264,
      "ĠPage": 9265,
      "***": 9266,
      "Ġsailor": 9267,
      "Ġinstitutions": 9268,
      "ĠConfeder": 9269,
      "ĠSub": 9270,
      "ordered": 9271,
      "isms": 9272,
      "Ġpig": 9273,
      "ĠMoreover": 9274,
      "ighted": 9275,
      "ĠConstant": 9276,
      "Ġfuneral": 9277,
      "lock": 9278,
      "ĊĊĊĊĊĠĠĠĠĠĠĠĠĠĠĠĠĠĠĠĠĠĠĠĠĠĠĠĠ": 9279,
      "ifies": 9280,
      "Ġgrin": 9281,
      "Ġcultivated": 9282,
      "ĠUp": 9283,
      "Ġbased": 9284,
      "Ġsunk": 9285,
      "Ġculture": 9286,
      "husband": 9287,
      "Ġselect": 9288,
      "Ġdesk": 9289,
      "Ġsadly": 9290,
      "Ġdiameter": 9291,
      "ĠBull": 9292,
      "Ġheap": 9293,
      "FF": 9294,
      "Tom": 9295,
      "Ġnav": 9296,
      "Ġsaint": 9297,
      "Ġcorps": 9298,
      "Ġcanoe": 9299,
      "ĠHot": 9300,
      "circumstances": 9301,
      "'-": 9302,
      "Ġglow": 9303,
      "Ġsubsequent": 9304,
      "Ġvener": 9305,
      "Ġsymbol": 9306,
      "Ġsurrounding": 9307,
      "ĠOffice": 9308,
      "Ġgran": 9309,
      "Ġpropriet": 9310,
      "Ġfifth": 9311,
      "ĠPL": 9312,
      "ruit": 9313,
      "Ġsentiments": 9314,
      "cclesiastical": 9315,
      "Ġperf": 9316,
      "Ġbehalf": 9317,
      "const": 9318,
      "Ã¤": 9319,
      "convers": 9320,
      "Ġlosing": 9321,
      "Ġoverwhel": 9322,
      "62": 9323,
      "truth": 9324,
[...]
