{
  "version": "1.0",
  "truncation": null,
  "padding": null,
  "added_tokens": [
    {
      "id": 0,
      "content": "<pad>",
      "single_word": false,
      "lstrip": false,
      "rstrip": false,
      "normalized": false,
      "special": true
    },
    {
      "id": 1,
      "content": "<bos>",
      "single_word": false,
      "lstrip": false,
      "rstrip": false,
      "normalized": false,
      "special": true
    },
    {
      "id": 2,
      "content": "<eos>",
      "single_word": false,
      "lstrip": false,
      "rstrip": false,
      "normalized": false,
      "special": true
    },
    {
      "id": 3,
      "content": "<unk>",
      "single_word": false,
      "lstrip": false,
      "rstrip": false,
      "normalized": false,
      "special": true
    }
  ],
  "normalizer": {
    "type": "Sequence",
    "normalizers": [
      {
        "type": "NFKC"
      }
    ]
  },
  "pre_tokenizer": {
    "type": "ByteLevel",
    "add_prefix_space": false,
    "trim_offsets": true,
    "use_regex": true
  },
  "post_processor": null,
  "decoder": {
    "type": "ByteLevel",
    "add_prefix_space": true,
    "trim_offsets": true,
    "use_regex": true
  },
  "model": {
    "type": "BPE",
    "dropout": null,
    "unk_token": "<unk>",
    "continuing_subword_prefix": null,
    "end_of_word_suffix": null,
    "fuse_unk": false,
    "byte_fallback": false,
    "ignore_merges": false,
    "vocab": {
      "<pad>": 0,
      "<bos>": 1,
      "<eos>": 2,
      "<unk>": 3,
      "!": 4,
      "\"": 5,
      "$": 6,
      "&": 7,
      "'": 8,
      "(": 9,
      ")": 10,
      "*": 11,
      "+": 12,
      ",": 13,
      "-": 14,
      ".": 15,
      "/": 16,
      "0": 17,
      "1": 18,
      "2": 19,
      "3": 20,
      "4": 21,
      "5": 22,
      "6": 23,
      "7": 24,
      "8": 25,
      "9": 26,
      ":": 27,
      ";": 28,
      "?": 29,
      "A": 30,
      "B": 31,
      "C": 32,
      "D": 33,
      "E": 34,
      "F": 35,
      "G": 36,
      "H": 37,
      "I": 38,
      "J": 39,
      "K": 40,
      "L": 41,
      "M": 42,
      "N": 43,
      "O": 44,
      "P": 45,
      "Q": 46,
      "R": 47,
      "S": 48,
      "T": 49,
      "U": 50,
      "V": 51,
      "W": 52,
      "X": 53,
      "Y": 54,
      "Z": 55,
      "a": 56,
      "b": 57,
      "c": 58,
      "d": 59,
      "e": 60,
      "f": 61,
      "g": 62,
      "h": 63,
      "i": 64,
      "j": 65,
      "k": 66,
      "l": 67,
      "m": 68,
      "n": 69,
      "o": 70,
      "p": 71,
      "q": 72,
      "r": 73,
      "s": 74,
      "t": 75,
      "u": 76,
      "v": 77,
      "w": 78,
      "x": 79,
      "y": 80,
      "z": 81,
      "¡": 82,
      "¢": 83,
      "¦": 84,
      "©": 85,
      "«": 86,
      "¬": 87,
      "±": 88,
      "»": 89,
      "Â": 90,
      "Ã": 91,
      "Å": 92,
      "Ì": 93,
      "â": 94,
      "Ċ": 95,
      "Ġ": 96,
      "Ģ": 97,
      "Ĥ": 98,
      "ĥ": 99,
      "ĵ": 100,
      "ľ": 101,
      "Ŀ": 102,
      "he": 103,
      "Ġt": 104,
      "Ġa": 105,
      "Ġs": 106,
      "Ġw": 107,
      "nd": 108,
      "Ġthe": 109,
      "ed": 110,
      "Ġand": 111,
      "Ġto": 112,
      "Ġb": 113,
      "in": 114,
      "Ġh": 115,
      "Ġwa": 116,
      "re": 117,
      "Ġf": 118,
      "ou": 119,
      "it": 120,
      "Ġl": 121,
      "Ġc": 122,
      "Ġd": 123,
      "Ġhe": 124,
      "er": 125,
      "Ġm": 126,
      "Ġp": 127,
      "Ġwas": 128,
      "ĠT": 129,
      "om": 130,
      "Ġo": 131,
      "ay": 132,
      "is": 133,
      "ar": 134,
      "il": 135,
      "ing": 136,
      "Ġg": 137,
      "id": 138,
      "at": 139,
      "en": 140,
      "Ġn": 141,
      "Ġsa": 142,
      "Ġha": 143,
      "ĠS": 144,
      "ĠThe": 145,
      "an": 146,
      "im": 147,
      "or": 148,
      "on": 149,
      "Ġit": 150,
      "Ġth": 151,
      "ll": 152,
      "le": 153,
      "ĠH": 154,
      "Ġher": 155,
      "et": 156,
      "ot": 157,
      "ir": 158,
      "ĠShe": 159,
      "ĠHe": 160,
      "es": 161,
      "Ġin": 162,
      "ow": 163,
      "ut": 164,
      "ver": 165,
      "ĠThey": 166,
      "ck": 167,
      "ily": 168,
      "Ġu": 169,
      "Ġe": 170,
      "Ġy": 171,
      "ld": 172,
      "oo": 173,
      "Ġsaid": 174,
      "ig": 175,
      "Ġ\"": 176,
      "Ġr": 177,
      "am": 178,
      "Ġbe": 179,
      "ĠI": 180,
      "Ġst": 181,
      "Lily": 182,
      "ith": 183,
      "ke": 184,
      "ce": 185,
      "pp": 186,
      "ve": 187,
      "Ġwith": 188,
      "Ġshe": 189,
      "On": 190,
      "Ġon": 191,
      "Ġyou": 192,
      "ri": 193,
      "ked": 194,
      "Ġpl": 195,
      "Ġhis": 196,
      "Ġof": 197,
      "nt": 198,
      "Ġso": 199,
      "ad": 200,
      "Ġday": 201,
      "very": 202,
      "Ġthat": 203,
      "ĠLily": 204,
      "Ġplay": 205,
      "Ġup": 206,
      "Ġwe": 207,
      "Ġmom": 208,
      "Ġhad": 209,
      "Ġthey": 210,
      "st": 211,
      "ĠB": 212,
      "el": 213,
      "Ġfor": 214,
      "un": 215,
      "my": 216,
      "'s": 217,
      "ould": 218,
      "Ġli": 219,
      "The": 220,
      "Ġhapp": 221,
      "ent": 222,
      "ch": 223,
      "itt": 224,
      "Ġwant": 225,
      "her": 226,
      "Ġsh": 227,
      "out": 228,
      "Ġdo": 229,
      "Ġnot": 230,
      "end": 231,
      "ome": 232,
      "all": 233,
      "se": 234,
      "Ġvery": 235,
      "ound": 236,
      "ly": 237,
      "ime": 238,
      "ittle": 239,
      "Ġk": 240,
      "Ġtime": 241,
      "Ġwh": 242,
      "Ġlittle": 243,
      "Ġthere": 244,
      "Ġne": 245,
      "Ġis": 246,
      "Ġbig": 247,
      "ht": 248,
      "Ġhappy": 249,
      "al": 250,
      "ĠM": 251,
      "Ġre": 252,
      "Ġsm": 253,
      "riend": 254,
      "Ġfriend": 255,
      "ĠIt": 256,
      "Ġsaw": 257,
      "Ġbut": 258,
      ".\"": 259,
      "ra": 260,
      "Ġan": 261,
      "ĠĊ": 262,
      "Ġas": 263,
      "ry": 264,
      "One": 265,
      "ack": 266,
      "ide": 267,
      "ake": 268,
      "ved": 269,
      "'t": 270,
      "!\"": 271,
      "ug": 272,
      "ter": 273,
      "Ġlo": 274,
      "Ġloo": 275,
      "Once": 276,
      "Ġwere": 277,
      "ĠTim": 278,
      "Ġse": 279,
      "ore": 280,
      "Ġbo": 281,
      "Ġtoo": 282,
      "Ġhim": 283,
      "Ġgo": 284,
      "Ġare": 285,
      "ec": 286,
      "Ġupon": 287,
      "ill": 288,
      "irl": 289,
      "Ġwanted": 290,
      "Ġthem": 291,
      "ard": 292,
      "Ġj": 293,
      "Ġgirl": 294,
      "Ġout": 295,
      "Ġtheir": 296,
      "Ġat": 297,
      "ind": 298,
      "way": 299,
      "ur": 300,
      "fu": 301,
      "Ġdid": 302,
      "ĠA": 303,
      "Ġsp": 304,
      "Ġsmil": 305,
      "Ġcould": 306,
      "hen": 307,
      "Ġhave": 308,
      "ain": 309,
      "ĠBen": 310,
      "Ġwent": 311,
      "hed": 312,
      "Ġnam": 313,
      "Ġcan": 314,
      "art": 315,
      "rom": 316,
      "lp": 317,
      "ic": 318,
      "Ġex": 319,
      "round": 320,
      "Ġfriends": 321,
      "?\"": 322,
      "Ġhelp": 323,
      "ood": 324,
      "ful": 325,
      "Ġkn": 326,
      "ĠJ": 327,
      "Ġall": 328,
      "hing": 329,
      "ight": 330,
      "um": 331,
      "ark": 332,
      "Ġfun": 333,
      "one": 334,
      "Ġsay": 335,
      "Ġback": 336,
      "You": 337,
      "Ġnamed": 338,
      "are": 339,
      "Ġcl": 340,
      "ĠTom": 341,
      "Ġno": 342,
      "Ġle": 343,
      "Ġloved": 344,
      "op": 345,
      "elt": 346,
      "ĠTimmy": 347,
      "ĠOne": 348,
      "oug": 349,
      "Ġsc": 350,
      "Ġfelt": 351,
      "Ġtoy": 352,
      "Ġsmiled": 353,
      "Ġal": 354,
      "Ġasked": 355,
      "ick": 356,
      "side": 357,
      "Ġlike": 358,
      "Ġfe": 359,
      "Ġlooked": 360,
      "Ġsee": 361,
      "Ġman": 362,
      "ame": 363,
      "Ġbir": 364,
      "Ġro": 365,
      "get": 366,
      "Ġme": 367,
      "ĠW": 368,
      "Ġaround": 369,
      "Ġsome": 370,
      "ure": 371,
      "Ġbr": 372,
      "Ġboy": 373,
      "omet": 374,
      "Ġbird": 375,
      "ong": 376,
      "ice": 377,
      "Ġwould": 378,
      "as": 379,
      "Ġstart": 380,
      "dd": 381,
      "Ġwor": 382,
      "Ġag": 383,
      ",\"": 384,
      "Ġtre": 385,
      "gether": 386,
      "ings": 387,
      "ade": 388,
      "ag": 389,
      "Ġsomet": 390,
      "Ġmake": 391,
      "Ġfa": 392,
      "own": 393,
      "ĠBut": 394,
      "ĠYou": 395,
      "Ġwhat": 396,
      "king": 397,
      "Ġaway": 398,
      "Ġtogether": 399,
      "Ġsays": 400,
      "Ġran": 401,
      "oud": 402,
      "Ã¢": 403,
      "âĤ": 404,
      "âĤ¬": 405,
      "Ġstarted": 406,
      "Ġpark": 407,
      "ared": 408,
      "Ġmade": 409,
      "Ġco": 410,
      "if": 411,
      "ie": 412,
      "Ġsad": 413,
      "Ġput": 414,
      "Ġot": 415,
      "Ġcar": 416,
      "Ġnew": 417,
      "Ġsomething": 418,
      "ited": 419,
      "Ġother": 420,
      "Ġpr": 421,
      "ell": 422,
      "Ġfrom": 423,
      "Ġagain": 424,
      "ble": 425,
      "ook": 426,
      "Ġfl": 427,
      "Ġhug": 428,
      "Ġgood": 429,
      "Ġhome": 430,
      "Ġmu": 431,
      "Ġexc": 432,
      "Ġla": 433,
      "Ġwhen": 434,
      "ried": 435,
      "ĠL": 436,
      "Ġfound": 437,
      "Ġwho": 438,
      "ach": 439,
      "ep": 440,
      "ss": 441,
      "est": 442,
      "hat": 443,
      "pped": 444,
      "ought": 445,
      "Ġplaying": 446,
      "ue": 447,
      "Ġthen": 448,
      "Ġsw": 449,
      "Ġch": 450,
      "Ġdec": 451,
      "Ġwal": 452,
      "Ġget": 453,
      "ous": 454,
      "uck": 455,
      "pl": 456,
      "Ġthings": 457,
      "Ġbl": 458,
      "ally": 459,
      "Ġgot": 460,
      "ro": 461,
      "nn": 462,
      "Ġliked": 463,
      "ave": 464,
      "Ġdog": 465,
      "Ġexcited": 466,
      "ĠE": 467,
      "Ġcame": 468,
      "Ġyour": 469,
      "Ġevery": 470,
      "ax": 471,
      "Ġdecid": 472,
      "Ġbec": 473,
      "Ġdown": 474,
      "Ġdecided": 475,
      "Ġcare": 476,
      "Ġfind": 477,
      "Ġdad": 478,
      "ouse": 479,
      "ny": 480,
      "ust": 481,
      "ĠD": 482,
      "Ġv": 483,
      "ara": 484,
      "ist": 485,
      "Ġone": 486,
      "Ġfeel": 487,
      "Ġscared": 488,
      "They": 489,
      "Ġab": 490,
      "Ġthan": 491,
      "Ġta": 492,
      "ĠMom": 493,
      "Ġmy": 494,
      "Ġtree": 495,
      "Ġwill": 496,
      "us": 497,
      "udd": 498,
      "qu": 499,
      "Ġtoys": 500,
      "arn": 501,
      "ways": 502,
      "ers": 503,
      "our": 504,
      "ĠF": 505,
      "Ġdidn": 506,
      "Ġtook": 507,
      "Ġgra": 508,
      "nna": 509,
      "Ġball": 510,
      "Ġalways": 511,
      "Ġabout": 512,
      "Ġpo": 513,
      "ess": 514,
      "nder": 515,
      "Ġlook": 516,
      "Ġmommy": 517,
      "Ġthought": 518,
      "ite": 519,
      "ant": 520,
      "fe": 521,
      "Ġlot": 522,
      "Ġkne": 523,
      "Ġke": 524,
      "Ġoutside": 525,
      "ise": 526,
      "Ġmore": 527,
      "ap": 528,
      "ret": 529,
      "ged": 530,
      "Ġlearn": 531,
      "Ġknow": 532,
      "Ġho": 533,
      "ched": 534,
      "ened": 535,
      "Ġint": 536,
      "bb": 537,
      "Ġlaug": 538,
      "Ġcat": 539,
      "Ġsor": 540,
      "Ġold": 541,
      "ĠMax": 542,
      "Ġtake": 543,
      "eci": 544,
      "ĠSam": 545,
      "ia": 546,
      "fter": 547,
      "ive": 548,
      "Ġany": 549,
      "ma": 550,
      "Ġpe": 551,
      "Ġknew": 552,
      "Ġtr": 553,
      "Ġhow": 554,
      "udden": 555,
      "ecial": 556,
      "Ġspecial": 557,
      "Ġsl": 558,
      "au": 559,
      "Ġshow": 560,
      "Ġsorry": 561,
      "Ġhouse": 562,
      "uddenly": 563,
      "Ġmuch": 564,
      "Ġrun": 565,
      "and": 566,
      "But": 567,
      "ish": 568,
      "Ġsun": 569,
      "ank": 570,
      "Ġtold": 571,
      "ven": 572,
      "Ġtw": 573,
      "Ġop": 574,
      "Ġhand": 575,
      "Ġor": 576,
      "Ġmo": 577,
      "Ġsk": 578,
      "Ġinto": 579,
      "Ġplayed": 580,
      "ink": 581,
      "Ġwater": 582,
      "ty": 583,
      "Ġgave": 584,
      "Ġtried": 585,
      "Ġclo": 586,
      "Ġeat": 587,
      "Ġproud": 588,
      "other": 589,
      "Ġinside": 590,
      "ate": 591,
      "Ġif": 592,
      "Ġen": 593,
      "Ġroom": 594,
      "ĠWe": 595,
      "ause": 596,
      "ump": 597,
      "Ġover": 598,
      "Ġcouldn": 599,
      "Tom": 600,
      "dy": 601,
      "Ġnever": 602,
      "ob": 603,
      "ge": 604,
      "etter": 605,
      "Ġpick": 606,
      "Ġgre": 607,
      "Ġheard": 608,
      "ak": 609,
      "ion": 610,
      "Ġhugged": 611,
      "Ġstr": 612,
      "Ġpret": 613,
      "Ġbox": 614,
      "Ġexpl": 615,
      "Ġneed": 616,
      "Ġeach": 617,
      "Ġwat": 618,
      "ace": 619,
      "Ġthis": 620,
      "Ġbecause": 621,
      "ĠAnna": 622,
      "Ġbu": 623,
      "Ġjust": 624,
      "ĠSara": 625,
      "Mom": 626,
      "Ġmany": 627,
      "ĠEvery": 628,
      "oth": 629,
      "here": 630,
      "ile": 631,
      "Ġfo": 632,
      "Ġsmall": 633,
      "Ġnice": 634,
      "Ġlong": 635,
      "Ġcom": 636,
      "Ġqu": 637,
      "'m": 638,
      "sed": 639,
      "urt": 640,
      "iz": 641,
      "gry": 642,
      "imal": 643,
      "Ġanimal": 644,
      "uc": 645,
      "ving": 646,
      "by": 647,
      "Ġoff": 648,
      "ine": 649,
      "Ġlearned": 650,
      "Ġtry": 651,
      "Ġbear": 652,
      "Ġlove": 653,
      "Ġsn": 654,
      "ough": 655,
      "Ġbetter": 656,
      "ild": 657,
      "ort": 658,
      "sel": 659,
      "Ġflow": 660,
      "ft": 661,
      "Ġunt": 662,
      "ĠJack": 663,
      "ĠMia": 664,
      "Yes": 665,
      "Ġcall": 666,
      "Ġuntil": 667,
      "ĠAnd": 668,
      "em": 669,
      "Ġkind": 670,
      "ars": 671,
      "Ġcle": 672,
      "Th": 673,
      "ĠC": 674,
      "Ġbest": 675,
      "Ġdon": 676,
      "urn": 677,
      "Ġend": 678,
      "ull": 679,
      "Ġdre": 680,
      "Ġim": 681,
      "He": 682,
      "ady": 683,
      "Ġcareful": 684,
      "aut": 685,
      "Ġfi": 686,
      "ves": 687,
      "Ġgr": 688,
      "ĠJo": 689,
      "ĠHer": 690,
      "lly": 691,
      "Ġad": 692,
      "Ġthanked": 693,
      "ber": 694,
      "Ġlaughed": 695,
      "ĠSo": 696,
      "Ġsky": 697,
      "Ġeven": 698,
      "Ġbeaut": 699,
      "vent": 700,
      "Ġfast": 701,
      "Ġche": 702,
      "Ġjump": 703,
      "Ġte": 704,
      "Ġbra": 705,
      "urp": 706,
      "lew": 707,
      "oy": 708,
      "Ġby": 709,
      "iny": 710,
      "Ġhurt": 711,
      "Ġlist": 712,
      "pt": 713,
      "Ġgard": 714,
      "Ġgarden": 715,
      "ase": 716,
      "self": 717,
      "Ġloud": 718,
      "Ġstill": 719,
      "Ġgl": 720,
      "It": 721,
      "Ġbeauti": 722,
      "Ġlots": 723,
      "Ġbeautiful": 724,
      "ct": 725,
      "Ġanimals": 726,
      "ĠFrom": 727,
      "Ġcome": 728,
      "ies": 729,
      "Ġlived": 730,
      "Ġunder": 731,
      "Ġhard": 732,
      "Ġway": 733,
      "hes": 734,
      "rm": 735,
      "Ġlet": 736,
      "Ġwo": 737,
      "Ġfam": 738,
      "wn": 739,
      "ool": 740,
      "Tim": 741,
      "Åĵ": 742,
      "ĠHis": 743,
      "Ġcol": 744,
      "ock": 745,
      "be": 746,
      "ect": 747,
      "Ġcu": 748,
      "igh": 749,
      "Ġboth": 750,
      "ning": 751,
      "kay": 752,
      "Ġdan": 753,
      "Ġra": 754,
      "ĠThen": 755,
      "Ġsafe": 756,
      "ast": 757,
      "Ġits": 758,
      "Ġrem": 759,
      "Ġstay": 760,
      "Ġbrave": 761,
      "Ġflew": 762,
      "Ġbook": 763,
      "Ġfly": 764,
      "ane": 765,
      "Ġbad": 766,
      "Ġdoll": 767,
      "Ġshould": 768,
      "ucy": 769,
      "ĠÃ¢": 770,
      "Ġred": 771,
      "ree": 772,
      "Ġimp": 773,
      "Ġangry": 774,
      "ople": 775,
      "Ġstor": 776,
      "Ġcalled": 777,
      "Ġtwo": 778,
      "ished": 779,
      "Ġdra": 780,
      "When": 781,
      "Let": 782,
      "Ġpic": 783,
      "Ġclean": 784,
      "Ġfin": 785,
      "Ġwalked": 786,
      "age": 787,
      "dded": 788,
      "Ġshare": 789,
      "Ġfamily": 790,
      "urpr": 791,
      "Ġpeople": 792,
      "ip": 793,
      "xt": 794,
      "Ġsurpr": 795,
      "No": 796,
      "ĠP": 797,
      "Ġrock": 798,
      "ĠWhen": 799,
      "led": 800,
      "illy": 801,
      "Ben": 802,
      "Ġsoon": 803,
      "Ġpretty": 804,
      "Ġshiny": 805,
      "hn": 806,
      "fore": 807,
      "ummy": 808,
      "oon": 809,
      "Ġground": 810,
      "Ġkept": 811,
      "Ġfore": 812,
      "Ġgoing": 813,
      "Ġwind": 814,
      "Ġcon": 815,
      "Ġnow": 816,
      "Ġsto": 817,
      "ary": 818,
      "ised": 819,
      "Ġnoise": 820,
      "eet": 821,
      "Ġdoor": 822,
      "Ġkeep": 823,
      "ied": 824,
      "What": 825,
      "Ġnodded": 826,
      "ture": 827,
      "Ġfar": 828,
      "Ġopened": 829,
      "Ġexplore": 830,
      "Ġey": 831,
      "Ġadvent": 832,
      "Ġtruck": 833,
      "Ġcry": 834,
      "Ġturn": 835,
      "Ġcolor": 836,
      "Ġide": 837,
      "Ġbefore": 838,
      "Ġwhile": 839,
      "ff": 840,
      "imb": 841,
      "That": 842,
      "aybe": 843,
      "so": 844,
      "Ġclimb": 845,
      "Ġreal": 846,
      "Ġcre": 847,
      "thing": 848,
      "Ġfr": 849,
      "Ġalso": 850,
      "Ġbed": 851,
      "Ġpicked": 852,
      "Thank": 853,
      "les": 854,
      "Ġidea": 855,
      "hy": 856,
      "Ġpicture": 857,
      "Ġthr": 858,
      "Ġfeeling": 859,
      "Ġnext": 860,
      "ger": 861,
      "Ġwr": 862,
      "kes": 863,
      "Ġhas": 864,
      "ĠLucy": 865,
      "Ġun": 866,
      "uch": 867,
      "ĠG": 868,
      "Ġtow": 869,
      "Ġtra": 870,
      "TM": 871,
      "ious": 872,
      "joy": 873,
      "Ġwalking": 874,
      "Ġlisten": 875,
      "ting": 876,
      "Ġwait": 877,
      "iced": 878,
      "Ġsmile": 879,
      "Ġma": 880,
      "ember": 881,
      "Ġbeing": 882,
      "Ġjo": 883,
      "Ġadventure": 884,
      "Ġclos": 885,
      "Ġstopped": 886,
      "Ġslide": 887,
      "Ġeyes": 888,
      "Ġwalk": 889,
      "Ġafter": 890,
      "ted": 891,
      "Ġhands": 892,
      "ught": 893,
      "Ġblue": 894,
      "ac": 895,
      "Ġfood": 896,
      "Ġgreat": 897,
      "Ġrepl": 898,
      "Ġwatch": 899,
      "Ġdif": 900,
      "Ġflowers": 901,
      "ĠSue": 902,
      "Ġfish": 903,
      "Ġdel": 904,
      "Ġenjoy": 905,
      "Ġstrong": 906,
      "Ġremember": 907,
      "Ġthink": 908,
      "Ġlooking": 909,
      "She": 910,
      "Ġdis": 911,
      "ĠSuddenly": 912,
      "ĠSp": 913,
      "Ġask": 914,
      "Ġbre": 915,
      "Ġgive": 916,
      "able": 917,
      "Ġus": 918,
      "llow": 919,
      "ĠR": 920,
      "Ġvo": 921,
      "maz": 922,
      "Ġbro": 923,
      "Ġapp": 924,
      "ĠBob": 925,
      "Suddenly": 926,
      "Ġamaz": 927,
      "Ġnoticed": 928,
      "Ġokay": 929,
      "Ġever": 930,
      "Ġsound": 931,
      "ĠDad": 932,
      "Ġrain": 933,
      "irst": 934,
      "Ġtal": 935,
      "Ġwonder": 936,
      "Ġstick": 937,
      "Ġshout": 938,
      "Ġboat": 939,
      "ized": 940,
      "Ġreplied": 941,
      "Ġforest": 942,
      "Ġshowed": 943,
      "Ġnear": 944,
      "co": 945,
      "Ġquick": 946,
      "Ġmean": 947,
      "Ġown": 948,
      "Ġright": 949,
      "Ġuse": 950,
      "Ġac": 951,
      "Ġwork": 952,
      "Ġfollow": 953,
      "lease": 954,
      "We": 955,
      "Ġhigh": 956,
      "Ġhead": 957,
      "gan": 958,
      "Ġbecame": 959,
      "Look": 960,
      "bbit": 961,
      "bye": 962,
      "Ġimport": 963,
      "Ġblock": 964,
      "ĠN": 965,
      "Ġyell": 966,
      "Ġeveryone": 967,
      "Ġour": 968,
      "Ġplace": 969,
      "Ġmor": 970,
      "Ġam": 971,
      "ndma": 972,
      "Ġimportant": 973,
      "ath": 974,
      "day": 975,
      "Ġcuri": 976,
      "fere": 977,
      "ange": 978,
      "Ġde": 979,
      "ila": 980,
      "Ġdiffere": 981,
      "Ġwhere": 982,
      "Ġrabbit": 983,
      "bbed": 984,
      "Ġdoes": 985,
      "Ġwatched": 986,
      "Ġhop": 987,
      "So": 988,
      "Ġbright": 989,
      "aught": 990,
      "Ġmag": 991,
      "Ġface": 992,
      "Ġcloser": 993,
      "Ġar": 994,
      "ĠSpot": 995,
      "Ġcurious": 996,
      "Ġpain": 997,
      "ered": 998,
      "more": 999,
      "Ġanymore": 1000,
      "Sara": 1001,
      "Ġbeen": 1002,
      "Ġye": 1003,
      "Ġquickly": 1004,
      "ng": 1005,
      "Ġopen": 1006,
      "leep": 1007,
      "Ġvoice": 1008,
      "Ġcake": 1009,
      "Ġgoodbye": 1010,
      "Ġstore": 1011,
      "Ġcook": 1012,
      "Ġdress": 1013,
      "itc": 1014,
      "Ġdifferent": 1015,
      "Ġwarm": 1016,
      "Her": 1017,
      "Ġforg": 1018,
      "Ġtell": 1019,
      "Ġbel": 1020,
      "Can": 1021,
      "Ġfire": 1022,
      "Ġsure": 1023,
      "Ġcou": 1024,
      "ired": 1025,
      "Anna": 1026,
      "Ġsees": 1027,
      "Ġstory": 1028,
      "ached": 1029,
      "uff": 1030,
      "Ġsweet": 1031,
      "Ġchild": 1032,
      "Ġfirst": 1033,
      "Ġfav": 1034,
      "ĠTh": 1035,
      "Ġhelped": 1036,
      "Ġfell": 1037,
      "ĠMommy": 1038,
      "Ġpull": 1039,
      "Ġbutter": 1040,
      "imes": 1041,
      "Ġdraw": 1042,
      "Ġnight": 1043,
      "Ġz": 1044,
      "Ġper": 1045,
      "Ġpu": 1046,
      "Ġbus": 1047,
      "isy": 1048,
      "Ġcont": 1049,
      "Ġbit": 1050,
      "Ġhere": 1051,
      "Ġthree": 1052,
      "After": 1053,
      "Ġlea": 1054,
      "Ġbrother": 1055,
      "Ġru": 1056,
      "Ġkitc": 1057,
      "Ġjumped": 1058,
      "Ġkitchen": 1059,
      "ins": 1060,
      "Jo": 1061,
      "Ġbeh": 1062,
      "Ġkid": 1063,
      "Ġsing": 1064,
      "Ġonly": 1065,
      "Ġhappened": 1066,
      "ĠDo": 1067,
      "ner": 1068,
      "Ġstop": 1069,
      "Ġflo": 1070,
      "Ġgame": 1071,
      "Ġbirds": 1072,
      "ppy": 1073,
      "iss": 1074,
      "Ġsoft": 1075,
      "Ġprin": 1076,
      "akes": 1077,
      "zy": 1078,
      "Ġglad": 1079,
      "Ġcra": 1080,
      "'re": 1081,
      "ĠJane": 1082,
      "Ġmess": 1083,
      "ĠLet": 1084,
      "Ġmon": 1085,
      "Ġdr": 1086,
      "unny": 1087,
      "Ġsand": 1088,
      "Ġcr": 1089,
      "Ġworld": 1090,
      "Ġgrass": 1091,
      "Ġblocks": 1092,
      "Ġreached": 1093,
      "Ġhat": 1094,
      "Ġlady": 1095,
      "Ġgrabbed": 1096,
      "Ġcut": 1097,
      "Wow": 1098,
      "nts": 1099,
      "ĠAs": 1100,
      "Ġhaving": 1101,
      "ater": 1102,
      "Ġate": 1103,
      "Ġshouted": 1104,
      "Ġrest": 1105,
      "olly": 1106,
      "Ġyummy": 1107,
      "Ġthrough": 1108,
      "Ġfro": 1109,
      "Ġready": 1110,
      "Ġname": 1111,
      "Ġrealized": 1112,
      "Ġfavor": 1113,
      "Ġdone": 1114,
      "Ġcried": 1115,
      "Ġflower": 1116,
      "Ġfavorite": 1117,
      "As": 1118,
      "ĠCan": 1119,
      "ass": 1120,
      "Ġsqu": 1121,
      "Ġthing": 1122,
      "Ġworry": 1123,
      "Ġtired": 1124,
      "Ġpare": 1125,
      "Ġpap": 1126,
      "Ġreally": 1127,
      "Ġmagic": 1128,
      "Ġtri": 1129,
      "Ġpond": 1130,
      "Ġless": 1131,
      "where": 1132,
      "Ġunderst": 1133,
      "air": 1134,
      "Ġgreen": 1135,
      "ient": 1136,
      "ĠEveryone": 1137,
      "Ġwaved": 1138,
      "Ġmum": 1139,
      "Ġbegan": 1140,
      "Ġfunny": 1141,
      "Ġtast": 1142,
      "Ġpus": 1143,
      "ather": 1144,
      "eddy": 1145,
      "Ġlooks": 1146,
      "ards": 1147,
      "Ġbutterf": 1148,
      "Mommy": 1149,
      "ken": 1150,
      "aisy": 1151,
      "mer": 1152,
      "Ġcatch": 1153,
      "Ġseen": 1154,
      "Ġkids": 1155,
      "th": 1156,
      "Ġanother": 1157,
      "Ġpretend": 1158,
      "Ġdin": 1159,
      "Ġfix": 1160,
      "Ġfill": 1161,
      "fully": 1162,
      "sh": 1163,
      "Ġhimself": 1164,
      "Ġtouch": 1165,
      "Ġcoming": 1166,
      "Ġmaking": 1167,
      "Ġswing": 1168,
      "Ġhole": 1169,
      "Ġread": 1170,
      "Ġbag": 1171,
      "ĠJohn": 1172,
      "ĠThat": 1173,
      "Don": 1174,
      "ĠSarah": 1175,
      "Ġpart": 1176,
      "ign": 1177,
      "Ġcool": 1178,
      "Ġhair": 1179,
      "Timmy": 1180,
      "ster": 1181,
      "Ġused": 1182,
      "Ġbunny": 1183,
      "Ġswim": 1184,
      "Ġbehind": 1185,
      "bo": 1186,
      "Ġyellow": 1187,
      "Ġfrog": 1188,
      "Ġsmell": 1189,
      "Ġprom": 1190,
      "ĠJoe": 1191,
      "Ġparents": 1192,
      "Ġcold": 1193,
      "Ġba": 1194,
      "Ġdark": 1195,
      "ely": 1196,
      "ued": 1197,
      "Ġdro": 1198,
      "ation": 1199,
      "Ġdelic": 1200,
      "Ġsurprise": 1201,
      "Ġlight": 1202,
      "Ġrunning": 1203,
      "Ġset": 1204,
      "Ġtrees": 1205,
      "ike": 1206,
      "Ġwished": 1207,
      "Ġste": 1208,
      "Ġhopped": 1209,
      "Ġgi": 1210,
      "Ġsleep": 1211,
      "Ġwood": 1212,
      "Ġfull": 1213,
      "Ġhappily": 1214,
      "oney": 1215,
      "Ġwhy": 1216,
      "Ġlikes": 1217,
      "Ġhold": 1218,
      "Ġworked": 1219,
      "Ġcars": 1220,
      "Ġlion": 1221,
      "Ġremembered": 1222,
      "Ġlost": 1223,
      "Ġlaugh": 1224,
      "Ġpaper": 1225,
      "Ġsho": 1226,
      "ĠBenny": 1227,
      "Ġslow": 1228,
      "Ġdri": 1229,
      "Ġmouse": 1230,
      "Ġbuy": 1231,
      "Ġperf": 1232,
      "Ġfloor": 1233,
      "Hell": 1234,
      "ul": 1235,
      "Hello": 1236,
      "Ġdream": 1237,
      "ens": 1238,
      "Ġduck": 1239,
      "Ġbutterfly": 1240,
      "Ġbow": 1241,
      "Ġtop": 1242,
      "Sam": 1243,
      "Ġbuild": 1244,
      "Ġsnow": 1245,
      "Ġtall": 1246,
      "Ġsat": 1247,
      "Ġneeded": 1248,
      "Ġenjoyed": 1249,
      "Ġlesson": 1250,
      "Ġmove": 1251,
      "Ġpre": 1252,
      "Ġyears": 1253,
      "Ġleft": 1254,
      "Ġhill": 1255,
      "Ġhear": 1256,
      "Ġwear": 1257,
      "Ġthank": 1258,
      "Ġhid": 1259,
      "Ġcarefully": 1260,
      "Ġwindow": 1261,
      "Ġdoing": 1262,
      "\".": 1263,
      "rel": 1264,
      "ĠAfter": 1265,
      "Ġanything": 1266,
      "Ġbug": 1267,
      "andy": 1268,
      "Ġair": 1269,
      "uffy": 1270,
      "Ġheld": 1271,
      "iver": 1272,
      "Ġfollowed": 1273,
      "cess": 1274,
      "Ġhun": 1275,
      "Ġspot": 1276,
      "Ġcontin": 1277,
      "Ġfair": 1278,
      "Ġherself": 1279,
      "Ġfinished": 1280,
      "Ġwrong": 1281,
      "orn": 1282,
      "ren": 1283,
      "asure": 1284,
      "Ġtable": 1285,
      "Ġfriendly": 1286,
      "Ġice": 1287,
      "Ġplease": 1288,
      "John": 1289,
      "Ġcast": 1290,
      "ĠIn": 1291,
      "ĠDaisy": 1292,
      "reed": 1293,
      "Ġbooks": 1294,
      "Ġsurprised": 1295,
      "Ġ-": 1296,
      "Ġarri": 1297,
      "TMs": 1298,
      "ds": 1299,
      "ined": 1300,
      "inally": 1301,
      "ream": 1302,
      "gon": 1303,
      "Ġdir": 1304,
      "ĠSally": 1305,
      "Ġgent": 1306,
      "ash": 1307,
      "ĠLila": 1308,
      "ield": 1309,
      "sp": 1310,
      "Ġsong": 1311,
      "Ġunderstand": 1312,
      "av": 1313,
      "uit": 1314,
      "Ġgrandma": 1315,
      "Ġdelicious": 1316,
      "ĠK": 1317,
      "Ġwonderful": 1318,
      "Ġwants": 1319,
      "Ġcontinued": 1320,
      "ross": 1321,
      "Ġtight": 1322,
      "Ġmight": 1323,
      "Ġarm": 1324,
      "Ġhot": 1325,
      "Ġcolors": 1326,
      "Ġmus": 1327,
      "OK": 1328,
      "Ġchildren": 1329,
      "Ġarrived": 1330,
      "Ġdinner": 1331,
      "Ġmakes": 1332,
      "From": 1333,
      "Ġtail": 1334,
      "Ġclose": 1335,
      "Ġgone": 1336,
      "Ġel": 1337,
      "ĠNow": 1338,
      "Ġleaves": 1339,
      "Then": 1340,
      "Ġmat": 1341,
      "Ġrel": 1342,
      "Ġwall": 1343,
      "Ġcreat": 1344,
      "Ġforgot": 1345,
      "Ġfilled": 1346,
      "room": 1347,
      "Ġyes": 1348,
      "Ġscary": 1349,
      "Ġbroken": 1350,
      "Ġsomeone": 1351,
      "Ġpoin": 1352,
      "Jack": 1353,
      "Ġmoment": 1354,
      "ĠEm": 1355,
      "Ġdanc": 1356,
      "ĠThere": 1357,
      "icy": 1358,
      "This": 1359,
      "ey": 1360,
      "Ġballoon": 1361,
      "Ġcount": 1362,
      "'ll": 1363,
      "Ġpat": 1364,
      "Ġvis": 1365,
      "Ġpictures": 1366,
      "ctor": 1367,
      "Ġmet": 1368,
      "man": 1369,
      "Ġable": 1370,
      "Ġwet": 1371,
      "Ġagreed": 1372,
      "Ġothers": 1373,
      "ask": 1374,
      "Ġfall": 1375,
      "Ġelse": 1376,
      "Ġcookies": 1377,
      "Ġcastle": 1378,
      "Ġmother": 1379,
      "ĠMaybe": 1380,
      "ons": 1381,
      "Ġsmiles": 1382,
      "Ġbreak": 1383,
      "lf": 1384,
      "Ġwhite": 1385,
      "ĠBilly": 1386,
      "Ġgetting": 1387,
      "Ġhungry": 1388,
      "Ġpink": 1389,
      "oup": 1390,
      "Ġenough": 1391,
      "Ġmorning": 1392,
      "Ġdaddy": 1393,
      "Ġclot": 1394,
      "His": 1395,
      "ich": 1396,
      "ĠThis": 1397,
      "row": 1398,
      "Ġturned": 1399,
      "Ġtalk": 1400,
      "Ġtrying": 1401,
      "Ġamazing": 1402,
      "Ġmusic": 1403,
      "Ġsail": 1404,
      "Ġclothes": 1405,
      "Ġmar": 1406,
      "ĠWhat": 1407,
      "Ġclimbed": 1408,
      "lc": 1409,
      "red": 1410,
      "ĠFl": 1411,
      "Ġfew": 1412,
      "Ġroll": 1413,
      "Ġsquir": 1414,
      "Ġbrought": 1415,
      "rot": 1416,
      "amp": 1417,
      "Ġlistened": 1418,
      "wl": 1419,
      "Ġspl": 1420,
      "Ġperfect": 1421,
      "Ġfinally": 1422,
      "At": 1423,
      "que": 1424,
      "oring": 1425,
      "Ġsometimes": 1426,
      "key": 1427,
      "Ġpuppy": 1428,
      "app": 1429,
      "Ġsilly": 1430,
      "Ġpet": 1431,
      "Ġsquirrel": 1432,
      "Maybe": 1433,
      "Ġbeach": 1434,
      "ries": 1435,
      "ĠJen": 1436,
      "Ġpi": 1437,
      "Ġju": 1438,
      "Ġasks": 1439,
      "oom": 1440,
      "Ġfight": 1441,
      "ance": 1442,
      "Oh": 1443,
      "Ġwaited": 1444,
      "Ġeverything": 1445,
      "apped": 1446,
      "Ġteddy": 1447,
      "Ġride": 1448,
      "ucky": 1449,
      "Ġpol": 1450,
      "ister": 1451,
      "Ġalone": 1452,
      "ĠGra": 1453,
      "gg": 1454,
      "Ġve": 1455,
      "Ġhide": 1456,
      "Ġcomp": 1457,
      "zz": 1458,
      "Ġstayed": 1459,
      "Ġgrow": 1460,
      "ower": 1461,
      "Ġwasn": 1462,
      "der": 1463,
      "Ġdeep": 1464,
      "Ġwoods": 1465,
      "ated": 1466,
      "ama": 1467,
      "Ġdanger": 1468,
      "Ġstrange": 1469,
      "Ġamazed": 1470,
      "Ġflying": 1471,
      "Ġfox": 1472,
      "os": 1473,
      "ope": 1474,
      "ott": 1475,
      "Ġsit": 1476,
      "Ġlake": 1477,
      "Ġtowards": 1478,
      "Ġvisit": 1479,
      "anc": 1480,
      "Ġsear": 1481,
      "rew": 1482,
      "Ġbaby": 1483,
      "Ġpulled": 1484,
      "ence": 1485,
      "Ġspark": 1486,
      "Ġcloud": 1487,
      "eter": 1488,
      "Ġtrain": 1489,
      "Ġpa": 1490,
      "ze": 1491,
      "Ġpen": 1492,
      "Ġcream": 1493,
      "Ġjoy": 1494,
      "ph": 1495,
      "Ġmoral": 1496,
      "ix": 1497,
      "igg": 1498,
      "avy": 1499,
      "ever": 1500,
      "me": 1501,
      "Ġbike": 1502,
      "up": 1503,
      "thy": 1504,
      "ises": 1505,
      "ssed": 1506,
      "Max": 1507,
      "Ġdoctor": 1508,
      "Ġjob": 1509,
      "ugg": 1510,
      "Ġthinks": 1511,
      "Okay": 1512,
      "Ġsister": 1513,
      "Ġdance": 1514,
      "Ġdragon": 1515,
      "ames": 1516,
      "Ġbigger": 1517,
      "outh": 1518,
      "ĠTommy": 1519,
      "Ġcup": 1520,
      "med": 1521,
      "ang": 1522,
      "Ġtreasure": 1523,
      "Ġliving": 1524,
      "Ġshar": 1525,
      "Ġparty": 1526,
      "unch": 1527,
      "Ġpaint": 1528,
      "Ġpromised": 1529,
      "Ġmouth": 1530,
      "Ġleave": 1531,
      "Ġwon": 1532,
      "cket": 1533,
      "Ġworried": 1534,
      "Ġruns": 1535,
      "Ġgrate": 1536,
      "Ġfield": 1537,
      "Ġland": 1538,
      "Ġbott": 1539,
      "Ġshared": 1540,
      "Ġcandy": 1541,
      "Ġside": 1542,
      "Ġgu": 1543,
      "Ġdolls": 1544,
      "Ġgrateful": 1545,
      "Ġblank": 1546,
      "ĠAmy": 1547,
      "Ġprincess": 1548,
      "Ġwelc": 1549,
      "ained": 1550,
      "Ġblanket": 1551,
      "Ġem": 1552,
      "Ġmoney": 1553,
      "Ġhelping": 1554,
      "Ġfarmer": 1555,
      "Ġgif": 1556,
      "Ġslowly": 1557,
      "Ġblack": 1558,
      "Ġtower": 1559,
      "orm": 1560,
      "Ġeverywhere": 1561,
      "Ġjoin": 1562,
      "Ġpot": 1563,
      "Ġdangerous": 1564,
      "ire": 1565,
      "Ġfur": 1566,
      "Ġtreat": 1567,
      "Ġcarrot": 1568,
      "Ġbelie": 1569,
      "ĠMolly": 1570,
      "eces": 1571,
      "Ġheavy": 1572,
      "Ġowner": 1573,
      "leph": 1574,
      "Ġfaster": 1575,
      "Ġcrying": 1576,
      "ipp": 1577,
      "ĠAll": 1578,
      "Ġpieces": 1579,
      "cle": 1580,
      "Ġbowl": 1581,
      "ĠFluffy": 1582,
      "Ġtwins": 1583,
      "Ġatt": 1584,
      "Ġreach": 1585,
      "Ġmagical": 1586,
      "iet": 1587,
      "ol": 1588,
      "Ġmost": 1589,
      "ually": 1590,
      "Hi": 1591,
      "Ġsign": 1592,
      "ĠTo": 1593,
      "set": 1594,
      "immy": 1595,
      "Why": 1596,
      "bble": 1597,
      "ipped": 1598,
      "sw": 1599,
      "Ġsec": 1600,
      "fort": 1601,
      "Ġcolorful": 1602,
      "Ġcho": 1603,
      "Ġstepped": 1604,
      "Sure": 1605,
      "ling": 1606,
      "ĠJill": 1607,
      "Ġansw": 1608,
      "Ġmonkey": 1609,
      "Ġdirty": 1610,
      "Ġsmart": 1611,
      "ee": 1612,
      "Ġmix": 1613,
      "Ġclosed": 1614,
      "ming": 1615,
      "less": 1616,
      "Ġquiet": 1617,
      "Ġplan": 1618,
      "Ġscream": 1619,
      "ased": 1620,
      "Ġpro": 1621,
      "Ġsuch": 1622,
      "Ġacc": 1623,
      "Ġhig": 1624,
      "ident": 1625,
      "umb": 1626,
      "Ġwords": 1627,
      "Ġsnack": 1628,
      "Ġbroke": 1629,
      "ear": 1630,
      "Ġpie": 1631,
      "Ġshap": 1632,
      "Ġacross": 1633,
      "Ġbuck": 1634,
      "Ġbath": 1635,
      "Ġdisapp": 1636,
      "Ġhoped": 1637,
      "chool": 1638,
      "Ġbar": 1639,
      "cked": 1640,
      "weet": 1641,
      "Ġplant": 1642,
      "Ġcray": 1643,
      "Ġheal": 1644,
      "de": 1645,
      "Ġstuck": 1646,
      "Ġheart": 1647,
      "Ġneigh": 1648,
      "Ġeating": 1649,
      "Ġthrew": 1650,
      "ored": 1651,
      "Ġschool": 1652,
      "Ġyard": 1653,
      "Ġmonster": 1654,
      "Ġlon": 1655,
      "Ġteac": 1656,
      "Ġnap": 1657,
      "Ġmust": 1658,
      "Ġwin": 1659,
      "Ġsecret": 1660,
      "Ġneighb": 1661,
      "Ġsame": 1662,
      "Ġfeels": 1663,
      "Ġbrown": 1664,
      "Ġcour": 1665,
      "Ġriver": 1666,
      "Mia": 1667,
      "Ġlonely": 1668,
      "Ġrace": 1669,
      "ract": 1670,
      "Ġje": 1671,
      "br": 1672,
      "Ġwithout": 1673,
      "iting": 1674,
      "Ġhigher": 1675,
      "Ġthrow": 1676,
      "Ġspr": 1677,
      "Ġpushed": 1678,
      "Ġbee": 1679,
      "Ġshoes": 1680,
      "Ġtown": 1681,
      "Ġcourse": 1682,
      "Ġbite": 1683,
      "Ġbutt": 1684,
      "Ġnoises": 1685,
      "ts": 1686,
      "Ġcoll": 1687,
      "Ġwelcome": 1688,
      "eared": 1689,
      "Ġclapped": 1690,
      "Ġswings": 1691,
      "Ġgentle": 1692,
      "Ġtoday": 1693,
      "ney": 1694,
      "Ġfruit": 1695,
      "TMt": 1696,
      "Ġbelieve": 1697,
      "Lila": 1698,
      "Ġhit": 1699,
      "Ġowl": 1700,
      "orrow": 1701,
      "Ġstand": 1702,
      "Ġteacher": 1703,
      "Ġce": 1704,
      "ek": 1705,
      "bow": 1706,
      "Ġsea": 1707,
      "Ġaccident": 1708,
      "Ġgames": 1709,
      "Ġfree": 1710,
      "Ġlunch": 1711,
      "Ġwell": 1712,
      "Ġcheered": 1713,
      "Ġwings": 1714,
      "Ġca": 1715,
      "Ġsang": 1716,
      "ĠMr": 1717,
      "ier": 1718,
      "Ġband": 1719,
      "Ġbring": 1720,
      "Ġdry": 1721,
      "Ġsmo": 1722,
      "Ġrocks": 1723,
      "Ġdrove": 1724,
      "oun": 1725,
      "Ġfairy": 1726,
      "ĠEmma": 1727,
      "Ġsoup": 1728,
      "Ġleg": 1729,
      "Ġlonger": 1730,
      "ventually": 1731,
      "Ġdropped": 1732,
      "asket": 1733,
      "Ġpack": 1734,
      "Ġshop": 1735,
      "Ġpocket": 1736,
      "Ġapple": 1737,
      "lephant": 1738,
      "Ġjour": 1739,
      "Ġhugs": 1740,
      "Ġrainbow": 1741,
      "Ġpers": 1742,
      "Ġupset": 1743,
      "Ġexplained": 1744,
      "Ġben": 1745,
      "Ġneck": 1746,
      "Ġorange": 1747,
      "Finally": 1748,
      "ead": 1749,
      "Ġmin": 1750,
      "Ġcaught": 1751,
      "Ġinst": 1752,
      "ord": 1753,
      "vel": 1754,
      "ĠDaddy": 1755,
      "Ġbasket": 1756,
      "ible": 1757,
      "Ġpig": 1758,
      "Ġhappen": 1759,
      "Ġspoon": 1760,
      "Ġswam": 1761,
      "Ġelephant": 1762,
      "Ġforget": 1763,
      "Ġresp": 1764,
      "ment": 1765,
      "Ġsu": 1766,
      "itting": 1767,
      "Ġadventures": 1768,
      "issed": 1769,
      "idge": 1770,
      "Ġnaught": 1771,
      "Ġmoved": 1772,
      "bby": 1773,
      "Ġstre": 1774,
      "Ġkite": 1775,
      "Ġwouldn": 1776,
      "Ġbucket": 1777,
      "Ġturns": 1778,
      "cks": 1779,
      "fused": 1780,
      "Ġnose": 1781,
      "Ġalong": 1782,
      "ĠTweet": 1783,
      "Ġplac": 1784,
      "Ġchair": 1785,
      "Ġnaughty": 1786,
      "ush": 1787,
      "Ġwhe": 1788,
      "itty": 1789,
      "Ġexploring": 1790,
      "hone": 1791,
      "Ġseemed": 1792,
      "Ġmine": 1793,
      "ount": 1794,
      "Do": 1795,
      "Ġtom": 1796,
      "Ġfence": 1797,
      "Ġdes": 1798,
      "Ġpast": 1799,
      "anch": 1800,
      "ors": 1801,
      "Ġbranch": 1802,
      "Ġbelong": 1803,
      "Ġsuddenly": 1804,
      "ocked": 1805,
      "ĠGrandma": 1806,
      "Ġwish": 1807,
      "ĠThank": 1808,
      "Ġjuice": 1809,
      "ho": 1810,
      "yard": 1811,
      "Ġcave": 1812,
      "Ġstars": 1813,
      "Ġbat": 1814,
      "ung": 1815,
      "Ġbackyard": 1816,
      "Ġsick": 1817,
      "Ġlate": 1818,
      "Ġsinging": 1819,
      "Ġmiss": 1820,
      "Ġexp": 1821,
      "Ġpres": 1822,
      "ĠCome": 1823,
      "Ġyoung": 1824,
      "Ġob": 1825,
      "Ġshook": 1826,
      "ittens": 1827,
      "sy": 1828,
      "Ġdist": 1829,
      "Ġwoke": 1830,
      "Ġes": 1831,
      "Ġwise": 1832,
      "Ġtaking": 1833,
      "Ġtrou": 1834,
      "Ġtakes": 1835,
      "llo": 1836,
      "Ġcomes": 1837,
      "Ġnearby": 1838,
      "Ġcarry": 1839,
      "Ġsounds": 1840,
      "Ġwondered": 1841,
      "Ġaf": 1842,
      "col": 1843,
      "ail": 1844,
      "Ġthough": 1845,
      "Ġbusy": 1846,
      "Ġarms": 1847,
      "Ġwar": 1848,
      "Ġlaughing": 1849,
      "Ġmail": 1850,
      "ped": 1851,
      "Ġ3": 1852,
      "Ġdrink": 1853,
      "Ġnest": 1854,
      "Ġmark": 1855,
      "Ġstu": 1856,
      "Bob": 1857,
      "ose": 1858,
      "Ġtiny": 1859,
      "Ġpurp": 1860,
      "vered": 1861,
      "Ġgift": 1862,
      "Ġpresent": 1863,
      "Ġsunny": 1864,
      "Ġbench": 1865,
      "Later": 1866,
      "Ġmil": 1867,
      "ions": 1868,
      "Ġcard": 1869,
      "Ġmad": 1870,
      "Ġstar": 1871,
      "Ġinv": 1872,
      "Ġdriver": 1873,
      "ese": 1874,
      "ces": 1875,
      "Ġboun": 1876,
      "ountain": 1877,
      "Ġsitting": 1878,
      "Ġgigg": 1879,
      "raid": 1880,
      "Ġcute": 1881,
      "Ġrelie": 1882,
      "ward": 1883,
      "Ġmist": 1884,
      "aughter": 1885,
      "Ġyear": 1886,
      "Ġstories": 1887,
      "Ġafraid": 1888,
      "Of": 1889,
      "itten": 1890,
      "ball": 1891,
      "gged": 1892,
      "Ġpower": 1893,
      "Ġjar": 1894,
      "Ġcozy": 1895,
      "pe": 1896,
      "Ġround": 1897,
      "Ġwhist": 1898,
      "Ġcolour": 1899,
      "Ġdanced": 1900,
      "Ġpatient": 1901,
      "Ġpurple": 1902,
      "ĠMary": 1903,
      "Ġkey": 1904,
      "Ġsnowman": 1905,
      "uched": 1906,
      "Ġtouched": 1907,
      "ining": 1908,
      "ĠInside": 1909,
      "Ġhello": 1910,
      "pping": 1911,
      "Ġcreature": 1912,
      "let": 1913,
      "shine": 1914,
      "Ġpiece": 1915,
      "Ġeas": 1916,
      "Ġlift": 1917,
      "board": 1918,
      "Ġsunshine": 1919,
      "Ġshapes": 1920,
      "Ġmilk": 1921,
      "Ġletter": 1922,
      "Ġdaughter": 1923,
      "thday": 1924,
      "rest": 1925,
      "Ġcir": 1926,
      "Ġpudd": 1927,
      "Ġdays": 1928,
      "Ġnothing": 1929,
      "Ġexciting": 1930,
      "Hey": 1931,
      "Ġswimming": 1932,
      "Ġbottle": 1933,
      "Ġaccidentally": 1934,
      "to": 1935,
      "eth": 1936,
      "Ġwra": 1937,
      "Ġegg": 1938,
      "Ġwatching": 1939,
      "Ġlife": 1940,
      "Ġbought": 1941,
      "Ġdisco": 1942,
      "Ġpath": 1943,
      "Ġhope": 1944,
      "Ġholding": 1945,
      "unt": 1946,
      "Ġinc": 1947,
      "Ġking": 1948,
      "ĠFinally": 1949,
      "erest": 1950,
      "Ġbush": 1951,
      "Ġgives": 1952,
      "And": 1953,
      "Good": 1954,
      "Ġfarm": 1955,
      "Ġinstead": 1956,
      "Lucy": 1957,
      "Ġinterest": 1958,
      "Ġrelieved": 1959,
      "pa": 1960,
      "Ġbirthday": 1961,
      "Ġgrand": 1962,
      "ize": 1963,
      "Ġear": 1964,
      "alm": 1965,
      "Ġjourney": 1966,
      "ĠO": 1967,
      "Ġfing": 1968,
      "Ġgrab": 1969,
      "Ġstreet": 1970,
      "og": 1971,
      "ness": 1972,
      "Ġimag": 1973,
      "Ġfit": 1974,
      "adow": 1975,
      "Ġcrayons": 1976,
      "ity": 1977,
      "epend": 1978,
      "Ġanyone": 1979,
      "read": 1980,
      "Ġpract": 1981,
      "Ġsmelled": 1982,
      "Ġsharp": 1983,
      "Ġrespect": 1984,
      "Ġroad": 1985,
      "Ġvill": 1986,
      "Ġpeace": 1987,
      "Ġtasty": 1988,
      "fish": 1989,
      "Ġlucky": 1990,
      "Ġcomfort": 1991,
      "Ġres": 1992,
      "Ġcheese": 1993,
      "els": 1994,
      "Ġkick": 1995,
      "Ġspo": 1996,
      "Ġsmiling": 1997,
      "ĠMama": 1998,
      "Ġret": 1999,
      "Ġforever": 2000,
      "Ġwrite": 2001,
      "oose": 2002,
      "Ġsearched": 2003,
      "Ġact": 2004,
      "Ġsur": 2005,
      "ĠSomet": 2006,
      "irt": 2007,
      "Ġpointed": 2008,
      "Ġonto": 2009,
      "Ġfeather": 2010,
      "Ġcor": 2011,
      "amed": 2012,
      "Ġloves": 2013,
      "Ġhuge": 2014,
      "Ġknee": 2015,
      "Ġrolled": 2016,
      "Ġtun": 2017,
      "Ġfoot": 2018,
      "ĠSoon": 2019,
      "Ġtalked": 2020,
      "Come": 2021,
      "aur": 2022,
      "ert": 2023,
      "Ġplane": 2024,
      "ĠJimmy": 2025,
      "Ġpuzz": 2026,
      "Ġcoin": 2027,
      "ove": 2028,
      "Ġpill": 2029,
      "Ġhealthy": 2030,
      "Ġreturn": 2031,
      "Ġkiss": 2032,
      "blem": 2033,
      "Ġlater": 2034,
      "Ġadm": 2035,
      "Ġpromise": 2036,
      "Ġproblem": 2037,
      "la": 2038,
      "Ġorgan": 2039,
      "Ġcouch": 2040,
      "Ġmach": 2041,
      "ont": 2042,
      "Ġcollect": 2043,
      "Ġperson": 2044,
      "Ġwave": 2045,
      "Ġap": 2046,
      "Ġsack": 2047,
      "itch": 2048,
      "Ġputs": 2049,
      "ĠSammy": 2050,
      "Ġapples": 2051,
      "Ġtasted": 2052,
      "Ġteach": 2053,
      "Ġfront": 2054,
      "ĠRe": 2055,
      "Ġzoom": 2056,
      "Ġgather": 2057,
      "ĠMittens": 2058,
      "Ġclouds": 2059,
      "Ġeag": 2060,
      "Ġinteresting": 2061,
      "ten": 2062,
      "Ġwild": 2063,
      "Ġhor": 2064,
      "Ġrope": 2065,
      "Ġhoney": 2066,
      "Ġstorm": 2067,
      "Ġgently": 2068,
      "Ġcow": 2069,
      "Ġbread": 2070,
      "Ġrob": 2071,
      "Ġcoat": 2072,
      "Ġwhole": 2073,
      "Ġmyster": 2074,
      "Ġsuc": 2075,
      "Ġprot": 2076,
      "Ġsandw": 2077,
      "Ġpush": 2078,
      "Ġpass": 2079,
      "cean": 2080,
      "Ġash": 2081,
      "ĠJenny": 2082,
      "Ġbutton": 2083,
      "Ġplaces": 2084,
      "ced": 2085,
      "Ġocean": 2086,
      "ife": 2087,
      "Ġsaf": 2088,
      "Ġasleep": 2089,
      "Ġhelpful": 2090,
      "izz": 2091,
      "Ġbuilding": 2092,
      "Ġsplas": 2093,
      "Ġscreamed": 2094,
      "ale": 2095,
      "Ġent": 2096,
      "Ġimpre": 2097,
      "Ġneighbor": 2098,
      "Ġrobot": 2099,
      "In": 2100,
      "Ġwide": 2101,
      "Ġspid": 2102,
      "Ġspicy": 2103,
      "Ġmeet": 2104,
      "Ġlovely": 2105,
      "Ġwaiting": 2106,
      "Ġprotect": 2107,
      "Ġpar": 2108,
      "Ġoven": 2109,
      "Ġscar": 2110,
      "Ġzoo": 2111,
      "ĠGo": 2112,
      "Ġbark": 2113,
      "Ġlad": 2114,
      "Ġslid": 2115,
      "Ġquest": 2116,
      "Ġpretended": 2117,
      "Ġemb": 2118,
      "Ġdi": 2119,
      "Ġpool": 2120,
      "Ġrocket": 2121,
      "Ġwearing": 2122,
      "hile": 2123,
      "Tommy": 2124,
      "Ġcheer": 2125,
      "Ġtalking": 2126,
      "Ġforgive": 2127,
      "Ġtrouble": 2128,
      "Ġser": 2129,
      "Ġshining": 2130,
      "Ġgoes": 2131,
      "Ġworm": 2132,
      "Molly": 2133,
      "Ġnut": 2134,
      "Ġthin": 2135,
      "Ġstir": 2136,
      "Ġshr": 2137,
      "Ġpile": 2138,
      "ching": 2139,
      "aser": 2140,
      "Ġfaces": 2141,
      "Ġminut": 2142,
      "Ġsupp": 2143,
      "Ġpop": 2144,
      "Ġconfused": 2145,
      "Ġflut": 2146,
      "Ġtrip": 2147,
      "Ġwom": 2148,
      "Ġmud": 2149,
      "isa": 2150,
      "arra": 2151,
      "Ġdelight": 2152,
      "Ġpour": 2153,
      "Ġembarra": 2154,
      "Ġwoman": 2155,
      "St": 2156,
      "Ġbal": 2157,
      "owed": 2158,
      "Ġwhich": 2159,
      "Ġspent": 2160,
      "Ġducks": 2161,
      "Ġsongs": 2162,
      "Ġladder": 2163,
      "urse": 2164,
      "Ġgiant": 2165,
      "Ġgun": 2166,
      "ird": 2167,
      "Ġstep": 2168,
      "Ġfinish": 2169,
      "ery": 2170,
      "Ġrec": 2171,
      "Ġchick": 2172,
      "ular": 2173,
      "ĠKitty": 2174,
      "ub": 2175,
      "Ġhon": 2176,
      "Ġphone": 2177,
      "Ġfeet": 2178,
      "ĠCh": 2179,
      "Ġchocol": 2180,
      "Ġpuddle": 2181,
      "Ġtrust": 2182,
      "Ġvillage": 2183,
      "Ġcorner": 2184,
      "Just": 2185,
      "Ġblew": 2186,
      "ĠSome": 2187,
      "Ġshy": 2188,
      "getable": 2189,
      "bbles": 2190,
      "arge": 2191,
      "umber": 2192,
      "Ġvegetable": 2193,
      "Ġhorse": 2194,
      "Ġtomorrow": 2195,
      "ĠSometimes": 2196,
      "Ġant": 2197,
      "nny": 2198,
      "Ġclever": 2199,
      "Ġlay": 2200,
      "Ġcart": 2201,
      "Ġeventually": 2202,
      "Ġspotted": 2203,
      "Every": 2204,
      "Ġsal": 2205,
      "lebr": 2206,
      "Ġkitten": 2207,
      "Ġfixed": 2208,
      "Ġchocolate": 2209,
      "Ġsnake": 2210,
      "Ġhiding": 2211,
      "Ġcelebr": 2212,
      "Ġcoo": 2213,
      "Ġnet": 2214,
      "Now": 2215,
      "Ġdrive": 2216,
      "Ġwip": 2217,
      "Ġring": 2218,
      "Ġcloth": 2219,
      "Ġteeth": 2220,
      "erly": 2221,
      "Ġwash": 2222,
      "ĠHow": 2223,
      "Ġseat": 2224,
      "Ġmatter": 2225,
      "Ġign": 2226,
      "ato": 2227,
      "Ġspin": 2228,
      "Ġlem": 2229,
      "ĠWith": 2230,
      "Ġfold": 2231,
      "Ġtaste": 2232,
      "Ġshirt": 2233,
      "not": 2234,
      "ĠTheir": 2235,
      "Ġstret": 2236,
      "Ġcannot": 2237,
      "Ġwhenever": 2238,
      "Ġremind": 2239,
      "ancy": 2240,
      "old": 2241,
      "Ġlast": 2242,
      "Ġrude": 2243,
      "Soon": 2244,
      "Ġseek": 2245,
      "Ġembarrassed": 2246,
      "hnny": 2247,
      "Ġban": 2248,
      "Ġlarge": 2249,
      "Ġcalm": 2250,
      "ighed": 2251,
      "Ġtries": 2252,
      "Ġdirt": 2253,
      "My": 2254,
      "Ġhears": 2255,
      "Ġappeared": 2256,
      "Ġbugs": 2257,
      "nic": 2258,
      "ÅĵI": 2259,
      "Ġmachine": 2260,
      "Ġ'": 2261,
      "Ġtest": 2262,
      "Ġpicnic": 2263,
      "Ġcarrots": 2264,
      "Ġcookie": 2265,
      "Ġfurry": 2266,
      "Ġspider": 2267,
      "eb": 2268,
      "ĠAl": 2269,
      "Ġsticks": 2270,
      "Mum": 2271,
      "lex": 2272,
      "Ġshell": 2273,
      "Ġshelf": 2274,
      "Ġlive": 2275,
      "Ġsmooth": 2276,
      "Ġhar": 2277,
      "Ġbell": 2278,
      "Ġsol": 2279,
      "Ġtea": 2280,
      "Ġanswer": 2281,
      "Ġhel": 2282,
      "Ġmind": 2283,
      "Ġforward": 2284,
      "ĠPlease": 2285,
      "Ġsplash": 2286,
      "gly": 2287,
      "Ġmaybe": 2288,
      "lla": 2289,
      "Ġtool": 2290,
      "Ġpaw": 2291,
      "Ġneckl": 2292,
      "hin": 2293,
      "Ġugly": 2294,
      "box": 2295,
      "Ġmed": 2296,
      "ĠTV": 2297,
      "Ġgas": 2298,
      "ĠJust": 2299,
      "ĠEmily": 2300,
      "ground": 2301,
      "mo": 2302,
      "Ġpin": 2303,
      "Ġroar": 2304,
      "den": 2305,
      "als": 2306,
      "Ġmeant": 2307,
      "Ġcarried": 2308,
      "Ġmoon": 2309,
      "Ġtells": 2310,
      "Ġemp": 2311,
      "Ġfancy": 2312,
      "Ġmot": 2313,
      "Ġflag": 2314,
      "airs": 2315,
      "Ġbarked": 2316,
      "Ġstood": 2317,
      "Ġempty": 2318,
      "Ġburn": 2319,
      "Ġspe": 2320,
      "Ġpolite": 2321,
      "Ġsparkly": 2322,
      "Ġspray": 2323,
      "Ġship": 2324,
      "Ġval": 2325,
      "Ġfighting": 2326,
      "ned": 2327,
      "Ġque": 2328,
      "Ġmountain": 2329,
      "Ġsave": 2330,
      "Ġknocked": 2331,
      "Ġscarf": 2332,
      "ian": 2333,
      "Ġsel": 2334,
      "Ġjumping": 2335,
      "ult": 2336,
      "Ġtightly": 2337,
      "Ġcreative": 2338,
      "pper": 2339,
      "Ġspread": 2340,
      "obby": 2341,
      "vous": 2342,
      "Ġblow": 2343,
      "Ġtid": 2344,
      "ĠWhy": 2345,
      "ours": 2346,
      "Ġlanded": 2347,
      "ches": 2348,
      "Ġpizz": 2349,
      "Ġknight": 2350,
      "umpy": 2351,
      "Ġdrew": 2352,
      "Ġwore": 2353,
      "Ġpir": 2354,
      "Ġhidden": 2355,
      "Ġnecklace": 2356,
      "ym": 2357,
      "Ġcage": 2358,
      "Ġcross": 2359,
      "Ġchased": 2360,
      "Ġgrew": 2361,
      "Ġstring": 2362,
      "Ġtreats": 2363,
      "Ġmysterious": 2364,
      "Ġbanan": 2365,
      "oin": 2366,
      "ying": 2367,
      "ital": 2368,
      "Ġgar": 2369,
      "ĠBe": 2370,
      "Ġgroup": 2371,
      "Ġcrab": 2372,
      "Ġsharing": 2373,
      "Ġwhistle": 2374,
      "Ġashamed": 2375,
      "Ġhosp": 2376,
      "Ġpuzzle": 2377,
      "Ġpri": 2378,
      "Ġdecor": 2379,
      "Ġyelled": 2380,
      "cy": 2381,
      "cap": 2382,
      "Ġhum": 2383,
      "Ġgen": 2384,
      "Ġvase": 2385,
      "usie": 2386,
      "ungle": 2387,
      "Ġhospital": 2388,
      "aking": 2389,
      "dle": 2390,
      "Ġple": 2391,
      "Ġner": 2392,
      "ones": 2393,
      "Ġdisappoin": 2394,
      "Ġqueen": 2395,
      "cer": 2396,
      "Ġjungle": 2397,
      "izzy": 2398,
      "Ġselfish": 2399,
      "Ġthese": 2400,
      "Ġbreath": 2401,
      "Ġsleepy": 2402,
      "Ġnervous": 2403,
      "Ġsour": 2404,
      "era": 2405,
      "isp": 2406,
      "Ġclear": 2407,
      "ĠTogether": 2408,
      "Ġchest": 2409,
      "dge": 2410,
      "ĠOn": 2411,
      "Ġcries": 2412,
      "Ġnods": 2413,
      "Ġgray": 2414,
      "Ġpowerful": 2415,
      "Ġmotor": 2416,
      "Ġreg": 2417,
      "ĠEverywhere": 2418,
      "Ġvegetables": 2419,
      "fl": 2420,
      "ella": 2421,
      "Stop": 2422,
      "Ġmissed": 2423,
      "Ġstra": 2424,
      "Ġstanding": 2425,
      "Ġpillow": 2426,
      "Ġlemon": 2427,
      "Ġchew": 2428,
      "Ġgiggled": 2429,
      "Where": 2430,
      "Ġav": 2431,
      "Ġbored": 2432,
      "ano": 2433,
      "Ġsnacks": 2434,
      "Ġbridge": 2435,
      "Ġgarage": 2436,
      "erry": 2437,
      "ony": 2438,
      "Ġgold": 2439,
      "Ġfeed": 2440,
      "Ġpray": 2441,
      "ĠLe": 2442,
      "Ġpizza": 2443,
      "Ġdisappointed": 2444,
      "orry": 2445,
      "itter": 2446,
      "Ġwhisp": 2447,
      "Ġdancing": 2448,
      "Ġjew": 2449,
      "pack": 2450,
      "There": 2451,
      "Ġmeadow": 2452,
      "ustr": 2453,
      "Ġdrum": 2454,
      "light": 2455,
      "ĠAnn": 2456,
      "Ġeasy": 2457,
      "Ġhur": 2458,
      "Ġscr": 2459,
      "Be": 2460,
      "ets": 2461,
      "Ġstone": 2462,
      "Ġseed": 2463,
      "ĠLisa": 2464,
      "Ġcirc": 2465,
      "Ġtick": 2466,
      "unk": 2467,
      "Ġbecome": 2468,
      "Ġpeaceful": 2469,
      "Ġsque": 2470,
      "Ġcap": 2471,
      "Ġleaf": 2472,
      "ensive": 2473,
      "Ġbone": 2474,
      "erp": 2475,
      "Ġsaved": 2476,
      "ĠSt": 2477,
      "Ġtears": 2478,
      "ĠPeter": 2479,
      "Ġbathroom": 2480,
      "Ġexpensive": 2481,
      "Ġminutes": 2482,
      "Ġgener": 2483,
      "Please": 2484,
      "Ġcri": 2485,
      "Ġcand": 2486,
      "ĠDon": 2487,
      "Ġfrustr": 2488,
      "eterm": 2489,
      "Ġfinger": 2490,
      "Ġplate": 2491,
      "Ġknowing": 2492,
      "Ġsailed": 2493,
      "Ġpolice": 2494,
      "ĠOK": 2495,
      "Ġfil": 2496,
      "Ġdeterm": 2497,
      "ete": 2498,
      "Ġclown": 2499,
      "Ġunderstood": 2500,
      "Ġline": 2501,
      "Ġpan": 2502,
      "Ġfear": 2503,
      "Ġruined": 2504,
      "Ġlegs": 2505,
      "most": 2506,
      "Ġtag": 2507,
      "Ġhours": 2508,
      "cept": 2509,
      "Ġsweetie": 2510,
      "Ġspoil": 2511,
      "Jane": 2512,
      "Mama": 2513,
      "ti": 2514,
      "Ġboard": 2515,
      "Ġmatch": 2516,
      "Ġplants": 2517,
      "Ġsuccess": 2518,
      "Are": 2519,
      "Ġfig": 2520,
      "Ġmic": 2521,
      "ĠMum": 2522,
      "Ġtidy": 2523,
      "Ġwaves": 2524,
      "Ġshore": 2525,
      "Ġalmost": 2526,
      "ĠEven": 2527,
      "Ġtaught": 2528,
      "ecially": 2529,
      "Ġfrustrated": 2530,
      "Sue": 2531,
      "pecially": 2532,
      "Ġwagged": 2533,
      "ĠTeddy": 2534,
      "ates": 2535,
      "Ġasking": 2536,
      "Ġmessy": 2537,
      "Ġespecially": 2538,
      "Dad": 2539,
      "Ġfake": 2540,
      "Ġgate": 2541,
      "Ġrid": 2542,
      "ĠJake": 2543,
      "ĠJohnny": 2544,
      "Ġdrawing": 2545,
      "ual": 2546,
      "oof": 2547,
      "Ġplayground": 2548,
      "Ġclap": 2549,
      "Ġflute": 2550,
      "Ġgenerous": 2551,
      "To": 2552,
      "Ġexcite": 2553,
      "Ġhang": 2554,
      "illed": 2555,
      "Ġmeasure": 2556,
      "Ġfluffy": 2557,
      "Ġballs": 2558,
      "Ġhopping": 2559,
      "Ġtrue": 2560,
      "Ġanswered": 2561,
      "Ġhonest": 2562,
      "ond": 2563,
      "ator": 2564,
      "iger": 2565,
      "Ġexam": 2566,
      "Ġlead": 2567,
      "Ġyourself": 2568,
      "Ġmistake": 2569,
      "Ġboring": 2570,
      "Ġgets": 2571,
      "selves": 2572,
      "Ġpoor": 2573,
      "Ġhurts": 2574,
      "Ġtie": 2575,
      "Ġdest": 2576,
      "Ġpas": 2577,
      "Ġweak": 2578,
      "Ġcomfortable": 2579,
      "Ġexcitement": 2580,
      "Ġpassed": 2581,
      "land": 2582,
      "mb": 2583,
      "Ġlit": 2584,
      "ĠBr": 2585,
      "osaur": 2586,
      "Ġtunn": 2587,
      "ĠZ": 2588,
      "Ġsighed": 2589,
      "reen": 2590,
      "Ġrad": 2591,
      "Ġoften": 2592,
      "Their": 2593,
      "Ġkissed": 2594,
      "Ġang": 2595,
      "arth": 2596,
      "Ġcaterp": 2597,
      "Ġgrumpy": 2598,
      "Ġcaterpill": 2599,
      "Ġadd": 2600,
      "ots": 2601,
      "Ġfruits": 2602,
      "uce": 2603,
      "Ġmoving": 2604,
      "Ġsug": 2605,
      "Ġmid": 2606,
      "Ġnumber": 2607,
      "Ġsoap": 2608,
      "Ġfridge": 2609,
      "Jill": 2610,
      "Ġtent": 2611,
      "Ġstuff": 2612,
      "Ġsold": 2613,
      "ĠJim": 2614,
      "elly": 2615,
      "Ġreturned": 2616,
      "'d": 2617,
      "Ġknife": 2618,
      "Ġtaken": 2619,
      "Ġsplashed": 2620,
      "Ġbalance": 2621,
      "Ġwis": 2622,
      "Ġtrucks": 2623,
      "Sarah": 2624,
      "issors": 2625,
      "Ġcaterpillar": 2626,
      "Jimmy": 2627,
      "Ġlog": 2628,
      "Ġspend": 2629,
      "Ġprince": 2630,
      "Ġmighty": 2631,
      "Ġdisappeared": 2632,
      "Ġgathered": 2633,
      "Ġsugar": 2634,
      "Ġmiddle": 2635,
      "Sorry": 2636,
      "Ġwagon": 2637,
      "anut": 2638,
      "elp": 2639,
      "Ġjam": 2640,
      "Ġclass": 2641,
      "Ġscissors": 2642,
      "Ġglue": 2643,
      "Ġwalks": 2644,
      "Ġpleased": 2645,
      "Who": 2646,
      "Ġer": 2647,
      "Ġmummy": 2648,
      "Ġpay": 2649,
      "illi": 2650,
      "Ġnod": 2651,
      "Ġworking": 2652,
      "Ġpicks": 2653,
      "Ġjog": 2654,
      "Ġdinosaur": 2655,
      "Ġpacked": 2656,
      "ĠRex": 2657,
      "Ġhorn": 2658,
      "Ġlazy": 2659,
      "Ġchange": 2660,
      "Ġcheck": 2661,
      "Ġjoke": 2662,
      "Ġcloset": 2663,
      "ffe": 2664,
      "Ġham": 2665,
      "ĠIf": 2666,
      "Ġlock": 2667,
      "?\".": 2668,
      "Ġmole": 2669,
      "Ġdrop": 2670,
      "Ġescap": 2671,
      "arl": 2672,
      "ĠAt": 2673,
      "Ġdogs": 2674,
      "Ġmarket": 2675,
      "Ġdish": 2676,
      "Ġcover": 2677,
      "Ġtwirl": 2678,
      "Ġglass": 2679,
      "Ġfamous": 2680,
      "Ġtowel": 2681,
      "iness": 2682,
      "ĠSusie": 2683,
      "Ġears": 2684,
      "Ġdecide": 2685,
      "Ġcontent": 2686,
      "Ġcraw": 2687,
      "Ġeggs": 2688,
      "Ġincred": 2689,
      "Ġind": 2690,
      "Ġsil": 2691,
      "Ġbake": 2692,
      "oop": 2693,
      "Ġbody": 2694,
      "iff": 2695,
      "Ġcalling": 2696,
      "Ġdrank": 2697,
      "Ġcrawled": 2698,
      "Ġwander": 2699,
      "Ġmir": 2700,
      "ating": 2701,
      "Ġrough": 2702,
      "Ġweek": 2703,
      "Ġbedroom": 2704,
      "Ġdiscovered": 2705,
      "Ġdetermined": 2706,
      "Me": 2707,
      "Ġed": 2708,
      "Ġdepend": 2709,
      "aged": 2710,
      "Ġglow": 2711,
      "Ġthankful": 2712,
      "Ġfeathers": 2713,
      "Ġsandwich": 2714,
      "Help": 2715,
      "ĠBu": 2716,
      "Ġswan": 2717,
      "ĠTweety": 2718,
      "Ġwheel": 2719,
      "Ġgrandpa": 2720,
      "ination": 2721,
      "Ġyarn": 2722,
      "Ġcleaned": 2723,
      "Ġeye": 2724,
      "ĠLeo": 2725,
      "Ġrat": 2726,
      "Ġstones": 2727,
      "Ġdolp": 2728,
      "Ġlamp": 2729,
      "Ġbrush": 2730,
      "Ġcoins": 2731,
      "Ġcovered": 2732,
      "ĠEnd": 2733,
      "Ġshows": 2734,
      "Ġpointing": 2735,
      "Ġmedic": 2736,
      "port": 2737,
      "Ġfather": 2738,
      "Ġlying": 2739,
      "usual": 2740,
      "Ġord": 2741,
      "Ġneeds": 2742,
      "Ġgrown": 2743,
      "Ġadventur": 2744,
      "Ġunusual": 2745,
      "Ġmedicine": 2746,
      "Gra": 2747,
      "ror": 2748,
      "Ġboss": 2749,
      "asing": 2750,
      "Ġchoose": 2751,
      "Ġpeanut": 2752,
      "aul": 2753,
      "Ġorganized": 2754,
      "imed": 2755,
      "Ġrare": 2756,
      "Ġweal": 2757,
      "ĠBl": 2758,
      "ushed": 2759,
      "Ġwolf": 2760,
      "Ġcrawl": 2761,
      "Ġsmelly": 2762,
      "Ġhappening": 2763,
      "Ġcolourful": 2764,
      "Ġincredible": 2765,
      "Mummy": 2766,
      "bin": 2767,
      "ĠBella": 2768,
      "Ġisland": 2769,
      "Ġmod": 2770,
      "Ġskipped": 2771,
      "Ġrelax": 2772,
      "Ġtunnel": 2773,
      "Ġadventurous": 2774,
      "Ġweird": 2775,
      "Ġflash": 2776,
      "Ġfool": 2777,
      "ote": 2778,
      "Ġaccept": 2779,
      "Ġdistance": 2780,
      "Ġchicken": 2781,
      "edient": 2782,
      "Ġborrow": 2783,
      "ilt": 2784,
      "ork": 2785,
      "Ġthick": 2786,
      "Ġbrilli": 2787,
      "Ġboxes": 2788,
      "Ġsmaller": 2789,
      "Ġmagn": 2790,
      "Ġdig": 2791,
      "Ġmoms": 2792,
      "Ġlose": 2793,
      "Ġwalls": 2794,
      "umbers": 2795,
      "Ġdizzy": 2796,
      "Ġlicked": 2797,
      "Ġbranc": 2798,
      "ĠDucky": 2799,
      "Ġvan": 2800,
      "Ġpicking": 2801,
      "Ġfalls": 2802,
      "Ġwrapped": 2803,
      "Ġjewel": 2804,
      "Ġdependable": 2805,
      "Ġbrilliant": 2806,
      "Ġbranches": 2807,
      "Al": 2808,
      "kin": 2809,
      "Ġhunt": 2810,
      "Ġcop": 2811,
      "Ġmap": 2812,
      "ature": 2813,
      "Ġones": 2814,
      "Ġword": 2815,
      "Ġfrown": 2816,
      "Ġimpressed": 2817,
      "How": 2818,
      "gy": 2819,
      "Ġbitter": 2820,
      "Ġsheep": 2821,
      "Ġcabin": 2822,
      "Ġsafely": 2823,
      "Ġmirror": 2824,
      "Billy": 2825,
      "hip": 2826,
      "Ġpil": 2827,
      "Ġow": 2828,
      "Ġskin": 2829,
      "Ġstronger": 2830,
      "Ġsounded": 2831,
      "Ġrich": 2832,
      "emo": 2833,
      "Ġmixed": 2834,
      "Ġobedient": 2835,
      "Ġfoolish": 2836,
      "gu": 2837,
      "Ġnumbers": 2838,
      "Ġbull": 2839,
      "Ġoffered": 2840,
      "ĠPete": 2841,
      "Ġwrote": 2842,
      "Ġbottom": 2843,
      "Ġstudy": 2844,
      "Ġbanana": 2845,
      "Sally": 2846,
      "work": 2847,
      "Ġwand": 2848,
      "Ġfis": 2849,
      "Ġfine": 2850,
      "Ġnoisy": 2851,
      "Ġtwig": 2852,
      "ĠBrown": 2853,
      "Ġangel": 2854,
      "Ġwealthy": 2855,
      "Ġtank": 2856,
      "Ġsight": 2857,
      "ina": 2858,
      "Ġonce": 2859,
      "alous": 2860,
      "Ġboys": 2861,
      "ested": 2862,
      "Ġcrown": 2863,
      "Ġjealous": 2864,
      "aw": 2865,
      "aid": 2866,
      "het": 2867,
      "imp": 2868,
      "ĠMy": 2869,
      "Ġsell": 2870,
      "Ġkindness": 2871,
      "Ġcrack": 2872,
      "Ġbuttons": 2873,
      "Ġsmoke": 2874,
      "Amy": 2875,
      "Sp": 2876,
      "Ġcher": 2877,
      "Ġroof": 2878,
      "ured": 2879,
      "Ġmanaged": 2880,
      "Ġrode": 2881,
      "Ġchase": 2882,
      "Ġbubbles": 2883,
      "Ġteam": 2884,
      "uggled": 2885,
      "Ġrecord": 2886,
      "Ġharm": 2887,
      "Ġedge": 2888,
      "fa": 2889,
      "ique": 2890,
      "Ġsugg": 2891,
      "anged": 2892,
      "ages": 2893,
      "aghet": 2894,
      "Ġbelonged": 2895,
      "Ġeager": 2896,
      "Ġquestions": 2897,
      "aghetti": 2898,
      "appy": 2899,
      "fic": 2900,
      "Ġter": 2901,
      "Ġcone": 2902,
      "Ġspaghetti": 2903,
      "Ġscare": 2904,
      "Ġunique": 2905,
      "Ġpainting": 2906,
      "Ġpainted": 2907,
      "body": 2908,
      "Ġgiving": 2909,
      "fast": 2910,
      "Ġcorn": 2911,
      "Ġdove": 2912,
      "ĠRed": 2913,
      "Ġuseful": 2914,
      "Ġlights": 2915,
      "Ġmarble": 2916,
      "Re": 2917,
      "Ġturt": 2918,
      "Ġmelt": 2919,
      "ĠSn": 2920,
      "Ġenvel": 2921,
      "Ġdiffic": 2922,
      "Joe": 2923,
      "Ġhats": 2924,
      "Ġsquare": 2925,
      "Ġshoot": 2926,
      "Ġbreakfast": 2927,
      "olog": 2928,
      "ext": 2929,
      "Ġadded": 2930,
      "ĠBobby": 2931,
      "Ġshake": 2932,
      "Ġsunfl": 2933,
      "ĠBobo": 2934,
      "Ġguess": 2935,
      "Ġapolog": 2936,
      "Ġfigure": 2937,
      "cient": 2938,
      "we": 2939,
      "ĠNo": 2940,
      "rag": 2941,
      "Ġyours": 2942,
      "Ġgrace": 2943,
      "Ġdeer": 2944,
      "Ġcrayon": 2945,
      "ĠMrs": 2946,
      "Ġhipp": 2947,
      "Ġok": 2948,
      "Ġearth": 2949,
      "Ġfork": 2950,
      "Ġjelly": 2951,
      "ĠToday": 2952,
      "umbled": 2953,
      "Ġdifficult": 2954,
      "oppy": 2955,
      "Ġpant": 2956,
      "Ġeld": 2957,
      "Ġancient": 2958,
      "Ġtape": 2959,
      "Here": 2960,
      "Ġprint": 2961,
      "Ġdesk": 2962,
      "laimed": 2963,
      "Ġterri": 2964,
      "Ġpee": 2965,
      "Ġkinds": 2966,
      "ject": 2967,
      "rop": 2968,
      "und": 2969,
      "yal": 2970,
      "Ġcro": 2971,
      "irp": 2972,
      "Ġstri": 2973,
      "ĠMummy": 2974,
      "Ġexclaimed": 2975,
      "Ġsearch": 2976,
      "Ġtools": 2977,
      "Ġturtle": 2978,
      "ye": 2979,
      "zed": 2980,
      "Ġtoug": 2981,
      "ention": 2982,
      "Ġcounted": 2983,
      "Ġpenny": 2984,
      "Ġpractice": 2985,
      "Ġenvelope": 2986,
      "Well": 2987,
      "Ġtummy": 2988,
      "keep": 2989,
      "Ġhelps": 2990,
      "umsy": 2991,
      "Ġcost": 2992,
      "Ġagainst": 2993,
      "Ġsnee": 2994,
      "arsh": 2995,
      "Ġrealised": 2996,
      "Ġbushes": 2997,
      "Ġbags": 2998,
      "Ġsquee": 2999,
      "pes": 3000,
      "Ġicy": 3001,
      "Ġtiger": 3002,
      "Ġdull": 3003,
      "orge": 3004,
      "Ġperform": 3005,
      "Ġdreams": 3006,
      "Ġballoons": 3007,
      "Ġcheerful": 3008,
      "na": 3009,
      "head": 3010,
      "ress": 3011,
      "Ġfre": 3012,
      "Ġlow": 3013,
      "Ġthose": 3014,
      "Ġlean": 3015,
      "ĠRose": 3016,
      "Ġdreamed": 3017,
      "Ġattic": 3018,
      "Ġbounce": 3019,
      "Ġlifted": 3020,
      "ĠBlue": 3021,
      "Ġhippo": 3022,
      "Ġtask": 3023,
      "Ġaunt": 3024,
      "Ġcudd": 3025,
      "ory": 3026,
      "Ġhappiness": 3027,
      "Ġabove": 3028,
      "Ġserious": 3029,
      "Ġflashlight": 3030,
      "ouses": 3031,
      "Ġlouder": 3032,
      "ctus": 3033,
      "Ġunl": 3034,
      "Ġenjoying": 3035,
      "Ġusing": 3036,
      "ĠNemo": 3037,
      "Ġlaughs": 3038,
      "ĠTweetie": 3039,
      "Ġtough": 3040,
      "Jen": 3041,
      "Ġsuit": 3042,
      "Ġfour": 3043,
      "Ġrice": 3044,
      "amond": 3045,
      "Ġloyal": 3046,
      "Ġseem": 3047,
      "Ġchar": 3048,
      "ines": 3049,
      "Ġnurse": 3050,
      "Ġsofa": 3051,
      "ĠLittle": 3052,
      "Ġdreaming": 3053,
      "Ġcactus": 3054,
      "Ġdiamond": 3055,
      "Ġeraser": 3056,
      "ps": 3057,
      "Ġhouses": 3058,
      "Ġlibr": 3059,
      "Ġext": 3060,
      "oph": 3061,
      "Ġscale": 3062,
      "Ġscreen": 3063,
      "Ġsword": 3064,
      "Ġtwist": 3065,
      "Ġmov": 3066,
      "Ġfier": 3067,
      "Ġloudly": 3068,
      "Ġmeans": 3069,
      "Ġfavour": 3070,
      "Ġjuicy": 3071,
      "Ġnuts": 3072,
      "Ġpirate": 3073,
      "Ġscrat": 3074,
      "Ġbossy": 3075,
      "cil": 3076,
      "eorge": 3077,
      "Ġsoar": 3078,
      "rage": 3079,
      "Ġmeal": 3080,
      "Ġslipped": 3081,
      "oby": 3082,
      "Ġbuilt": 3083,
      "Ġcleaning": 3084,
      "Ġstove": 3085,
      "Ġmarch": 3086,
      "Ġpencil": 3087,
      "Ġindepend": 3088,
      "oe": 3089,
      "time": 3090,
      "wards": 3091,
      "inary": 3092,
      "Ġcards": 3093,
      "Ġnotice": 3094,
      "Ġwhale": 3095,
      "Ġclumsy": 3096,
      "Ġharder": 3097,
      "Ġzipp": 3098,
      "Ow": 3099,
      "ready": 3100,
      "Ġstairs": 3101,
      "Ġalready": 3102,
      "Ġknows": 3103,
      "Ġleaving": 3104,
      "Ġpatch": 3105,
      "upid": 3106,
      "Ġinvited": 3107,
      "Ġcooking": 3108,
      "Ġreminded": 3109,
      "Ġcircles": 3110,
      "Ġdolphin": 3111,
      "Ġfavourite": 3112,
      "inal": 3113,
      "omed": 3114,
      "Ġyog": 3115,
      "Ġstream": 3116,
      "Ġoffice": 3117,
      "Ġdead": 3118,
      "Ġrub": 3119,
      "Ġbatter": 3120,
      "Ġsunflower": 3121,
      "Ġelderly": 3122,
      "vice": 3123,
      "Ġtimes": 3124,
      "ither": 3125,
      "Ġgem": 3126,
      "anger": 3127,
      "Ġgoat": 3128,
      "Ġthemselves": 3129,
      "Ġthoughtful": 3130,
      "Ġshowing": 3131,
      "Ġpale": 3132,
      "Ġgasped": 3133,
      "Ġcam": 3134,
      "Ġnorm": 3135,
      "iginal": 3136,
      "Ġplayful": 3137,
      "ĠMar": 3138,
      "Ġspun": 3139,
      "Ġsaying": 3140,
      "Ġcarp": 3141,
      "Ġlearning": 3142,
      "ola": 3143,
      "Ġdelighted": 3144,
      "ĠAlice": 3145,
      "Ġsuccessful": 3146,
      "Ġsuggested": 3147,
      "Ġpants": 3148,
      "Ġfierce": 3149,
      "Ġindependent": 3150,
      "See": 3151,
      "Ġber": 3152,
      "Ġwake": 3153,
      "ately": 3154,
      "Ġstamp": 3155,
      "Ġnosy": 3156,
      "ĠYour": 3157,
      "ipe": 3158,
      "Ġarrow": 3159,
      "Ġbald": 3160,
      "Ġprep": 3161,
      "Ġguard": 3162,
      "Ġsalad": 3163,
      "Ġhelm": 3164,
      "Ġterrible": 3165,
      "Ġextra": 3166,
      "Ġberries": 3167,
      "Em": 3168,
      "com": 3169,
      "aroo": 3170,
      "etit": 3171,
      "Ġref": 3172,
      "ĠWhile": 3173,
      "Ġotter": 3174,
      "Ġexcitedly": 3175,
      "ĠFred": 3176,
      "Ġexplored": 3177,
      "ÅĵLet": 3178,
      "Ġzip": 3179,
      "Ġmetal": 3180,
      "apping": 3181,
      "angaroo": 3182,
      "keeper": 3183,
      "Ġwashed": 3184,
      "Ġstupid": 3185,
      "Ġkangaroo": 3186,
      "uring": 3187,
      "Ġspilled": 3188,
      "Ġclay": 3189,
      "Ġswe": 3190,
      "Ġoriginal": 3191,
      "Ġsne": 3192,
      "Ġbrightly": 3193,
      "Ġrubbed": 3194,
      "Ġcompass": 3195,
      "Ġcompetit": 3196,
      "Ġstubb": 3197,
      "Ġresc": 3198,
      "Ġpoured": 3199,
      "Ġwiped": 3200,
      "Ġstraw": 3201,
      "Ġhammer": 3202,
      "Ġescape": 3203,
      "Spot": 3204,
      "Ġfresh": 3205,
      "Ġnormal": 3206,
      "corn": 3207,
      "Ġbees": 3208,
      "illa": 3209,
      "Ġvi": 3210,
      "uddy": 3211,
      "Ġwindows": 3212,
      "oomy": 3213,
      "Ġcircle": 3214,
      "loo": 3215,
      "lies": 3216,
      "Ġing": 3217,
      "Ġbri": 3218,
      "Ġbeak": 3219,
      "Ġshone": 3220,
      "Ġchanged": 3221,
      "Ġpost": 3222,
      "Ġways": 3223,
      "ache": 3224,
      "Ġdoesn": 3225,
      "Ġtomato": 3226,
      "Ġkicked": 3227,
      "Ġprize": 3228,
      "Ġregular": 3229,
      "Ġspoiled": 3230,
      "Ġcamera": 3231,
      "Ġcush": 3232,
      "Ġgoose": 3233,
      "Ġstage": 3234,
      "Ġknock": 3235,
      "ief": 3236,
      "iable": 3237,
      "Ġjoined": 3238,
      "Ġreliable": 3239,
      "redient": 3240,
      "Ġpengu": 3241,
      "Ġadmired": 3242,
      "Ġsolve": 3243,
      "Ġwhispered": 3244,
      "Ġseeds": 3245,
      "Ġdestro": 3246,
      "Ġstubborn": 3247,
      "Ġingredient": 3248,
      "ndpa": 3249,
      "lev": 3250,
      "Ġhero": 3251,
      "Ġforth": 3252,
      "Ġlocked": 3253,
      "Ġjack": 3254,
      "Ġleop": 3255,
      "Ġcheap": 3256,
      "gging": 3257,
      "aby": 3258,
      "isk": 3259,
      "Ġyet": 3260,
      "Ġsock": 3261,
      "Ġtrump": 3262,
      "berries": 3263,
      "Ġstickers": 3264,
      "Ġdelicate": 3265,
      "Ġwarned": 3266,
      "Ġpopcorn": 3267,
      "ray": 3268,
      "arian": 3269,
      "Ġliz": 3270,
      "alk": 3271,
      "Ġcareless": 3272,
      "Ġstranger": 3273,
      "ĠWhenever": 3274,
      "Ġboats": 3275,
      "Ġveil": 3276,
      "Ġcollar": 3277,
      "Ġearly": 3278,
      "Ġcelebrate": 3279,
      "Ġvalu": 3280,
      "Ġingredients": 3281,
      "While": 3282,
      "Ġbump": 3283,
      "Ġfrag": 3284,
      "Ġstumbled": 3285,
      "Ġpepper": 3286,
      "Ġenv": 3287,
      "Ġtowers": 3288,
      "cod": 3289,
      "uper": 3290,
      "Ġtoast": 3291,
      "Ġhive": 3292,
      "Ġfu": 3293,
      "Ġfountain": 3294,
      "Ġcity": 3295,
      "atter": 3296,
      "ĠLook": 3297,
      "Ġfright": 3298,
      "ud": 3299,
      "Ġlaser": 3300,
      "ilty": 3301,
      "Ġgum": 3302,
      "Ġstat": 3303,
      "Ġenorm": 3304,
      "Ġadvice": 3305,
      "ations": 3306,
      "Ġguilty": 3307,
      "Ġmagnet": 3308,
      "Ġcrocod": 3309,
      "Ġcompassion": 3310,
      "Ġenormous": 3311,
      "Ġtooth": 3312,
      "ira": 3313,
      "Ġhandle": 3314,
      "Ġeng": 3315,
      "ĠCl": 3316,
      "ĠPolly": 3317,
      "Ġstops": 3318,
      "Ġsett": 3319,
      "Ġbarber": 3320,
      "Ġpige": 3321,
      "Ġdesign": 3322,
      "Ġobject": 3323,
      "Ġimpress": 3324,
      "Ġquestion": 3325,
      "Ġthinking": 3326,
      "Ġcarpet": 3327,
      "Ġvaluable": 3328,
      "eer": 3329,
      "gust": 3330,
      "Ġson": 3331,
      "Ġnature": 3332,
      "llie": 3333,
      "Ġreind": 3334,
      "Ġcoco": 3335,
      "Ġlaw": 3336,
      "ĠFr": 3337,
      "Ġcounting": 3338,
      "Ġshape": 3339,
      "Ġimagined": 3340,
      "Ġtrumpet": 3341,
      "Ġcocoa": 3342,
      "Ġtied": 3343,
      "Ġph": 3344,
      "Ġbloom": 3345,
      "Ġsniff": 3346,
      "berry": 3347,
      "Ġdisgust": 3348,
      "Ġopens": 3349,
      "Ġcharming": 3350,
      "Ġreindeer": 3351,
      "Ġax": 3352,
      "Ġpow": 3353,
      "Ġrushed": 3354,
      "Ġnames": 3355,
      "Ġfinding": 3356,
      "Ġskip": 3357,
      "Ġenc": 3358,
      "Ġcomb": 3359,
      "Ġarg": 3360,
      "Ġcomplet": 3361,
      "Ġsearching": 3362,
      "Ġresist": 3363,
      "Ġparade": 3364,
      "Ġhumble": 3365,
      "Ġcandle": 3366,
      "Ġlizard": 3367,
      "Ġfragile": 3368,
      "cing": 3369,
      "Ġmay": 3370,
      "Ġthirst": 3371,
      "Ġur": 3372,
      "Ġrefused": 3373,
      "Ġclock": 3374,
      "ement": 3375,
      "ÅĵYes": 3376,
      "Ġmissing": 3377,
      "Ġcricket": 3378,
      "Ġflex": 3379,
      "Ġumb": 3380,
      "Ġstation": 3381,
      "Ġrece": 3382,
      "!\".": 3383,
      "Ġspace": 3384,
      "ict": 3385,
      "Ġolder": 3386,
      "Ġtrains": 3387,
      "Ġperm": 3388,
      "Ġreading": 3389,
      "Ġfingers": 3390,
      "Ġpeeked": 3391,
      "Ġcostum": 3392,
      "Ġdestroy": 3393,
      "Ġfrightened": 3394,
      "Ġumbre": 3395,
      "iv": 3396,
      "Ġwaff": 3397,
      "Ġled": 3398,
      "ision": 3399,
      "ĠSm": 3400,
      "orant": 3401,
      "Ġrep": 3402,
      "ĠFin": 3403,
      "Ġtrop": 3404,
      "Ġsleeping": 3405,
      "Ġpotato": 3406,
      "Ġchose": 3407,
      "Ġordinary": 3408,
      "Ġgraceful": 3409,
      "comfort": 3410,
      "Ġthirsty": 3411,
      "dom": 3412,
      "Ġhoop": 3413,
      "Ġmis": 3414,
      "Ġmop": 3415,
      "Ġthief": 3416,
      "Ġrug": 3417,
      "Ġjug": 3418,
      "iches": 3419,
      "Ġleash": 3420,
      "Ġflour": 3421,
      "Ġtrunk": 3422,
      "Ġmoder": 3423,
      "Ġproudly": 3424,
      "Ġmaze": 3425,
      "Ġbreat": 3426,
      "Ġbelt": 3427,
      "Ġhairy": 3428,
      "Ġfootball": 3429,
      "Ġhurry": 3430,
      "ĠSnow": 3431,
      "Ġwing": 3432,
      "llip": 3433,
      "Ġload": 3434,
      "Ġfriendship": 3435,
      "ellig": 3436,
      "Ġintellig": 3437,
      "Ġraced": 3438,
      "Ġimpro": 3439,
      "ĠPe": 3440,
      "Ġunpack": 3441,
      "Ġuncomfort": 3442,
      "Ġsparkled": 3443,
      "Ġmailbox": 3444,
      "Ġcrocodile": 3445,
      "Ġaxe": 3446,
      "Ġflexible": 3447,
      "Ġtrophy": 3448,
      "llipop": 3449,
      "Ġuncomfortable": 3450,
      "io": 3451,
      "âĢ": 3452,
      "Ġbase": 3453,
      "Ġpurse": 3454,
      "ĠToby": 3455,
      "Ġsauce": 3456,
      "Ġbean": 3457,
      "ugged": 3458,
      "Ġlollipop": 3459,
      "Ġallowed": 3460,
      "opus": 3461,
      "âĤ¬âĢ": 3462,
      "Ġsorts": 3463,
      "ctopus": 3464,
      "Ġtrash": 3465,
      "Ġtelling": 3466,
      "Ġbrothers": 3467,
      "Ġsteal": 3468,
      "Ġattract": 3469,
      "Ġsurf": 3470,
      "ÅĵLetÃ¢": 3471,
      "Ġstatue": 3472,
      "Ġpigeon": 3473,
      "Ġmodern": 3474,
      "cope": 3475,
      "Ġoctopus": 3476,
      "Ġrepe": 3477,
      "Ġanx": 3478,
      "ĠWh": 3479,
      "Ġhose": 3480,
      "Ġrules": 3481,
      "Ġrestaur": 3482,
      "host": 3483,
      "Ġcardboard": 3484,
      "Ġwrap": 3485,
      "Ġrespectful": 3486,
      "Ġsandwiches": 3487,
      "Ġignorant": 3488,
      "Ġavo": 3489,
      "Ġenvious": 3490,
      "Ġphot": 3491,
      "Ġrestaurant": 3492,
      "awn": 3493,
      "cu": 3494,
      "Ġtem": 3495,
      "Ġsym": 3496,
      "Ġvest": 3497,
      "Ġtravel": 3498,
      "Ġdeliver": 3499,
      "Ġspring": 3500,
      "Ġmicrop": 3501,
      "Ġharmless": 3502,
      "Ġviol": 3503,
      "Ġleopard": 3504,
      "Ġintelligent": 3505,
      "Ġmicrophone": 3506,
      "Go": 3507,
      "kn": 3508,
      "Ġsudden": 3509,
      "Ġbin": 3510,
      "ince": 3511,
      "Ġhay": 3512,
      "Ġcell": 3513,
      "Ġcamp": 3514,
      "Ġdug": 3515,
      "Ġchain": 3516,
      "ÅĵIt": 3517,
      "ÅĵWhat": 3518,
      "ÅĵThat": 3519,
      "Ġlistening": 3520,
      "Ġhung": 3521,
      "osie": 3522,
      "Ġpackage": 3523,
      "Ġwheat": 3524,
      "Ġdiscover": 3525,
      "Ġslides": 3526,
      "Ġfilm": 3527,
      "Ġimpressive": 3528,
      "Ġdisgusting": 3529,
      "bled": 3530,
      "Ġwire": 3531,
      "render": 3532,
      "Ġcur": 3533,
      "Ġgor": 3534,
      "Ġbeet": 3535,
      "Ġshocked": 3536,
      "ecause": 3537,
      "Ġbirdie": 3538,
      "iew": 3539,
      "apa": 3540,
      "Ġcrazy": 3541,
      "bol": 3542,
      "Ġgrowing": 3543,
      "Ġencou": 3544,
      "Ġsuper": 3545,
      "Ġghost": 3546,
      "ado": 3547,
      "Ġalert": 3548,
      "Ġstarts": 3549,
      "Ġmush": 3550,
      "Ġchasing": 3551,
      "robe": 3552,
      "Ġview": 3553,
      "Ġacorn": 3554,
      "Ġengine": 3555,
      "Ġanxious": 3556,
      "Ġsymbol": 3557,
      "Ġviolin": 3558,
      "known": 3559,
      "Ġmushroom": 3560,
      "Ġbarn": 3561,
      "Ġmask": 3562,
      "Ġmem": 3563,
      "Ġlab": 3564,
      "Ġcrow": 3565,
      "Ġcarrying": 3566,
      "Ġsurrender": 3567,
      "Ġdecorate": 3568,
      "Ġmovie": 3569,
      "Ġhelmet": 3570,
      "ĠSmith": 3571,
      "Ġgorilla": 3572,
      "Ġtur": 3573,
      "Ġtoil": 3574,
      "Ġhedge": 3575,
      "Ġhalf": 3576,
      "anny": 3577,
      "ĠBuddy": 3578,
      "Ġscatter": 3579,
      "Ġnicely": 3580,
      "Ġending": 3581,
      "Ġbrighter": 3582,
      "Ġshells": 3583,
      "Ġpilot": 3584,
      "Ġzipper": 3585,
      "Ġumbrella": 3586,
      "Ġsend": 3587,
      "Ġoat": 3588,
      "Ġguit": 3589,
      "Ġbeep": 3590,
      "ric": 3591,
      "Ġshield": 3592,
      "tern": 3593,
      "ĠAre": 3594,
      "icop": 3595,
      "used": 3596,
      "Ġholds": 3597,
      "Ġspoke": 3598,
      "Ġparrot": 3599,
      "Ġhelicop": 3600,
      "Ġcushion": 3601,
      "Ġhelicopter": 3602,
      "Ġbicy": 3603,
      "imney": 3604,
      "Ġreco": 3605,
      "Ġchimney": 3606,
      "istent": 3607,
      "Ġpebble": 3608,
      "Ġcooler": 3609,
      "lcano": 3610,
      "Ġpracticed": 3611,
      "Ġstretched": 3612,
      "Ġhunter": 3613,
      "Ġturkey": 3614,
      "gn": 3615,
      "gest": 3616,
      "Ġtire": 3617,
      "Ġwitch": 3618,
      "Ġharsh": 3619,
      "Ġped": 3620,
      "Ġpump": 3621,
      "Ġoak": 3622,
      "Ġyawn": 3623,
      "Ġshiver": 3624,
      "Ġneat": 3625,
      "Ġbiggest": 3626,
      "Ġimpat": 3627,
      "Ġshouts": 3628,
      "Ġcreatures": 3629,
      "Ġstirred": 3630,
      "Ġcompassionate": 3631,
      "ience": 3632,
      "rn": 3633,
      "under": 3634,
      "Ġscrew": 3635,
      "ĠDave": 3636,
      "Ġpole": 3637,
      "Ġanywhere": 3638,
      "Ġforgave": 3639,
      "Ġpiano": 3640,
      "Ġneighbour": 3641,
      "Ġplaced": 3642,
      "Ġattractive": 3643,
      "Ġimpatient": 3644,
      "Give": 3645,
      "ikes": 3646,
      "Ġfat": 3647,
      "htub": 3648,
      "ĠMike": 3649,
      "Ġcane": 3650,
      "Ġtray": 3651,
      "Ġneedle": 3652,
      "Ġsnuggled": 3653,
      "Ġunknown": 3654,
      "Ġjolly": 3655,
      "Ġpulls": 3656,
      "Ġdrawer": 3657,
      "Ġbehave": 3658,
      "Ġshoe": 3659,
      "ĠKim": 3660,
      "Ġsailor": 3661,
      "Ġwheels": 3662,
      "Ġenth": 3663,
      "cycle": 3664,
      "Alice": 3665,
      "ĠSnowy": 3666,
      "gs": 3667,
      "noon": 3668,
      "ĠU": 3669,
      "Ġahead": 3670,
      "Ġbent": 3671,
      "Ġmill": 3672,
      "Ġthunder": 3673,
      "iron": 3674,
      "ĠHere": 3675,
      "aled": 3676,
      "Ġgoal": 3677,
      "Ġvine": 3678,
      "Ġafternoon": 3679,
      "Ġpainter": 3680,
      "Ġfireman": 3681,
      "Ġbandage": 3682,
      "Ġbathtub": 3683,
      "Ġspeed": 3684,
      "Ġtoilet": 3685,
      "Yay": 3686,
      "cream": 3687,
      "ocer": 3688,
      "Ġshark": 3689,
      "Ġbeauty": 3690,
      "Ġjumps": 3691,
      "Ġgloomy": 3692,
      "ips": 3693,
      "Ġpattern": 3694,
      "hinocer": 3695,
      "Ġtwirled": 3696,
      "ophie": 3697,
      "Ġjacket": 3698,
      "Ġbicycle": 3699,
      "Ġenthus": 3700,
      "hinoceros": 3701,
      "Mary": 3702,
      "ron": 3703,
      "ses": 3704,
      "Ġten": 3705,
      "Ġgym": 3706,
      "Ġnail": 3707,
      "Ġshine": 3708,
      "Ġseco": 3709,
      "ices": 3710,
      "Ġcreate": 3711,
      "ĠGeorge": 3712,
      "Ġcourage": 3713,
      "Ġcrane": 3714,
      "Ġtrick": 3715,
      "Ġbutterflies": 3716,
      "Ġpretending": 3717,
      "Ġswinging": 3718,
      "Ġdriving": 3719,
      "ĠGrandpa": 3720,
      "Ġmonkeys": 3721,
      "Ġcere": 3722,
      "ffee": 3723,
      "Ġrecogn": 3724,
      "Ġsecond": 3725,
      "..": 3726,
      "af": 3727,
      "hood": 3728,
      "Ġitself": 3729,
      "Ġshort": 3730,
      "Ġputting": 3731,
      "Ġcats": 3732,
      "Ġbrace": 3733,
      "Ġglove": 3734,
      "Ġuncle": 3735,
      "ĠRosie": 3736,
      "Ġpup": 3737,
      "Ġpersistent": 3738,
      "Ġdistant": 3739,
      "Ġgiggle": 3740,
      "iskers": 3741,
      "Ġbeetle": 3742,
      "Ġguitar": 3743,
      "cast": 3744,
      "Ġhook": 3745,
      "Ġoy": 3746,
      "imi": 3747,
      "Ġink": 3748,
      "Ġrhinoceros": 3749,
      "Ġshel": 3750,
      "Ġshaking": 3751,
      "ĠAlex": 3752,
      "Ġhelpless": 3753,
      "ummer": 3754,
      "Ġfinds": 3755,
      "Ġtear": 3756,
      "Ġbadly": 3757,
      "ĠPapa": 3758,
      "Ġjokes": 3759,
      "aches": 3760,
      "Ġvolcano": 3761,
      "Ġsticker": 3762,
      "Ġbarks": 3763,
      "Ġradio": 3764,
      "Ġwishes": 3765,
      "ef": 3766,
      "Ġsize": 3767,
      "Ġdess": 3768,
      "erable": 3769,
      "Ġnote": 3770,
      "ills": 3771,
      "urb": 3772,
      "ĠJerry": 3773,
      "ĠEventually": 3774,
      "ĠElla": 3775,
      "Ġtap": 3776,
      "Ġener": 3777,
      "ĠcouldnÃ¢": 3778,
      "Ġcompl": 3779,
      "Ġquite": 3780,
      "Ġtrap": 3781,
      "Ġlions": 3782,
      "Ġcupboard": 3783,
      "Ġtreasures": 3784,
      "Ġpasta": 3785,
      "Ġdisturb": 3786,
      "Ġletters": 3787,
      "Little": 3788,
      "gen": 3789,
      "year": 3790,
      "Ġsink": 3791,
      "Ġfort": 3792,
      "Ġshut": 3793,
      "Ġrose": 3794,
      "ĠWhere": 3795,
      "Ġgrapes": 3796,
      "Ġdishes": 3797,
      "Ġsandcast": 3798,
      "Ġtricks": 3799,
      "ĠKate": 3800,
      "Ġpopular": 3801,
      "Ġfearful": 3802,
      "Ġriding": 3803,
      "Ġlibrary": 3804,
      "Ġmiserable": 3805,
      "shed": 3806,
      "te": 3807,
      "uth": 3808,
      "ckey": 3809,
      "seum": 3810,
      "Ġscold": 3811,
      "Ġroared": 3812,
      "Ġcoffee": 3813,
      "Ġsadly": 3814,
      "Ġlaund": 3815,
      "ĠLola": 3816,
      "Ġholes": 3817,
      "Ġhockey": 3818,
      "Ġraven": 3819,
      "Ġappl": 3820,
      "Ġmixer": 3821,
      "Ġtroubled": 3822,
      "ailable": 3823,
      "Ġsilver": 3824,
      "Ġdessert": 3825,
      "Ġbet": 3826,
      "ites": 3827,
      "Ġpad": 3828,
      "Ġpine": 3829,
      "Ġpage": 3830,
      "Ġgira": 3831,
      "Ġrag": 3832,
      "Ġshade": 3833,
      "Ġkay": 3834,
      "illie": 3835,
      "Ġpeek": 3836,
      "Ġclimbing": 3837,
      "ĠGive": 3838,
      "Ġzeb": 3839,
      "Ġpoint": 3840,
      "ggy": 3841,
      "Ġcups": 3842,
      "Ġavailable": 3843,
      "Grandma": 3844,
      "Ġcompetitive": 3845,
      "Ġzebra": 3846,
      "ci": 3847,
      "ubby": 3848,
      "Ġhut": 3849,
      "anic": 3850,
      "Ġins": 3851,
      "Ġstared": 3852,
      "Ġjet": 3853,
      "ĠWould": 3854,
      "Ġmuseum": 3855,
      "Ġchance": 3856,
      "Ġchubby": 3857,
      "Ġstrugg": 3858,
      "Ġmessage": 3859,
      "Ġvisited": 3860,
      "Ġcereal": 3861,
      "Ġlaundry": 3862,
      "Bye": 3863,
      "Because": 3864,
      "Ġfurt": 3865,
      "arry": 3866,
      "ĠSh": 3867,
      "chanic": 3868,
      "ĠMark": 3869,
      "Ġreef": 3870,
      "Ġboots": 3871,
      "Ġmechanic": 3872,
      "ucked": 3873,
      "Ġanyway": 3874,
      "uct": 3875,
      "Ġnowhere": 3876,
      "Ġdeaf": 3877,
      "Ġrubb": 3878,
      "Ġshopkeeper": 3879,
      "Ġgrabs": 3880,
      "Ġadmire": 3881,
      "Ġsupport": 3882,
      "Ġsteps": 3883,
      "Ġmotorcycle": 3884,
      "lb": 3885,
      "Ġiron": 3886,
      "Ġaw": 3887,
      "Ġsummer": 3888,
      "Ġwife": 3889,
      "Ġfan": 3890,
      "Ġdive": 3891,
      "Ġmild": 3892,
      "Ġeither": 3893,
      "stairs": 3894,
      "Ġspell": 3895,
      "Ġpeach": 3896,
      "Ġbulb": 3897,
      "Ġchecked": 3898,
      "Ġappre": 3899,
      "Ġpapers": 3900,
      "Ġpushes": 3901,
      "ĠJoey": 3902,
      "Ġbounced": 3903,
      "Ġcolours": 3904,
      "Ġfrowned": 3905,
      "Ġsweater": 3906,
      "ibb": 3907,
      "oot": 3908,
      "zzy": 3909,
      "elery": 3910,
      "Ġshadow": 3911,
      "ĠAndy": 3912,
      "Benny": 3913,
      "Ġdisag": 3914,
      "Ġsoftly": 3915,
      "ĠGrace": 3916,
      "Ġgifted": 3917,
      "Ġspinning": 3918,
      "Ġstretch": 3919,
      "Ġspeak": 3920,
      "Ġmodest": 3921,
      "ĠBrownie": 3922,
      "ĠMaria": 3923,
      "Ġfurther": 3924,
      "Ġappreci": 3925,
      "ccol": 3926,
      "Ġpun": 3927,
      "ooped": 3928,
      "Ġstack": 3929,
      "Ġbackpack": 3930,
      "Ġclapping": 3931,
      "Ġtruth": 3932,
      "Ġcheek": 3933,
      "Ġgiven": 3934,
      "Ġorganize": 3935,
      "ccoli": 3936,
      "ĠTr": 3937,
      "ĠTony": 3938,
      "ceed": 3939,
      "Ġreve": 3940,
      "Ġhanded": 3941,
      "Ġorder": 3942,
      "Ġbubble": 3943,
      "sely": 3944,
      "Ġart": 3945,
      "Ġdancer": 3946,
      "Ġbreaks": 3947,
      "Ġlands": 3948,
      "Ġchickens": 3949,
      "Ġbracelet": 3950,
      "eath": 3951,
      "Ġsent": 3952,
      "Ġwool": 3953,
      "Ġdough": 3954,
      "Ġmen": 3955,
      "Ġsaus": 3956,
      "Ġslipp": 3957,
      "Ġteleph": 3958,
      "Ġhoping": 3959,
      "Ġcountry": 3960,
      "Ġjourn": 3961,
      "Ġtelephone": 3962,
      "night": 3963,
      "erc": 3964,
      "orable": 3965,
      "Ġhappier": 3966,
      "ĠMimi": 3967,
      "play": 3968,
      "Ġtrack": 3969,
      "Ġpushing": 3970,
      "Ġwallet": 3971,
      "ĠRemy": 3972,
      "Ġcartoon": 3973,
      "Ġsalt": 3974,
      "Ġsneak": 3975,
      "Ġrepair": 3976,
      "ĠWhiskers": 3977,
      "Ġcurt": 3978,
      "Ġol": 3979,
      "arnt": 3980,
      "irit": 3981,
      "Ġhadn": 3982,
      "Ġlearnt": 3983,
      "Ġswamp": 3984,
      "Ġclosely": 3985,
      "Ġdisplay": 3986,
      "ĠRo": 3987,
      "Ġstuffed": 3988,
      "Ġdrops": 3989,
      "Ġrescue": 3990,
      "Ġcomplete": 3991,
      "Ġjournal": 3992,
      "Ġcurtain": 3993,
      "loe": 3994,
      "ser": 3995,
      "ĠHelp": 3996,
      "stic": 3997,
      "Ġstarting": 3998,
      "Ġopera": 3999,
      "ĠEverything": 4000,
      "Ġquar": 4001,
      "Ġadorable": 4002,
      "Ġbroccoli": 4003,
      "Ġdrawings": 4004,
      "Ġtripped": 4005,
      "Ġprov": 4006,
      "Ġincl": 4007,
      "Ġsucceed": 4008,
      "Ġtemp": 4009,
      "Ġtorn": 4010,
      "inking": 4011,
      "Ġpony": 4012,
      "ĠSandy": 4013,
      "any": 4014,
      "Ġexerc": 4015,
      "iastic": 4016,
      "Ġshouldn": 4017,
      "Ġrestless": 4018,
      "Ġmistakes": 4019,
      "Ġpirates": 4020,
      "Ġenthusiastic": 4021,
      "Ġkayak": 4022,
      "cut": 4023,
      "iest": 4024,
      "heart": 4025,
      "Ġlid": 4026,
      "Ġcelery": 4027,
      "Ġpor": 4028,
      "ison": 4029,
      "Ġweep": 4030,
      "ents": 4031,
      "Ġspirit": 4032,
      "Ġraft": 4033,
      "Ġpressed": 4034,
      "Ġrolling": 4035,
      "Ġpaws": 4036,
      "Ġlemonade": 4037,
      "Ġfilthy": 4038,
      "Jenny": 4039,
      "Ġpowder": 4040,
      "Ġbikes": 4041,
      "Ġfive": 4042,
      "Ġgolf": 4043,
      "Ġallig": 4044,
      "Ġmeat": 4045,
      "Ġmeas": 4046,
      "Ġmuff": 4047,
      "Ġended": 4048,
      "Ġairport": 4049,
      "Ġthrowing": 4050,
      "was": 4051,
      "inarian": 4052,
      "Ġlang": 4053,
      "Ġdust": 4054,
      "Ġpair": 4055,
      "arm": 4056,
      "Ġnoteb": 4057,
      "Ġreward": 4058,
      "Ġknot": 4059,
      "Ġknob": 4060,
      "Ġsomewhere": 4061,
      "aud": 4062,
      "astic": 4063,
      "Ġsandbox": 4064,
      "Ġfalling": 4065,
      "Ġsplit": 4066,
      "Ġpolish": 4067,
      "eterinarian": 4068,
      "Ġexper": 4069,
      "Ġhuman": 4070,
      "Ġdishwas": 4071,
      "Ġfishing": 4072,
      "Ġlangu": 4073,
      "Ġnotebook": 4074,
      "Ġdishwasher": 4075,
      "Ġtheater": 4076,
      "Ġwags": 4077,
      "Ġlend": 4078,
      "Ġcomet": 4079,
      "kelet": 4080,
      "Ġonion": 4081,
      "Ġweather": 4082,
      "Ġkitty": 4083,
      "Ġseal": 4084,
      "Ġveterinarian": 4085,
      "ĠdonÃ¢": 4086,
      "Ġcryst": 4087,
      "Ġraining": 4088,
      "Ġfrogs": 4089,
      "Ġsmells": 4090,
      "Ġmarched": 4091,
      "Ġdiary": 4092,
      "Ġsupply": 4093,
      "Ġbalanc": 4094,
      "Ġcooked": 4095,
      "par": 4096,
      "Ġthread": 4097,
      "una": 4098,
      "Ġsepar": 4099,
      "Ġdiscu": 4100,
      "Ġcounter": 4101,
      "ctory": 4102,
      "Ġobser": 4103,
      "Ġcrib": 4104,
      "Ġleaned": 4105,
      "Ġfuel": 4106,
      "Ġavoc": 4107,
      "Ġenergy": 4108,
      "Ġapplaud": 4109,
      "bor": 4110,
      "Ġhall": 4111,
      "ĠWill": 4112,
      "Ġfactory": 4113,
      "Ġswung": 4114,
      "bbie": 4115,
      "Ġsort": 4116,
      "Ġunh": 4117,
      "Ġsquash": 4118,
      "Ġthrows": 4119,
      "Ġshrimp": 4120,
      "Ġpinch": 4121,
      "Ġinsist": 4122,
      "If": 4123,
      "aked": 4124,
      "ges": 4125,
      "gie": 4126,
      "Ġskelet": 4127,
      "Ġfle": 4128,
      "Ġluck": 4129,
      "une": 4130,
      "Ġchirp": 4131,
      "Ġframe": 4132,
      "Ġthanks": 4133,
      "Ġvend": 4134,
      "Ġpaid": 4135,
      "Ġjeep": 4136,
      "Ġaccepted": 4137,
      "Ġunlock": 4138,
      "Ġbaseball": 4139,
      "Ġslippery": 4140,
      "Ġalligator": 4141,
      "Ġfurn": 4142,
      "iture": 4143,
      "Ġwaste": 4144,
      "ĠitÃ¢": 4145,
      "Ġthumb": 4146,
      "Ġribb": 4147,
      "hero": 4148,
      "Ġnobody": 4149,
      "Ġflies": 4150,
      "ĠdidnÃ¢": 4151,
      "Ġshoulder": 4152,
      "Ġuniver": 4153,
      "Ġfields": 4154,
      "Ġattach": 4155,
      "Ġnapkin": 4156,
      "Ġbelongs": 4157,
      "Ġzoomed": 4158,
      "Ġwipe": 4159,
      "Ġharbor": 4160,
      "Ġvalue": 4161,
      "Ġcostume": 4162,
      "Ġphoto": 4163,
      "Ġsuperhero": 4164,
      "Ġquarrel": 4165,
      "Ġfurniture": 4166,
      "bul": 4167,
      "come": 4168,
      "lid": 4169,
      "Ġants": 4170,
      "Ġsle": 4171,
      "edy": 4172,
      "Ġmama": 4173,
      "iling": 4174,
      "Ġrot": 4175,
      "Ġalarm": 4176,
      "Ġfauc": 4177,
      "Ġsweetheart": 4178,
      "Ġmarry": 4179,
      "Ġwinter": 4180,
      "Together": 4181,
      "Ġpenguin": 4182,
      "Ġoyster": 4183,
      "Ġfaucet": 4184,
      "tress": 4185,
      "Ġtherm": 4186,
      "ĠSee": 4187,
      "Ġstom": 4188,
      "Ġplayer": 4189,
      "ĠBet": 4190,
      "icer": 4191,
      "ometer": 4192,
      "place": 4193,
      "Ġvide": 4194,
      "Ġfeelings": 4195,
      "ÅĵYou": 4196,
      "Ġcube": 4197,
      "Ġmattress": 4198,
      "Ġpresents": 4199,
      "Ġimagination": 4200,
      "Ġapologized": 4201,
      "Ġimprove": 4202,
      "âĤ¬âĢľ": 4203,
      "Ġporch": 4204,
      "Ġskeleton": 4205,
      "Ġthermometer": 4206,
      "lass": 4207,
      "nam": 4208,
      "Ġsir": 4209,
      "chair": 4210,
      "ores": 4211,
      "Ġholid": 4212,
      "Ġpear": 4213,
      "Ġgrin": 4214,
      "TMm": 4215,
      "Ġfollows": 4216,
      "Ġhaircut": 4217,
      "Ġregret": 4218,
      "Ġsoldier": 4219,
      "ween": 4220,
      "Ġwaffle": 4221,
      "Ġshelter": 4222,
      "Ġbetween": 4223,
      "Ġunhappy": 4224,
      "Ġvendor": 4225,
      "Ġholiday": 4226,
      "Ann": 4227,
      "ube": 4228,
      "Ġcree": 4229,
      "Ġherb": 4230,
      "utty": 4231,
      "ĠBaby": 4232,
      "Ġshakes": 4233,
      "Ġknown": 4234,
      "Ġpoem": 4235,
      "Ġlotion": 4236,
      "Ġornam": 4237,
      "Ġfog": 4238,
      "ected": 4239,
      "Ġpoints": 4240,
      "ups": 4241,
      "Ġbarking": 4242,
      "Everyone": 4243,
      "Ġcelebrated": 4244,
      "arlie": 4245,
      "Ġglowing": 4246,
      "Ġyoga": 4247,
      "Ġcreek": 4248,
      "az": 4249,
      "ium": 4250,
      "scope": 4251,
      "Ġtut": 4252,
      "Ġpra": 4253,
      "Ġgro": 4254,
      "stead": 4255,
      "ĠBear": 4256,
      "Ġseas": 4257,
      "roscope": 4258,
      "Ġpoked": 4259,
      "Ġsung": 4260,
      "Ġbuzz": 4261,
      "reeze": 4262,
      "Ġfiref": 4263,
      "Ġpress": 4264,
      "Ġarmchair": 4265,
      "Ġchairs": 4266,
      "Ġpassport": 4267,
      "Inside": 4268,
      "Ġflutter": 4269,
      "Ġgolden": 4270,
      "Ġmicroscope": 4271,
      "Ġcabinet": 4272,
      "Daisy": 4273,
      "azz": 4274,
      "inked": 4275,
      "Ġmath": 4276,
      "Ġpand": 4277,
      "Ġpipe": 4278,
      "Ġmule": 4279,
      "Ġcham": 4280,
      "Ġsunset": 4281,
      "Ġexplain": 4282,
      "ĠPat": 4283,
      "Ġimagine": 4284,
      "Ġcows": 4285,
      "Ġsplashing": 4286,
      "Ġcherry": 4287,
      "Ġprepare": 4288,
      "Fl": 4289,
      "Next": 4290,
      "Ġble": 4291,
      "Ġbur": 4292,
      "Ġpur": 4293,
      "ĠTed": 4294,
      "Ġsoil": 4295,
      "Ġhelper": 4296,
      "Ġworth": 4297,
      "Ġevening": 4298,
      "ĠNext": 4299,
      "Ġperfectly": 4300,
      "Ġattention": 4301,
      "Ġfolder": 4302,
      "Ġburned": 4303,
      "Ġstraight": 4304,
      "Ġexamine": 4305,
      "Ch": 4306,
      "drobe": 4307,
      "ues": 4308,
      "Ġtube": 4309,
      "Ġcase": 4310,
      "ense": 4311,
      "Ġyach": 4312,
      "rich": 4313,
      "Ġplays": 4314,
      "Ġrever": 4315,
      "Ġmakeup": 4316,
      "Ġvroom": 4317,
      "ionary": 4318,
      "Ġtriang": 4319,
      "Ġlightning": 4320,
      "Ġpetals": 4321,
      "ipping": 4322,
      "Ġwardrobe": 4323,
      "Ġapron": 4324,
      "Ġlively": 4325,
      "ĠAnnie": 4326,
      "ĠBuzz": 4327,
      "Ġrelaxed": 4328,
      "achel": 4329,
      "Ġscolded": 4330,
      "lasses": 4331,
      "Ġsunglasses": 4332,
      "Ġsuff": 4333,
      "Ġost": 4334,
      "ising": 4335,
      "ĠSophie": 4336,
      "ĠBill": 4337,
      "ĠBunny": 4338,
      "Ġlives": 4339,
      "fume": 4340,
      "Ġspade": 4341,
      "Ġnews": 4342,
      "Ġblinked": 4343,
      "Ġgreedy": 4344,
      "Ġhopes": 4345,
      "Ġfireplace": 4346,
      "Ġperfume": 4347,
      "Ġparent": 4348,
      "Ġelephants": 4349,
      "Ġeagerly": 4350,
      "Ġblowing": 4351,
      "ictionary": 4352,
      "Ġgiraffe": 4353,
      "Ġyacht": 4354,
      "ah": 4355,
      "ives": 4356,
      "lier": 4357,
      "Ġig": 4358,
      "Ġtub": 4359,
      "Ġdictionary": 4360,
      "Ġoil": 4361,
      "Ġweigh": 4362,
      "Ġhappens": 4363,
      "Ġisn": 4364,
      "aggie": 4365,
      "inky": 4366,
      "Ġwriting": 4367,
      "Ġunif": 4368,
      "Ġtrail": 4369,
      "ĠRu": 4370,
      "Ġambul": 4371,
      "Ġcreated": 4372,
      "Ġcomput": 4373,
      "Ġsigns": 4374,
      "Ġbasketball": 4375,
      "Ġsprayed": 4376,
      "Ġbricks": 4377,
      "Ġrepeat": 4378,
      "Ġostrich": 4379,
      "Ġigloo": 4380,
      "Ġambulance": 4381,
      "Jim": 4382,
      "ait": 4383,
      "ccer": 4384,
      "ler": 4385,
      "rs": 4386,
      "sit": 4387,
      "Ġtucked": 4388,
      "Ġpalm": 4389,
      "Ġinf": 4390,
      "Ġyield": 4391,
      "Ġsoccer": 4392,
      "Your": 4393,
      "Ġswitch": 4394,
      "rod": 4395,
      "Ġintrod": 4396,
      "Ġshower": 4397,
      "Ġskills": 4398,
      "Ġdelay": 4399,
      "ngth": 4400,
      "anges": 4401,
      "Ġspoons": 4402,
      "Ġsub": 4403,
      "Ġstrength": 4404,
      "Ġwhistling": 4405,
      "ĠGod": 4406,
      "Ġtrusted": 4407,
      "Ġhanging": 4408,
      "ĠBubbles": 4409,
      "Ġrefre": 4410,
      "Ġpumpkin": 4411,
      "Ġsandcastle": 4412,
      "Ġcrystal": 4413,
      "Ġtutor": 4414,
      "Ġuniform": 4415,
      "tain": 4416,
      "Ġsigh": 4417,
      "Ġberry": 4418,
      "Ġcaul": 4419,
      "aring": 4420,
      "ĠIÃ¢": 4421,
      "Ġreaches": 4422,
      "Ġclub": 4423,
      "Ġclaw": 4424,
      "ifl": 4425,
      "Ġflapped": 4426,
      "Ġpoke": 4427,
      "mand": 4428,
      "izes": 4429,
      "aces": 4430,
      "Ġappro": 4431,
      "Ġbaking": 4432,
      "Ġsailing": 4433,
      "Ġsquirrels": 4434,
      "Ġpuddles": 4435,
      "ĠOr": 4436,
      "Ġminute": 4437,
      "Ġsneeze": 4438,
      "Emma": 4439,
      "Ġcaulifl": 4440,
      "rise": 4441,
      "yer": 4442,
      "Ġfought": 4443,
      "enry": 4444,
      "Ġlicks": 4445,
      "chie": 4446,
      "Ġrequ": 4447,
      "urch": 4448,
      "Ġseeing": 4449,
      "ases": 4450,
      "Ġbelow": 4451,
      "Ġforgotten": 4452,
      "Ġfallen": 4453,
      "Ġwelcomed": 4454,
      "Ġceiling": 4455,
      "Ġbathe": 4456,
      "Ġbouncing": 4457,
      "Ġkingdom": 4458,
      "Ġkisses": 4459,
      "Ġserve": 4460,
      "Ġcrossed": 4461,
      "Ġwandered": 4462,
      "Ġbreathe": 4463,
      "Ġbeans": 4464,
      "Ġbreeze": 4465,
      "Ġlumber": 4466,
      "Ġport": 4467,
      "omes": 4468,
      "Ġnation": 4469,
      "ories": 4470,
      "Ġstro": 4471,
      "unately": 4472,
      "Ġlie": 4473,
      "icle": 4474,
      "Ġalive": 4475,
      "ssible": 4476,
      "Ġmyself": 4477,
      "Ġstruc": 4478,
      "Ġoffer": 4479,
      "Ġtelev": 4480,
      "Ġhurting": 4481,
      "Thanks": 4482,
      "Ġmagaz": 4483,
      "ĠInstead": 4484,
      "Ġstud": 4485,
      "Ġearlier": 4486,
      "Today": 4487,
      "Ġpeanuts": 4488,
      "Ġshooting": 4489,
      "Ġlawyer": 4490,
      "Ġflea": 4491,
      "Ġstructure": 4492,
      "Ġtelevision": 4493,
      "Qu": 4494,
      "men": 4495,
      "ring": 4496,
      "Ġmention": 4497,
      "Ġstad": 4498,
      "Ġplates": 4499,
      "Ġplastic": 4500,
      "allow": 4501,
      "indy": 4502,
      "Ġspear": 4503,
      "Ġnovel": 4504,
      "Ġscoot": 4505,
      "Ġagre": 4506,
      "Ġrooms": 4507,
      "Ġbury": 4508,
      "Ġbears": 4509,
      "ction": 4510,
      "Ġraise": 4511,
      "Ġshouting": 4512,
      "ĠNutty": 4513,
      "Ġdressed": 4514,
      "Ġcrash": 4515,
      "Ġshovel": 4516,
      "Ġjudge": 4517,
      "Ġgrowled": 4518,
      "Ġblankets": 4519,
      "Ġquietly": 4520,
      "Ġbananas": 4521,
      "Ġargue": 4522,
      "Ġexercise": 4523,
      "Ġcauliflower": 4524,
      "Ġstadium": 4525,
      "Is": 4526,
      "Ġwigg": 4527,
      "Ġrise": 4528,
      "Ġsunrise": 4529,
      "Ġquit": 4530,
      "Ġquiz": 4531,
      "ĠCo": 4532,
      "Ġdoors": 4533,
      "Ġjogging": 4534,
      "Ġamazement": 4535,
      "Ġsticky": 4536,
      "Ġmarried": 4537,
      "Ġsurround": 4538,
      "Ġtuna": 4539,
      "Ġwhisper": 4540,
      "Ġspending": 4541,
      "Ġcherries": 4542,
      "Ġsubway": 4543,
      "Did": 4544,
      "Peter": 4545,
      "Will": 4546,
      "Ġcared": 4547,
      "Ġmug": 4548,
      "Ġlick": 4549,
      "Ġvet": 4550,
      "Ġkneel": 4551,
      "Ġskull": 4552,
      "Ġburied": 4553,
      "ĠPaul": 4554,
      "Ġdear": 4555,
      "Ġfirework": 4556,
      "Ġpuzzles": 4557,
      "Ġadmir": 4558,
      "Ġworms": 4559,
      "Ġshrugged": 4560,
      "ĠChloe": 4561,
      "Ġurge": 4562,
      "Ġlanguage": 4563,
      "Ġchamber": 4564,
      "Sh": 4565,
      "vet": 4566,
      "Ġsince": 4567,
      "ito": 4568,
      "Ġcable": 4569,
      "Ġleak": 4570,
      "Ġflame": 4571,
      "ĠLuna": 4572,
      "Ġchalk": 4573,
      "Ġchurch": 4574,
      "Ġdoggy": 4575,
      "Ġheads": 4576,
      "Ġfloated": 4577,
      "Ġgifts": 4578,
      "Ġbarrel": 4579,
      "Ġsprink": 4580,
      "Ġclassroom": 4581,
      "Ġmodel": 4582,
      "ĠClara": 4583,
      "ÅĵItÃ¢": 4584,
      "Ġmemories": 4585,
      "Ġslept": 4586,
      "eve": 4587,
      "ging": 4588,
      "Ġsizes": 4589,
      "Ġsaving": 4590,
      "ĠSu": 4591,
      "ĠIs": 4592,
      "ĠJul": 4593,
      "Ġcaring": 4594,
      "ĠEllie": 4595,
      "Ġpopped": 4596,
      "Ġwrites": 4597,
      "Ġmatches": 4598,
      "Ġmusician": 4599,
      "Ġeasier": 4600,
      "Ġeagle": 4601,
      "Ġshrink": 4602,
      "Ġsqueeze": 4603,
      "Ġscratch": 4604,
      "Ġcomplain": 4605,
      "Ġappreciate": 4606,
      "Ġsausage": 4607,
      "Ġpraised": 4608,
      "Ġtriangle": 4609,
      "'.": 4610,
      "Ġlect": 4611,
      "Ġpit": 4612,
      "hter": 4613,
      "asc": 4614,
      "Ġcoal": 4615,
      "Ġlaughter": 4616,
      "Ġgrill": 4617,
      "Ġglo": 4618,
      "Ġblueberries": 4619,
      "Ġfollowing": 4620,
      "Ġwarmth": 4621,
      "Ġfloat": 4622,
      "Ġfloating": 4623,
      "Ġprevent": 4624,
      "Ġinstr": 4625,
      "Ġmissile": 4626,
      "Ġmailman": 4627,
      "Ġignored": 4628,
      "Ġyawned": 4629,
      "Ġlecture": 4630,
      "ab": 4631,
      "nies": 4632,
      "nger": 4633,
      "ĠV": 4634,
      "Ġsings": 4635,
      "Ġtoes": 4636,
      "Ġdaisy": 4637,
      "ero": 4638,
      "These": 4639,
      "Ġsport": 4640,
      "Ġrod": 4641,
      "âĤ¬.": 4642,
      "Ġtrade": 4643,
      "Ġmoves": 4644,
      "Ġquack": 4645,
      "Ġjogged": 4646,
      "Ġsetting": 4647,
      "Ġtaller": 4648,
      "Ġcastles": 4649,
      "Ġblackboard": 4650,
      "Ġdisappear": 4651,
      "Ġburning": 4652,
      "Ġcaptain": 4653,
      "Ġsettled": 4654,
      "Ġseparate": 4655,
      "cc": 4656,
      "zor": 4657,
      "Ġwine": 4658,
      "Ġwaving": 4659,
      "Ġpal": 4660,
      "Ġemer": 4661,
      "Ġbeamed": 4662,
      "Ġsore": 4663,
      "herman": 4664,
      "ĠMilly": 4665,
      "Ġlawn": 4666,
      "estig": 4667,
      "Ġrazor": 4668,
      "Ġhills": 4669,
      "Ġairpl": 4670,
      "Ġhearts": 4671,
      "Ġpastel": 4672,
      "Ġinvestig": 4673,
      "Ġapart": 4674,
      "Ġcircus": 4675,
      "Daddy": 4676,
      "Ġfisherman": 4677,
      "Ġsniffed": 4678,
      "Ġavocado": 4679,
      "Ġpanda": 4680,
      "Ġbleed": 4681,
      "Ġclaws": 4682,
      "Ġgloves": 4683,
      "Ġpalace": 4684,
      "iers": 4685,
      "Ġbother": 4686,
      "Ġcord": 4687,
      "Ġmel": 4688,
      "Ġmall": 4689,
      "Ġitch": 4690,
      "Ġrake": 4691,
      "Ġstitch": 4692,
      "elcome": 4693,
      "Ġlip": 4694,
      "ĠMillie": 4695,
      "Ġboot": 4696,
      "icing": 4697,
      "uckily": 4698,
      "Ġtwink": 4699,
      "Ġskipping": 4700,
      "Ġwatches": 4701,
      "Ġchess": 4702,
      "Ġletting": 4703,
      "Ġunite": 4704,
      "Ġrabbits": 4705,
      "Sammy": 4706,
      "ĠKat": 4707,
      "Ġeasily": 4708,
      "Ġcollected": 4709,
      "Ġringing": 4710,
      "Ġticket": 4711,
      "Ġjewelry": 4712,
      "Ġcuddled": 4713,
      "Ġstrawberries": 4714,
      "ĠFreddy": 4715,
      "Ġvideo": 4716,
      "Ġcomputer": 4717,
      "'ve": 4718,
      "ived": 4719,
      "right": 4720,
      "Ġachie": 4721,
      "Ġtore": 4722,
      "Ġfasc": 4723,
      "Ġgust": 4724,
      "Ġgear": 4725,
      "ĠHave": 4726,
      "Ġequ": 4727,
      "Ġspit": 4728,
      "Ġprop": 4729,
      "Ġcalls": 4730,
      "Ġfastest": 4731,
      "Ġsurprises": 4732,
      "Ġfreez": 4733,
      "Ġmedal": 4734,
      "Ġdestroyed": 4735,
      "Ġmagazine": 4736,
      "bers": 4737,
      "mother": 4738,
      "Ġsi": 4739,
      "Ġlime": 4740,
      "Ġpages": 4741,
      "htray": 4742,
      "Ġashtray": 4743,
      "Ġjazz": 4744,
      "Ġslip": 4745,
      "Ġblueberry": 4746,
      "Ġpaused": 4747,
      "Ġpillows": 4748,
      "Ġdestination": 4749,
      "Ġradish": 4750,
      "Ġreceive": 4751,
      "Ġinclud": 4752,
      "Ġfirefight": 4753,
      "Ġapproached": 4754,
      "Or": 4755,
      "sing": 4756,
      "Ġtide": 4757,
      "Ġtong": 4758,
      "Ġdare": 4759,
      "Ġwashing": 4760,
      "Ġsocks": 4761,
      "raged": 4762,
      "ĠWho": 4763,
      "Ġagree": 4764,
      "Ġcob": 4765,
      "ĠDanny": 4766,
      "ĠFro": 4767,
      "ĠJoy": 4768,
      "Ġkeeping": 4769,
      "Ġtrave": 4770,
      "TMre": 4771,
      "Ġdifferen": 4772,
      "Ġparts": 4773,
      "Ġsoldiers": 4774,
      "Ġcrawling": 4775,
      "omeday": 4776,
      "Ġprovide": 4777,
      "Ġgrinned": 4778,
      "Ġinfant": 4779,
      "Ġinvestigate": 4780,
      "Eventually": 4781,
      "Wait": 4782,
      "ĊĠ": 4783,
      "Ġaut": 4784,
      "Ġelev": 4785,
      "Ġweap": 4786,
      "Ġjail": 4787,
      "Ġscore": 4788,
      "Ġpoison": 4789,
      "Ġslice": 4790,
      "Ġheaded": 4791,
      "Ġspots": 4792,
      "Ġunderstanding": 4793,
      "Ġdecorations": 4794,
      "Ġprayed": 4795,
      "Ġweeks": 4796,
      "Ġsqueezed": 4797,
      "Ġbumped": 4798,
      "Ġelevator": 4799,
      "mm": 4800,
      "osed": 4801,
      "Ġtug": 4802,
      "Ġhomes": 4803,
      "oming": 4804,
      "Ġsheet": 4805,
      "Ġscooped": 4806,
      "quito": 4807,
      "anta": 4808,
      "Ġoranges": 4809,
      "Ġideas": 4810,
      "Ġappear": 4811,
      "ission": 4812,
      "ĠKing": 4813,
      "Ġveh": 4814,
      "fortunately": 4815,
      "Ġcandles": 4816,
      "Ġjellyfish": 4817,
      "Ġyogurt": 4818,
      "Ġscooter": 4819,
      "Ġairplane": 4820,
      "Ġfascin": 4821,
      "Lisa": 4822,
      "Ouch": 4823,
      "Ġhesit": 4824,
      "Ġmitten": 4825,
      "ĠTina": 4826,
      "Ġga": 4827,
      "anna": 4828,
      "Ġinse": 4829,
      "Ġbegged": 4830,
      "Ġweighed": 4831,
      "ĠMandy": 4832,
      "Ġeaten": 4833,
      "Ġdemand": 4834,
      "Ġcrunch": 4835,
      "Ġmoments": 4836,
      "Ġdeeper": 4837,
      "Ġsparkling": 4838,
      "Ġchoice": 4839,
      "Ġbuckle": 4840,
      "Ġinvite": 4841,
      "Ġsolved": 4842,
      "Ġmelted": 4843,
      "Ġstrawberry": 4844,
      "Ġtomatoes": 4845,
      "Ġpermission": 4846,
      "ĠPeople": 4847,
      "ĠUn": 4848,
      "Ġstruggling": 4849,
      "Ġrevealed": 4850,
      "Fluffy": 4851,
      "Ġreverse": 4852,
      "web": 4853,
      "Ġsimp": 4854,
      "Ġsomeday": 4855,
      "Ġdried": 4856,
      "atch": 4857,
      "irped": 4858,
      "Ġshamp": 4859,
      "seek": 4860,
      "ĠAb": 4861,
      "Ġchores": 4862,
      "Ġchirped": 4863,
      "Ġhotel": 4864,
      "Ġguy": 4865,
      "Ġplanes": 4866,
      "Ġmint": 4867,
      "Ġpastry": 4868,
      "Ġmeeting": 4869,
      "Ġignore": 4870,
      "looking": 4871,
      "Ġacorns": 4872,
      "Ġrubber": 4873,
      "Ġpunish": 4874,
      "Ġchirping": 4875,
      "Ġcobweb": 4876,
      "Ġautom": 4877,
      "Ġshampoo": 4878,
      "Tweet": 4879,
      "squito": 4880,
      "Ġlugg": 4881,
      "sters": 4882,
      "Ġmanage": 4883,
      "Ġcopper": 4884,
      "Ġmosquito": 4885,
      "obile": 4886,
      "Ġkindly": 4887,
      "Ġbravely": 4888,
      "ipment": 4889,
      "ĠRachel": 4890,
      "Ġpulling": 4891,
      "ĠFloppy": 4892,
      "Ġrespons": 4893,
      "orses": 4894,
      "Ġinvit": 4895,
      "Ġpatiently": 4896,
      "Ġmystery": 4897,
      "Ġsupposed": 4898,
      "ĠChirp": 4899,
      "Ġearthqu": 4900,
      "Ġmuffin": 4901,
      "Ġdiscuss": 4902,
      "Ġribbon": 4903,
      "Ġrefreshed": 4904,
      "Ġequipment": 4905,
      "Ġautomobile": 4906,
      "Ġluggage": 4907,
      "All": 4908,
      "Would": 4909,
      "case": 4910,
      "lvet": 4911,
      "Ġfile": 4912,
      "Ġlung": 4913,
      "Ġyucky": 4914,
      "ĠIts": 4915,
      "umble": 4916,
      "Ġmeowed": 4917,
      "asis": 4918,
      "Ġblood": 4919,
      "essie": 4920,
      "Ġstrang": 4921,
      "emember": 4922,
      "Ġreplace": 4923,
      "ĠRob": 4924,
      "Johnny": 4925,
      "Ġvelvet": 4926,
      "Ġsparkle": 4927,
      "Ġbelieved": 4928,
      "Ġwarning": 4929,
      "Ġcollecting": 4930,
      "ĠCharlie": 4931,
      "Ġchewed": 4932,
      "Ġreceived": 4933,
      "Ġencouraged": 4934,
      "Ġinsisted": 4935,
      "\",": 4936,
      "Yuck": 4937,
      "iately": 4938,
      "lane": 4939,
      "mend": 4940,
      "xy": 4941,
      "Ġaer": 4942,
      "Ġhorses": 4943,
      "Ġdire": 4944,
      "Ġoasis": 4945,
      "ora": 4946,
      "Ġshed": 4947,
      "alley": 4948,
      "ĠMay": 4949,
      "Ġanch": 4950,
      "Ġroot": 4951,
      "Ġtremb": 4952,
      "embers": 4953,
      "Ġremembers": 4954,
      "Ġclimbs": 4955,
      "Ġbites": 4956,
      "Ġsits": 4957,
      "mediately": 4958,
      "Ġplanted": 4959,
      "Ġenter": 4960,
      "Ġentered": 4961,
      "Ġhurric": 4962,
      "Ġtickets": 4963,
      "Ġpanic": 4964,
      "Ġoats": 4965,
      "ĠTrue": 4966,
      "Ġtemple": 4967,
      "Ġdifference": 4968,
      "Ġweapon": 4969,
      "Ġaerop": 4970,
      "cage": 4971,
      "Ġmass": 4972,
      "ommend": 4973,
      "ishing": 4974,
      "Ġhers": 4975,
      "Ġripped": 4976,
      "Ġrush": 4977,
      "Ġstable": 4978,
      "ĠBun": 4979,
      "ĠJames": 4980,
      "Ġbirdcage": 4981,
      "ĠLilly": 4982,
      "Ġblouse": 4983,
      "Ġvac": 4984,
      "ĠCat": 4985,
      "TMll": 4986,
      "Ġworks": 4987,
      "Ġdresses": 4988,
      "Ġdrinking": 4989,
      "ulu": 4990,
      "Ġcompany": 4991,
      "Ġbeef": 4992,
      "Ġsuitc": 4993,
      "Ġteaching": 4994,
      "Ġcoats": 4995,
      "Ġrecommend": 4996,
      "Ġtwisted": 4997,
      "Ġbrick": 4998,
      "Ġsettle": 4999,
      "Ġrecognized": 5000,
      "Ġdisagreed": 5001,
      "ĠCoco": 5002,
      "Ġearthquake": 5003,
      "xygen": 5004,
      "Ġaeroplane": 5005,
      "Not": 5006,
      "house": 5007,
      "kins": 5008,
      "Ġwaist": 5009,
      "Ġnone": 5010,
      "igail": 5011,
      "Ġweight": 5012,
      "Ġdownstairs": 5013,
      "ĠFo": 5014,
      "antly": 5015,
      "Ġsunlight": 5016,
      "Ġsnapped": 5017,
      "Ġtracks": 5018,
      "osity": 5019,
      "Ġhits": 5020,
      "Ġfreeze": 5021,
      "Ġincre": 5022,
      "ĠOl": 5023,
      "Ġbattery": 5024,
      "Emily": 5025,
      "Ġexperience": 5026,
      "Ġobserve": 5027,
      "Ġadmiring": 5028,
      "Ġstrangers": 5029,
      "Ġanchor": 5030,
      "Ġfut": 5031,
      "enny": 5032,
      "Ġnavy": 5033,
      "ety": 5034,
      "enty": 5035,
      "Ġshot": 5036,
      "Ġjunk": 5037,
      "Ġspaces": 5038,
      "Ġpride": 5039,
      "ĠEach": 5040,
      "aper": 5041,
      "Ġneedles": 5042,
      "Ġtease": 5043,
      "Ġlets": 5044,
      "ÅĵLook": 5045,
      "Ġours": 5046,
      "Ġsteel": 5047,
      "Ġcontinue": 5048,
      "Ġpetted": 5049,
      "Ġmouths": 5050,
      "Ġanswers": 5051,
      "Ġbringing": 5052,
      "laire": 5053,
      "Ġmachines": 5054,
      "Ġsafety": 5055,
      "Ġsliding": 5056,
      "Ġselling": 5057,
      "Ġscattered": 5058,
      "Ġpedal": 5059,
      "Ġneighbourhood": 5060,
      "Ġsuffer": 5061,
      "Ġinsect": 5062,
      "Ġhurricane": 5063,
      "Ġfuture": 5064,
      "zag": 5065,
      "Ġwagging": 5066,
      "Ġchat": 5067,
      "Ġdigg": 5068,
      "Ġoxygen": 5069,
      "Ġeff": 5070,
      "igzag": 5071,
      "Ġsew": 5072,
      "Ġranch": 5073,
      "ĠLiz": 5074,
      "Ġdrain": 5075,
      "Ġdraws": 5076,
      "Ġzipped": 5077,
      "Ġhated": 5078,
      "Ġperfor": 5079,
      "Ġattached": 5080,
      "Ġwarn": 5081,
      "ĠSomeone": 5082,
      "Ġtwigs": 5083,
      "Ġapologize": 5084,
      "Ġsneezed": 5085,
      "ÅĵThatÃ¢": 5086,
      "Ġcartoons": 5087,
      "Ġrequest": 5088,
      "Ġtongue": 5089,
      "nie": 5090,
      "zie": 5091,
      "Ġsip": 5092,
      "Ġsix": 5093,
      "Ġitem": 5094,
      "amb": 5095,
      "Ġsoared": 5096,
      "aded": 5097,
      "Ġnewsp": 5098,
      "ĠLee": 5099,
      "Ġskirt": 5100,
      "ĠJosh": 5101,
      "Ġremained": 5102,
      "ĠGood": 5103,
      "Ġrestore": 5104,
      "avid": 5105,
      "Ġmarching": 5106,
      "Ġgrandmother": 5107,
      "Ġvillag": 5108,
      "Ġguns": 5109,
      "ĠBefore": 5110,
      "Ġrides": 5111,
      "Really": 5112,
      "Ġolive": 5113,
      "ĠChirpy": 5114,
      "Ġdigging": 5115,
      "Ġeffort": 5116,
      "Mandy": 5117,
      "With": 5118,
      "mare": 5119,
      "walk": 5120,
      "ari": 5121,
      "Ġbeg": 5122,
      "Ġlic": 5123,
      "allen": 5124,
      "!\",": 5125,
      "Ġloop": 5126,
      "Ġcliff": 5127,
      "Ġalright": 5128,
      "Ġworse": 5129,
      "Ġvalley": 5130,
      "Ġoper": 5131,
      "xture": 5132,
      "Ġconf": 5133,
      "Ġturning": 5134,
      "ĠSpike": 5135,
      "Ġprinted": 5136,
      "Ġrested": 5137,
      "Ġgrowl": 5138,
      "Ġvisiting": 5139,
      "Ġpastels": 5140,
      "Ġproblems": 5141,
      "Ġpinched": 5142,
      "Before": 5143,
      "ĠSteve": 5144,
      "Ġexamined": 5145,
      "Ġmarbles": 5146,
      "Ġpenguins": 5147,
      "Ġpermit": 5148,
      "Ġsurrounded": 5149,
      "Ġvehicle": 5150,
      "Ġinvitation": 5151,
      "Ġvacation": 5152,
      "Ġvillagers": 5153,
      "Ex": 5154,
      "Susie": 5155,
      "ha": 5156,
      "neath": 5157,
      "Ġbun": 5158,
      "Ġhate": 5159,
      "Ġobe": 5160,
      "Ġrang": 5161,
      "Ġchallen": 5162,
      "Ġgrape": 5163,
      "ĠEveryday": 5164,
      "izing": 5165,
      "Ġsnap": 5166,
      "ÅĵNo": 5167,
      "Ġbookcase": 5168,
      "Ġwherever": 5169,
      "Ġperched": 5170,
      "Ġcutting": 5171,
      "ĠSomething": 5172,
      "Ġneighborhood": 5173,
      "Ġjewels": 5174,
      "ĠFrank": 5175,
      "Ġdisturbed": 5176,
      "Ġtornado": 5177,
      "Ġcrunchy": 5178,
      "Mor": 5179,
      "Ro": 5180,
      "Ġfest": 5181,
      "Ġduring": 5182,
      "ĠSanta": 5183,
      "lee": 5184,
      "ppers": 5185,
      "ĠMaggie": 5186,
      "Ġprune": 5187,
      "ĠLulu": 5188,
      "Ġdecision": 5189,
      "Ġstruggled": 5190,
      "Ġraised": 5191,
      "Ġnightmare": 5192,
      "Ġsecrets": 5193,
      "Ġguessed": 5194,
      "Ġmelon": 5195,
      "Ġfreezer": 5196,
      "Ġlicense": 5197,
      "Moral": 5198,
      "Welcome": 5199,
      "act": 5200,
      "cles": 5201,
      "dam": 5202,
      "fy": 5203,
      "oed": 5204,
      "Ġpanc": 5205,
      "lend": 5206,
      "ĠLater": 5207,
      "isten": 5208,
      "Ġwatered": 5209,
      "Ġoverjoy": 5210,
      "Ġwond": 5211,
      "Ġbeds": 5212,
      "Ġladyb": 5213,
      "Ġcomple": 5214,
      "Ġmustache": 5215,
      "Ġwhistled": 5216,
      "Ġcomforted": 5217,
      "Ġactually": 5218,
      "Ġcuddle": 5219,
      "Ġintroduc": 5220,
      "Ġfascinated": 5221,
      "Ġmassage": 5222,
      "Ġfestiv": 5223,
      "Ġoverjoyed": 5224,
      "!'": 5225,
      "ude": 5226,
      "Ġfed": 5227,
      "Ġrow": 5228,
      "ĠBeth": 5229,
      "Ġscur": 5230,
      "Ġeveryday": 5231,
      "Ġcomfy": 5232,
      "ĠCindy": 5233,
      "Ġimmediately": 5234,
      "Ġbrain": 5235,
      "Ġremain": 5236,
      "Ġcones": 5237,
      "Ġthrilled": 5238,
      "Ġrained": 5239,
      "Ġtalent": 5240,
      "Ġplanet": 5241,
      "Ġneighbors": 5242,
      "Ġminer": 5243,
      "Ġpracticing": 5244,
      "Ġseats": 5245,
      "ÅĵIÃ¢": 5246,
      "cape": 5247,
      "Ġclearing": 5248,
      "Ġargued": 5249,
      "Ġlandscape": 5250,
      "Ġmeasuring": 5251,
      "Ġbalancing": 5252,
      "Ġmentioned": 5253,
      "Ġagreement": 5254,
      "Ġbleeding": 5255,
      "Ġsimple": 5256,
      "Ġobey": 5257,
      "aff": 5258,
      "oved": 5259,
      "eside": 5260,
      "Ġonwards": 5261,
      "ĠBir": 5262,
      "Ġlips": 5263,
      "Ġweren": 5264,
      "Ġbrings": 5265,
      "Ġpossible": 5266,
      "bbled": 5267,
      "Ġunderneath": 5268,
      "ĠNot": 5269,
      "ĠLetÃ¢": 5270,
      "Ġbottles": 5271,
      "Ġsidewalk": 5272,
      "Ġcalend": 5273,
      "Ġbeneath": 5274,
      "Ġzooming": 5275,
      "Ġfigured": 5276,
      "Ġurged": 5277,
      "Ġpotatoes": 5278,
      "ĠBetsy": 5279,
      "ĠRuby": 5280,
      "Ġemergen": 5281,
      "Ġspaceship": 5282,
      "Ġnewspaper": 5283,
      "Ġbunnies": 5284,
      "Ġcalendar": 5285,
      "cery": 5286,
      "Ġx": 5287,
      "hell": 5288,
      "Ġcaut": 5289,
      "ays": 5290,
      "Ġhanger": 5291,
      "ĠThese": 5292,
      "ĠHenry": 5293,
      "ĠLike": 5294,
      "Ġpoppy": 5295,
      "Ġglowed": 5296,
      "Ġtrapped": 5297,
      "Ġzigzag": 5298,
      "Ġcrumb": 5299,
      "Ġfixing": 5300,
      "Ġsteak": 5301,
      "Ġbuildings": 5302,
      "Ġprec": 5303,
      "ĠJenna": 5304,
      "Ġdiscovery": 5305,
      "Ready": 5306,
      "Ġmenu": 5307,
      "Ġstomach": 5308,
      "Ġgrocery": 5309,
      "Ġproperly": 5310,
      "Ġsuitcase": 5311,
      "Ġfestival": 5312,
      "Kitty": 5313,
      "Le": 5314,
      "do": 5315,
      "eed": 5316,
      "mble": 5317,
      "riger": 5318,
      "ĠOnce": 5319,
      "Ġbeside": 5320,
      "Ġfash": 5321,
      "Ġlily": 5322,
      "Ġcal": 5323,
      "Ġda": 5324,
      "Ġupstairs": 5325,
      "ĠMe": 5326,
      "Ġbrid": 5327,
      "Ġbrus": 5328,
      "ddy": 5329,
      "Ġmuddy": 5330,
      "ĠElly": 5331,
      "Ġfamil": 5332,
      "Ġcrept": 5333,
      "Ġvoices": 5334,
      "Ġpaints": 5335,
      "Ġroaring": 5336,
      "Ġprice": 5337,
      "Ġordered": 5338,
      "Ġstrip": 5339,
      "Ġprepared": 5340,
      "Ġrefriger": 5341,
      "...": 5342,
      "Ġuniverse": 5343,
      "Ġbuzzing": 5344,
      "Ġinstruct": 5345,
      "ĠKatie": 5346,
      "annah": 5347,
      "ĠAbigail": 5348,
      "Ġwonders": 5349,
      "Ġrefrigerator": 5350,
      "Mmm": 5351,
      "Ye": 5352,
      "Yum": 5353,
      "ding": 5354,
      "len": 5355,
      "tory": 5356,
      "Ġtugged": 5357,
      "Ġtonight": 5358,
      "Ġbill": 5359,
      "ities": 5360,
      "ĠHarry": 5361,
      "Ġevent": 5362,
      "Ġrust": 5363,
      "Ġhistory": 5364,
      "Ġflap": 5365,
      "ĠDan": 5366,
      "ĠPip": 5367,
      "Ġrocked": 5368,
      "Ġfiremen": 5369,
      "Ġcatching": 5370,
      "thank": 5371,
      "Ġdrift": 5372,
      "Ġsparkles": 5373,
      "Ġprotected": 5374,
      "Ġvanished": 5375,
      "Ġsoaring": 5376,
      "Ġcurled": 5377,
      "Ġmeasured": 5378,
      "Ġpancakes": 5379,
      "Jake": 5380,
      "Ok": 5381,
      "Somet": 5382,
      "jam": 5383,
      "low": 5384,
      "sity": 5385,
      "ĠQu": 5386,
      "Ġawe": 5387,
      "Ġwid": 5388,
      "Ġbank": 5389,
      "reat": 5390,
      "Ġheat": 5391,
      "Ġmittens": 5392,
      "Ġsty": 5393,
      "ĠBig": 5394,
      "Ġwanting": 5395,
      "terday": 5396,
      "Ġtremble": 5397,
      "Ġsadness": 5398,
      "Ġflood": 5399,
      "Ġflav": 5400,
      "Ġlaid": 5401,
      "Ġchases": 5402,
      "ĠDavid": 5403,
      "Ġpretti": 5404,
      "ĠCar": 5405,
      "Ġbroom": 5406,
      "Ġowned": 5407,
      "Ġshopping": 5408,
      "Ġbowed": 5409,
      "Ġsatis": 5410,
      "Ġmuscles": 5411,
      "Ġpets": 5412,
      "Ġdoctors": 5413,
      "Ġaccom": 5414,
      "Ġparked": 5415,
      "Ġserved": 5416,
      "Ġsprinkles": 5417,
      "Ġoperation": 5418,
      "Ġcompleted": 5419,
      "Ġemergency": 5420,
      "Ġprecious": 5421,
      "Ġinstructions": 5422,
      "jamas": 5423,
      "Ġprettiest": 5424,
      "Luckily": 5425,
      "Mark": 5426,
      "gers": 5427,
      "udy": 5428,
      "zing": 5429,
      "hest": 5430,
      "Ġbare": 5431,
      "Ġlines": 5432,
      "Ġlamb": 5433,
      "Ġdied": 5434,
      "ishes": 5435,
      "Ġgain": 5436,
      "ides": 5437,
      "imy": 5438,
      "vers": 5439,
      "Ġstaff": 5440,
      "alph": 5441,
      "Ġanytime": 5442,
      "Ġpearl": 5443,
      "Ġpupp": 5444,
      "Ġcrashed": 5445,
      "Ġswims": 5446,
      "Ġsnowball": 5447,
      "Ġbookshe": 5448,
      "Ġpajamas": 5449,
      "Ġbouncy": 5450,
      "Ġtune": 5451,
      "Ġstirring": 5452,
      "Ġescaped": 5453,
      "Rex": 5454,
      "Ġtasks": 5455,
      "Ġunlocked": 5456,
      "Ġlibrarian": 5457,
      "Ġolives": 5458,
      "Ġornament": 5459,
      "Ġstudied": 5460,
      "Ġincluded": 5461,
      "Ġfirefighters": 5462,
      "Ġresponsible": 5463,
      "Ġtrembling": 5464,
      "Ġbegin": 5465,
      "Ġintroduced": 5466,
      "Ġbridges": 5467,
      "Remember": 5468,
      "fied": 5469,
      "rin": 5470,
      "son": 5471,
      "Ġnicer": 5472,
      "ĠSad": 5473,
      "ĠHop": 5474,
      "ĠHoppy": 5475,
      "Ġripe": 5476,
      "Ġbeat": 5477,
      "riage": 5478,
      "addy": 5479,
      "ĠMiss": 5480,
      "Ġloose": 5481,
      "Ġgirls": 5482,
      "Ġscoop": 5483,
      "icky": 5484,
      "Ġbecoming": 5485,
      "Ġpeppers": 5486,
      "Ġbye": 5487,
      "ffic": 5488,
      "Ġcreation": 5489,
      "Ġtraffic": 5490,
      "Ġsweets": 5491,
      "Ġcontain": 5492,
      "Ġfrost": 5493,
      "Ġaccidents": 5494,
      "Ġmission": 5495,
      "Ġgathering": 5496,
      "Ġlemons": 5497,
      "Ġleader": 5498,
      "Ġwisdom": 5499,
      "Ġwaffles": 5500,
      "Ġrecognize": 5501,
      "Ġcurtains": 5502,
      "Ġuniversity": 5503,
      "Ġregretted": 5504,
      "Ġpurred": 5505,
      "Ġaccompl": 5506,
      "Bella": 5507,
      "Happy": 5508,
      "Ġtip": 5509,
      "Ġbang": 5510,
      "Ġfet": 5511,
      "Ġmater": 5512,
      "Ġpitch": 5513,
      "Ġsting": 5514,
      "Ġhappiest": 5515,
      "Ġann": 5516,
      "Ġarea": 5517,
      "ĠLucky": 5518,
      "Ġvent": 5519,
      "Ġpears": 5520,
      "Ġstruck": 5521,
      "Ġimage": 5522,
      "Ġteasing": 5523,
      "ÅĵWe": 5524,
      "Ġstole": 5525,
      "Ġrealize": 5526,
      "hyth": 5527,
      "Ġwaits": 5528,
      "Ġwaiter": 5529,
      "acob": 5530,
      "ĠRobby": 5531,
      "Ġcuriosity": 5532,
      "Ġseesaw": 5533,
      "Ġrolls": 5534,
      "Ġpigs": 5535,
      "Ġroads": 5536,
      "Ġpassing": 5537,
      "Ġpouring": 5538,
      "Ġfolded": 5539,
      "Ġclaps": 5540,
      "Ġpatterns": 5541,
      "Ġpadd": 5542,
      "Ġsucceeded": 5543,
      "Ġornaments": 5544,
      "ĠFroggy": 5545,
      "Sometimes": 5546,
      "Ġmateri": 5547,
      "hythm": 5548,
      "First": 5549,
      "Mar": 5550,
      "fit": 5551,
      "ik": 5552,
      "mallow": 5553,
      "ĠYes": 5554,
      "Ġcakes": 5555,
      "Ġdared": 5556,
      "ayla": 5557,
      "ana": 5558,
      "Ġthro": 5559,
      "Ġeight": 5560,
      "Ġwhip": 5561,
      "Ġexit": 5562,
      "agull": 5563,
      "Ġpeel": 5564,
      "Ġgrey": 5565,
      "Ġhardly": 5566,
      "Ġremove": 5567,
      "ĠPenny": 5568,
      "Ġbreaking": 5569,
      "Ġsinger": 5570,
      "Ġprinter": 5571,
      "Ġtastes": 5572,
      "Ġsteep": 5573,
      "Bobo": 5574,
      "Ġactiv": 5575,
      "Ġcollection": 5576,
      "Ġsafer": 5577,
      "ĠChr": 5578,
      "Ġsolut": 5579,
      "Ġdecorated": 5580,
      "Ġhurried": 5581,
      "arshmallow": 5582,
      "Ġcostumes": 5583,
      "Ġloaded": 5584,
      "Ġshadows": 5585,
      "Ġbalanced": 5586,
      "Ġsighs": 5587,
      "Ġachieve": 5588,
      "Ġbillboard": 5589,
      "Ġthroat": 5590,
      "Bobby": 5591,
      "Mittens": 5592,
      "ales": 5593,
      "uzz": 5594,
      "zen": 5595,
      "Ġwiz": 5596,
      "Ġbones": 5597,
      "Ġmister": 5598,
      "Ġge": 5599,
      "ĠMat": 5600,
      "Ġseagull": 5601,
      "Ġoutdo": 5602,
      "Ġspill": 5603,
      "Ġhugging": 5604,
      "Ġdecides": 5605,
      "Ġpoking": 5606,
      "Ġunderground": 5607,
      "Ġcub": 5608,
      "Ġracc": 5609,
      "Ġwondering": 5610,
      "Ġprints": 5611,
      "Ġfrozen": 5612,
      "Ġsteam": 5613,
      "Ġbathrobe": 5614,
      "Ġentire": 5615,
      "Ġspiders": 5616,
      "Ġmountains": 5617,
      "ĠStop": 5618,
      "Ġsilence": 5619,
      "Ġscratched": 5620,
      "Ġstamps": 5621,
      "Ġcurly": 5622,
      "Ġstruggle": 5623,
      "Ġitems": 5624,
      "Ġfashion": 5625,
      "Ġbarely": 5626,
      "Ġbookshelf": 5627,
      "Ġraccoon": 5628,
      "George": 5629,
      "Ha": 5630,
      "Ġheel": 5631,
      "Ġmast": 5632,
      "amie": 5633,
      "Ġbeard": 5634,
      "Ġstare": 5635,
      "Ġclick": 5636,
      "Ġmeow": 5637,
      "ĠLizzy": 5638,
      "Ġpeered": 5639,
      "Ġslimy": 5640,
      "Ġbrand": 5641,
      "ÅĵThank": 5642,
      "ÅĵDon": 5643,
      "Ġforgi": 5644,
      "Ġbeha": 5645,
      "Ġpartic": 5646,
      "Ġwooden": 5647,
      "ults": 5648,
      "Ġplanned": 5649,
      "Ġkeys": 5650,
      "Goodbye": 5651,
      "Ġreminder": 5652,
      "Ġstudying": 5653,
      "Ġpencils": 5654,
      "Ġrubs": 5655,
      "âĤ¬âĢĿ": 5656,
      "Ġapplauded": 5657,
      "ĠBetty": 5658,
      "hins": 5659,
      "ib": 5660,
      "Ġtoe": 5661,
      "Ġfara": 5662,
      "iding": 5663,
      "ĠBird": 5664,
      "unes": 5665,
      "Ġoutfit": 5666,
      "ĠAn": 5667,
      "ĠAdam": 5668,
      "Ġspike": 5669,
      "Ġallow": 5670,
      "Ġscra": 5671,
      "Ġhomework": 5672,
      "ĠletÃ¢": 5673,
      "Ġracing": 5674,
      "Ġbedtime": 5675,
      "Afterwards": 5676,
      "Ġmatched": 5677,
      "iggy": 5678,
      "Ġpotion": 5679,
      "oline": 5680,
      "Ġmixing": 5681,
      "Ġscreams": 5682,
      "Ġwinning": 5683,
      "Ġkicking": 5684,
      "Ġsafari": 5685,
      "Ġscru": 5686,
      "Ġtickle": 5687,
      "Ġdolphins": 5688,
      "Ġpiles": 5689,
      "Ġcrackers": 5690,
      "Ġencourage": 5691,
      "Ġpupil": 5692,
      "Ġdisagree": 5693,
      "Annie": 5694,
      "ĠSuzy": 5695,
      "ĠJulie": 5696,
      "lowly": 5697,
      "Ġfrosting": 5698,
      "Ġfaraway": 5699,
      ".'": 5700,
      "Mr": 5701,
      "Teddy": 5702,
      "iar": 5703,
      "per": 5704,
      "Ġti": 5705,
      "edding": 5706,
      "itely": 5707,
      "erature": 5708,
      "Ġpies": 5709,
      "ĠTues": 5710,
      "Ġgained": 5711,
      "ĠSund": 5712,
      "igi": 5713,
      "Ġbend": 5714,
      "Ġbrushed": 5715,
      "Ġprunes": 5716,
      "ĠDid": 5717,
      "Ġsorting": 5718,
      "Ġofficer": 5719,
      "ÅĵCan": 5720,
      "ÅĵHello": 5721,
      "Ġkeeps": 5722,
      "Ġmonsters": 5723,
      "Ġresult": 5724,
      "Ġtrips": 5725,
      "Ġstretching": 5726,
      "Ġchewing": 5727,
      "Ġstrike": 5728,
      "ophia": 5729,
      "Ġmemory": 5730,
      "Ġlabel": 5731,
      "Ġshivered": 5732,
      "Ġrubbing": 5733,
      "Ġreveal": 5734,
      "Ġtemperature": 5735,
      "Ġweeping": 5736,
      "Ġdusty": 5737,
      "Ġkneeled": 5738,
      "Ġbrushes": 5739,
      "Ġoutdoors": 5740,
      "Ġparticular": 5741,
      "ĠTuesday": 5742,
      "bies": 5743,
      "rance": 5744,
      "Ġ1": 5745,
      "Ġtim": 5746,
      "Ġtax": 5747,
      "Ġsides": 5748,
      "Ġwink": 5749,
      "Ġheav": 5750,
      "Ġinch": 5751,
      "Ġrele": 5752,
      "Ġrelease": 5753,
      "riends": 5754,
      "Ġexact": 5755,
      "Ġknelt": 5756,
      "Ġchoo": 5757,
      "Ġgotten": 5758,
      "usted": 5759,
      "Ġvict": 5760,
      "ĠFirst": 5761,
      "Ġknees": 5762,
      "Ġhowever": 5763,
      "Ġstaying": 5764,
      "ĠPoppy": 5765,
      "ĠPinky": 5766,
      "Ġcoloring": 5767,
      "Ġlistens": 5768,
      "Ġourselves": 5769,
      "though": 5770,
      "Ġbaked": 5771,
      "Ġdarkness": 5772,
      "ĠwasnÃ¢": 5773,
      "Ġsitu": 5774,
      "Ġhealed": 5775,
      "Ġwinner": 5776,
      "Ġrainbows": 5777,
      "Andy": 5778,
      "Ġorganizing": 5779,
      "ĠAlways": 5780,
      "Ġblows": 5781,
      "Ġknights": 5782,
      "Ġcovers": 5783,
      "Ġsights": 5784,
      "Ġcompetition": 5785,
      "Ġstealing": 5786,
      "Ġsurface": 5787,
      "Ġdiscovering": 5788,
      "Ġtravell": 5789,
      "Ġconfident": 5790,
      "Ġladybug": 5791,
      "Ġcautious": 5792,
      "Ġcrumbs": 5793,
      "Ġsolution": 5794,
      "Ġwizard": 5795,
      "Ġtaxi": 5796,
      "Ah": 5797,
      "Pete": 5798,
      "ex": 5799,
      "nes": 5800,
      "ody": 5801,
      "shing": 5802,
      "vin": 5803,
      "Ġwound": 5804,
      "ednes": 5805,
      "Ġcous": 5806,
      "ĠTiny": 5807,
      "omas": 5808,
      "isies": 5809,
      "ided": 5810,
      "ĠHappy": 5811,
      "Ġrhythm": 5812,
      "Ġweb": 5813,
      "Ġliqu": 5814,
      "Ġtheirs": 5815,
      "aren": 5816,
      "ĠWednes": 5817,
      "Ġwhatever": 5818,
      "Ġranger": 5819,
      "bbing": 5820,
      "Ġslapped": 5821,
      "aky": 5822,
      "Ġsnat": 5823,
      "ĠClaire": 5824,
      "Ġdragged": 5825,
      "Ġcontro": 5826,
      "Ġrule": 5827,
      "Ġbabies": 5828,
      "Ġgiggling": 5829,
      "ĠHowever": 5830,
      "ĠZoe": 5831,
      "ĠZero": 5832,
      "Ġmagnets": 5833,
      "Ġcopy": 5834,
      "Ġbloomed": 5835,
      "Ġpunished": 5836,
      "Ġcountryside": 5837,
      "Ġseashell": 5838,
      "Ġguys": 5839,
      "Ġdirection": 5840,
      "ĠFollow": 5841,
      "Ġchallenge": 5842,
      "Ġscurried": 5843,
      "Ġdaisies": 5844,
      "ĠSunday": 5845,
      "Ġliquid": 5846,
      "ĠWednesday": 5847,
      "Mike": 5848,
      "Polly": 5849,
      "lings": 5850,
      "Ġast": 5851,
      "Ġtodd": 5852,
      "Ġfart": 5853,
      "Ġcough": 5854,
      "Ġpout": 5855,
      "arter": 5856,
      "ences": 5857,
      "owers": 5858,
      "ĠBoun": 5859,
      "Ġsmarter": 5860,
      "Ġloving": 5861,
      "Ġexha": 5862,
      "Ġroots": 5863,
      "ason": 5864,
      "ashed": 5865,
      "Ġago": 5866,
      "Ġflames": 5867,
      "ĠEarth": 5868,
      "Ġgreet": 5869,
      "ĠCarl": 5870,
      "itches": 5871,
      "Joey": 5872,
      "ĠDolly": 5873,
      "Ġdreamt": 5874,
      "Ġpolishing": 5875,
      "Ġrelief": 5876,
      "Ġacted": 5877,
      "Ġrockets": 5878,
      "Ġhonk": 5879,
      "Ġtwirling": 5880,
      "Ġsilent": 5881,
      "Grace": 5882,
      "Ġsneaked": 5883,
      "Ġfuzzy": 5884,
      "Ġpowers": 5885,
      "Ġphotos": 5886,
      "Ġmasks": 5887,
      "Ġcrowd": 5888,
      "ĠSharing": 5889,
      "uctantly": 5890,
      "Ġdemanded": 5891,
      "Ġmineral": 5892,
      "Ġexactly": 5893,
      "Fr": 5894,
      "mas": 5895,
      "njoy": 5896,
      "rr": 5897,
      "uri": 5898,
      "uly": 5899,
      "hee": 5900,
      "Ġbumpy": 5901,
      "Ġfir": 5902,
      "Ġcent": 5903,
      "ĠBy": 5904,
      "ĠBye": 5905,
      "Ġnoses": 5906,
      "opes": 5907,
      "Ġmane": 5908,
      "asp": 5909,
      "Ġworries": 5910,
      "bbly": 5911,
      "Ġsorted": 5912,
      "Ġslap": 5913,
      "Ġeats": 5914,
      "obble": 5915,
      "Ġcomm": 5916,
      "ÅĵMommy": 5917,
      "Ġconc": 5918,
      "Ġwrist": 5919,
      "Ġfoods": 5920,
      "ĠRa": 5921,
      "Ġsweeties": 5922,
      "avi": 5923,
      "Ġmatching": 5924,
      "Ġcreating": 5925,
      "Ġdragons": 5926,
      "Ġhighest": 5927,
      "Ġdeser": 5928,
      "Ġexpect": 5929,
      "Ġstaring": 5930,
      "Ġentrance": 5931,
      "Ġnetwork": 5932,
      "Ġcape": 5933,
      "Ġstripes": 5934,
      "Ġcompletely": 5935,
      "Ġcamping": 5936,
      "Ġpaddle": 5937,
      "Ġherbs": 5938,
      "Ġitchy": 5939,
      "Ġsiren": 5940,
      "Yeah": 5941,
      "Ġstyle": 5942,
      "Ġventured": 5943,
      "Ġexhausted": 5944,
      "James": 5945,
      "Sophie": 5946,
      "Un": 5947,
      "bric": 5948,
      "ivery": 5949,
      "pected": 5950,
      "you": 5951,
      "Ìĥ": 5952,
      "ĠY": 5953,
      "ĠÌĥ": 5954,
      "Ġwedding": 5955,
      "ern": 5956,
      "cky": 5957,
      "Ġbelly": 5958,
      "Ġonions": 5959,
      "ĠyouÃ¢": 5960,
      "Ġsobbed": 5961,
      "Ġboom": 5962,
      "Ġcans": 5963,
      "Ġfabric": 5964,
      "elle": 5965,
      "Ġflat": 5966,
      "Ġswooped": 5967,
      "Ġvowed": 5968,
      "istmas": 5969,
      "Ġbudge": 5970,
      "Ġsnugg": 5971,
      "ÅĵOh": 5972,
      "ÅĵWhy": 5973,
      "Ġunex": 5974,
      "ĠGreen": 5975,
      "Ġtractor": 5976,
      "Ġworkers": 5977,
      "Ġopening": 5978,
      "ĠDoggy": 5979,
      "Ġarrive": 5980,
      "Ġsisters": 5981,
      "Ġdrinks": 5982,
      "Ġcheering": 5983,
      "Ġmelting": 5984,
      "Ġobjects": 5985,
      "Ġrepeated": 5986,
      "Ġscrews": 5987,
      "Ġmuffins": 5988,
      "ĠSuzie": 5989,
      "abel": 5990,
      "ĠChristmas": 5991,
      "Ġsnatched": 5992,
      "Ġfirm": 5993,
      "Ġunexpected": 5994,
      "Lola": 5995,
      "aa": 5996,
      "eke": 5997,
      "sc": 5998,
      "uke": 5999,
      "wo": 6000,
      "Ġaff": 6001,
      "Ġsway": 6002,
      "Ġboo": 6003,
      "Ġbars": 6004,
      "Ġbunch": 6005,
      "Ġhi": 6006,
      "ouch": 6007,
      "Ġdent": 6008,
      "Ġpiggy": 6009,
      "ĠSure": 6010,
      "Ġrumble": 6011,
      "Ġwept": 6012,
      "ĠItÃ¢": 6013,
      "opsy": 6014,
      "Ġfever": 6015,
      "Ġcatches": 6016,
      "Ġtruly": 6017,
      "Ġopin": 6018,
      "aker": 6019,
      "ĠChe": 6020,
      "Ġchef": 6021,
      "Ġteasp": 6022,
      "Ġkeeper": 6023,
      "ĠGigi": 6024,
      "Ġtowels": 6025,
      "Ġdelivery": 6026,
      "Ġcontest": 6027,
      "Ġruler": 6028,
      "Ġprinting": 6029,
      "Ġcracked": 6030,
      "Ġtouching": 6031,
      "ĠKe": 6032,
      "Ġpointy": 6033,
      "Ġgrowling": 6034,
      "Ġplanets": 6035,
      "Ġpockets": 6036,
      "Ġexpected": 6037,
      "Ġinterested": 6038,
      "Ġcelebration": 6039,
      "Ġspraying": 6040,
      "Ġclowns": 6041,
      "Ġhorns": 6042,
      "However": 6043,
      "Ġmovies": 6044,
      "Ġrescued": 6045,
      "Ġunpacked": 6046,
      "cuse": 6047,
      "Ġdelivered": 6048,
      "Ġnails": 6049,
      "ĠRover": 6050,
      "Ġinclude": 6051,
      "Ġdiscussed": 6052,
      "Ġfluttered": 6053,
      "Ġquacked": 6054,
      "Ġgazed": 6055,
      "Ġcontrol": 6056,
      "Ġteaspoon": 6057,
      "Cl": 6058,
      "Days": 6059,
      "een": 6060,
      "go": 6061,
      "ux": 6062,
      "ĠĠĊ": 6063,
      "Ġlux": 6064,
      "ĠTess": 6065,
      "ĠSlowly": 6066,
      "ords": 6067,
      "Ġstern": 6068,
      "Ġplenty": 6069,
      "ĠMany": 6070,
      "Ġleather": 6071,
      "Ġscient": 6072,
      "Ġgoodnight": 6073,
      "Ġknowled": 6074,
      "Ġpeaches": 6075,
      "aura": 6076,
      "ĠJacky": 6077,
      "Ġforehead": 6078,
      "Ġstolen": 6079,
      "aced": 6080,
      "Ġusually": 6081,
      "ĠNick": 6082,
      "Ġyelling": 6083,
      "Ġreluctantly": 6084,
      "Ġpatience": 6085,
      "Ġpaintings": 6086,
      "Ġstarfish": 6087,
      "Ġinviting": 6088,
      "ĠOut": 6089,
      "Ġpassen": 6090,
      "Ġflags": 6091,
      "Ġindeed": 6092,
      "Ġseems": 6093,
      "Ġarrows": 6094,
      "Ġbumps": 6095,
      "Ġimproved": 6096,
      "Ġburrow": 6097,
      "ĠUnfortunately": 6098,
      "Excuse": 6099,
      "ĠBirdy": 6100,
      "ÅĵDonÃ¢": 6101,
      "Ġtimer": 6102,
      "Ġsituation": 6103,
      "Ġfarther": 6104,
      "Ġscientist": 6105,
      "Ġknowledge": 6106,
      "Henry": 6107,
      "Kat": 6108,
      "Sad": 6109,
      "boo": 6110,
      "band": 6111,
      "Ġtour": 6112,
      "Ġcash": 6113,
      "Ġmice": 6114,
      "Ġpist": 6115,
      "igning": 6116,
      "Ġsoak": 6117,
      "Ġnect": 6118,
      "ĠAbbie": 6119,
      "icorn": 6120,
      "ĠJudy": 6121,
      "ĠJacob": 6122,
      "Ġscales": 6123,
      "usband": 6124,
      "Ġstrings": 6125,
      "Ġsnakes": 6126,
      "Ġbravery": 6127,
      "ÅĵThis": 6128,
      "Ġunicorn": 6129,
      "ĠGr": 6130,
      "Ġruin": 6131,
      "Ġpretends": 6132,
      "Ġbowls": 6133,
      "Ġscreaming": 6134,
      "Ġteaches": 6135,
      "Ġcaused": 6136,
      "Ġdesert": 6137,
      "Ġmarkers": 6138,
      "ĠOllie": 6139,
      "Ġprotecting": 6140,
      "Ġsupplies": 6141,
      "ceries": 6142,
      "Ġdetermination": 6143,
      "Ġrecorded": 6144,
      "Ġscratches": 6145,
      "Ġseconds": 6146,
      "Ġsandcastles": 6147,
      "ĠRobbie": 6148,
      "Ġgroceries": 6149,
      "Ġfireworks": 6150,
      "Ġperforman": 6151,
      "Ġsatisfied": 6152,
      "Ġactivities": 6153,
      "Ġtipt": 6154,
      "Ġreleased": 6155,
      "Ġvictory": 6156,
      "Ġcautiously": 6157,
      "Ġpistol": 6158,
      "Ġnectar": 6159,
      "Kate": 6160,
      "Maggie": 6161,
      "Ġty": 6162,
      "Ġfreed": 6163,
      "Ġmer": 6164,
      "Ġwasted": 6165,
      "ĠSunny": 6166,
      "Ġshock": 6167,
      "Ġshined": 6168,
      "Ġseven": 6169,
      "ica": 6170,
      "?\",": 6171,
      "ĠJon": 6172,
      "ĠJessie": 6173,
      "Ġfault": 6174,
      "Ġswirl": 6175,
      "Ġchuck": 6176,
      "Ġwilling": 6177,
      "ĠFriends": 6178,
      "Ġgrant": 6179,
      "Ġexplorers": 6180,
      "Ġcolored": 6181,
      "Ġwritten": 6182,
      "ĠGary": 6183,
      "Ġyells": 6184,
      "Ġsingle": 6185,
      "Ġmarked": 6186,
      "Ġpots": 6187,
      "Ġnapkins": 6188,
      "Ġforgetting": 6189,
      "Ġcoloured": 6190,
      "izzie": 6191,
      "Ġdiving": 6192,
      "Ġwipes": 6193,
      "Ġspeaking": 6194,
      "Ġradishes": 6195,
      "Ġadding": 6196,
      "Ġdinosaurs": 6197,
      "ĠBuzzy": 6198,
      "Ġavoid": 6199,
      "Ġpedals": 6200,
      "Ġsausages": 6201,
      "Ġribbons": 6202,
      "Ġintroduce": 6203,
      "ĠJulia": 6204,
      "Ġhesitated": 6205,
      "Ġfetch": 6206,
      "Ġscrubbed": 6207,
      "Ġtoddler": 6208,
      "urious": 6209,
      "Dave": 6210,
      "Even": 6211,
      "Ella": 6212,
      "Mrs": 6213,
      "Rose": 6214,
      "die": 6215,
      "jo": 6216,
      "lay": 6217,
      "ossible": 6218,
      "pare": 6219,
      "pite": 6220,
      "zes": 6221,
      "Ġwow": 6222,
      "Ġwobble": 6223,
      "Ġdipped": 6224,
      "Ġmarshmallow": 6225,
      "ĠTilly": 6226,
      "Ġglee": 6227,
      "llen": 6228,
      "ĠMa": 6229,
      "Ġaren": 6230,
      "urry": 6231,
      "Ġspong": 6232,
      "Ġbacked": 6233,
      "Ġnodd": 6234,
      "ickey": 6235,
      "ĠWatch": 6236,
      "Ġsomebody": 6237,
      "iece": 6238,
      "Ġsled": 6239,
      "Ġsnuck": 6240,
      "Ġtexture": 6241,
      "Ġshoulders": 6242,
      "Ġimpossible": 6243,
      "ĠPo": 6244,
      "ĠPipp": 6245,
      "Ġcloses": 6246,
      "Ġreplaced": 6247,
      "Ġrainco": 6248,
      "Ġbuying": 6249,
      "Ġhides": 6250,
      "Ġtails": 6251,
      "Ġcupc": 6252,
      "angled": 6253,
      "Ġguest": 6254,
      "Ġprincesses": 6255,
      "Ġreaching": 6256,
      "ĠwouldnÃ¢": 6257,
      "Ġpaths": 6258,
      "Ġactions": 6259,
      "Ġtested": 6260,
      "Ġcandies": 6261,
      "ĠZoom": 6262,
      "Grandpa": 6263,
      "Ġrecording": 6264,
      "Ġforks": 6265,
      "Ġbatteries": 6266,
      "Ġshivering": 6267,
      "Ġawake": 6268,
      "Ġstroll": 6269,
      "Shh": 6270,
      "Ġtwinkle": 6271,
      "Ġgaze": 6272,
      "Tweety": 6273,
      "Ġlungs": 6274,
      "ĠOlive": 6275,
      "ĠSadly": 6276,
      "Ġannoy": 6277,
      "Ġpaddled": 6278,
      "Ġperformance": 6279,
      "Ġtiptoed": 6280,
      "Ġmarshmallows": 6281,
      "Ġsponge": 6282,
      "Ġraincoat": 6283,
      "Uh": 6284,
      "oh": 6285,
      "sure": 6286,
      "sie": 6287,
      "tuce": 6288,
      "ury": 6289,
      "Ġhusband": 6290,
      "Ġpause": 6291,
      "Ġthird": 6292,
      "Ġplayers": 6293,
      "Ġweeke": 6294,
      "ĠBo": 6295,
      "inda": 6296,
      "umm": 6297,
      "Ġrobb": 6298,
      "ĠWater": 6299,
      "asm": 6300,
      "Ġstartled": 6301,
      "Ġfaced": 6302,
      "ĠEl": 6303,
      "ĠEnjoy": 6304,
      "Ġlearns": 6305,
      "Ġhandful": 6306,
      "iley": 6307,
      "Ġlettuce": 6308,
      "Ġunited": 6309,
      "ĠThomas": 6310,
      "Ġzero": 6311,
      "ĠJohnson": 6312,
      "Ġdarker": 6313,
      "Ġdrives": 6314,
      "Ġtallest": 6315,
      "Ġhider": 6316,
      "ĠKayla": 6317,
      "Ġcreamy": 6318,
      "Ġneighbours": 6319,
      "brush": 6320,
      "ments": 6321,
      "Ġvalued": 6322,
      "Ġprayer": 6323,
      "Ġsquares": 6324,
      "Ġgracefully": 6325,
      "Ġpeeking": 6326,
      "rops": 6327,
      "Ġreply": 6328,
      "Ġtempt": 6329,
      "Ġsneaky": 6330,
      "Ġstomped": 6331,
      "Ġseason": 6332,
      "Ġwiggled": 6333,
      "ĠUncle": 6334,
      "Ġcalmed": 6335,
      "Ġdrifted": 6336,
      "Ġmaterials": 6337,
      "Ġafford": 6338,
      "Ġdentist": 6339,
      "Ġweekend": 6340,
      "Alex": 6341,
      "Boo": 6342,
      "Jul": 6343,
      "Ġcott": 6344,
      "Ġdam": 6345,
      "Ġmi": 6346,
      "Ġthreat": 6347,
      "Ġech": 6348,
      "Ġrising": 6349,
      "Ġropes": 6350,
      "Ġbead": 6351,
      "Ġwears": 6352,
      "Ġlied": 6353,
      "ĠMaddy": 6354,
      "idey": 6355,
      "Ġloops": 6356,
      "indrops": 6357,
      "ĠcanÃ¢": 6358,
      "ĠJamie": 6359,
      "Ġyourselves": 6360,
      "ĠFor": 6361,
      "maid": 6362,
      "Ġtramp": 6363,
      "Ġskill": 6364,
      "Ġbully": 6365,
      "emma": 6366,
      "oys": 6367,
      "Ġglitter": 6368,
      "Ġraindrops": 6369,
      "Ġdollars": 6370,
      "ĠPrin": 6371,
      "ffes": 6372,
      "Ġunf": 6373,
      "ĠGet": 6374,
      "Ġsmiley": 6375,
      "Ġdeal": 6376,
      "Ġarr": 6377,
      "Ġresting": 6378,
      "Ġsquish": 6379,
      "Ġmagician": 6380,
      "Ġreads": 6381,
      "Ġtablet": 6382,
      "Ġyesterday": 6383,
      "Ġmarriage": 6384,
      "Ġmisses": 6385,
      "Ġwraps": 6386,
      "Ġgrandpare": 6387,
      "ĠOt": 6388,
      "ĠOw": 6389,
      "Ġsplashes": 6390,
      "Ġcelebrating": 6391,
      "Ġsource": 6392,
      "Ġtickled": 6393,
      "Ġswans": 6394,
      "Ġbreathed": 6395,
      "ĠPepper": 6396,
      "Ġpumpkins": 6397,
      "Ġtricky": 6398,
      "Ġgiraffes": 6399,
      "Ġartist": 6400,
      "Charlie": 6401,
      "Ġagrees": 6402,
      "Ġincrease": 6403,
      "Leo": 6404,
      "Ġbeginning": 6405,
      "Maria": 6406,
      "Ġforgiven": 6407,
      "Ġcousin": 6408,
      "ĠRabbit": 6409,
      "Ġmermaid": 6410,
      "Ġchuckled": 6411,
      "Ġtrampoline": 6412,
      "Ducky": 6413,
      "Paul": 6414,
      "Sandy": 6415,
      "Toby": 6416,
      "blings": 6417,
      "dies": 6418,
      "mel": 6419,
      "rig": 6420,
      "uzzy": 6421,
      "Ġnine": 6422,
      "ĠSmo": 6423,
      "oni": 6424,
      "Ġrisk": 6425,
      "Ġyouth": 6426,
      "Ġnotes": 6427,
      "Ġkites": 6428,
      "Ġrepa": 6429,
      "Ġlosing": 6430,
      "ĠJune": 6431,
      "Ġleast": 6432,
      "Ġlap": 6433,
      "Ġchop": 6434,
      "Ġblink": 6435,
      "Ġdads": 6436,
      "ĠFar": 6437,
      "Ġsnail": 6438,
      "Ġteles": 6439,
      "Ġremoved": 6440,
      "Ġrocking": 6441,
      "Ġunsure": 6442,
      "Ġremembering": 6443,
      "Ġusual": 6444,
      "ĠRalph": 6445,
      "Ġworker": 6446,
      "Ġgrassy": 6447,
      "Ġcuts": 6448,
      "Ġrestored": 6449,
      "Ġslower": 6450,
      "Ġfairies": 6451,
      "Ġmuscle": 6452,
      "Ġsecure": 6453,
      "Ġpacking": 6454,
      "Ġbuckets": 6455,
      "Ġscarves": 6456,
      "Ġshrinking": 6457,
      "Ġhonked": 6458,
      "Ġfolding": 6459,
      "Ġseeker": 6460,
      "ĠBeing": 6461,
      "ĠBecky": 6462,
      "ĠAnne": 6463,
      "Ġsquealed": 6464,
      "Ġborrowed": 6465,
      "Ġlollipops": 6466,
      "Ġencourag": 6467,
      "Ġsymbols": 6468,
      "Ġhallway": 6469,
      "Ġfluttering": 6470,
      "Ġburst": 6471,
      "Ġsiblings": 6472,
      "Ġhesitant": 6473,
      "ĠGoodbye": 6474,
      "ĠQuick": 6475,
      "iki": 6476,
      "Ġscraped": 6477,
      "Ġsnuggle": 6478,
      "Ġcashier": 6479,
      "Ġrepaired": 6480,
      "Ġtelescope": 6481,
      "Bl": 6482,
      "Bet": 6483,
      "Fred": 6484,
      "Millie": 6485,
      "Wh": 6486,
      "bird": 6487,
      "cited": 6488,
      "tle": 6489,
      "hello": 6490,
      "Ġtiss": 6491,
      "Ġsense": 6492,
      "Ġwre": 6493,
      "ĠSophia": 6494,
      "ĠHannah": 6495,
      "esome": 6496,
      "Ġeast": 6497,
      "Ġstitches": 6498,
      "Ġsoaked": 6499,
      "ades": 6500,
      "ĠBoth": 6501,
      "itted": 6502,
      "allowed": 6503,
      "ĠMel": 6504,
      "Ġgoals": 6505,
      "Ġexcept": 6506,
      "Ġflas": 6507,
      "ĠLuckily": 6508,
      "ĠListen": 6509,
      "Ġswallowed": 6510,
      "Ġchips": 6511,
      "Ġtwenty": 6512,
      "Ġfoc": 6513,
      "Ġadult": 6514,
      "ÅĵDo": 6515,
      "ĠPut": 6516,
      "ĠPandy": 6517,
      "Ġconn": 6518,
      "Ġuses": 6519,
      "Ġsticking": 6520,
      "Ġowners": 6521,
      "Ġimportance": 6522,
      "Ġdef": 6523,
      "Ġruining": 6524,
      "Ġfilling": 6525,
      "ĠEmmy": 6526,
      "Ġpatted": 6527,
      "Ġsigned": 6528,
      "Ġmarker": 6529,
      "Ġmiles": 6530,
      "Ġhopeful": 6531,
      "ĠOwl": 6532,
      "Ġcoral": 6533,
      "Ġscaring": 6534,
      "Ġcrabs": 6535,
      "Ġpleasure": 6536,
      "Ġpoliceman": 6537,
      "Ġtunnels": 6538,
      "ĠZoomy": 6539,
      "Ġzipping": 6540,
      "Ġhelmets": 6541,
      "Ġjackets": 6542,
      "Ġblooming": 6543,
      "Ġresisted": 6544,
      "ronaut": 6545,
      "Ġshelves": 6546,
      "ÅĵYouÃ¢": 6547,
      "Ġwiggle": 6548,
      "Ġsports": 6549,
      "Roar": 6550,
      "Ġfamilies": 6551,
      "Ġaccomplish": 6552,
      "Ġgeese": 6553,
      "ĠMatt": 6554,
      "Ġastronaut": 6555,
      "Ġluxury": 6556,
      "Ġmixture": 6557,
      "rigued": 6558,
      "An": 6559,
      "Bad": 6560,
      "During": 6561,
      "Fin": 6562,
      "Run": 6563,
      "fire": 6564,
      "ippy": 6565,
      "lves": 6566,
      "Ġtangled": 6567,
      "Ġwest": 6568,
      "Ġlower": 6569,
      "Ġcause": 6570,
      "Ġden": 6571,
      "iled": 6572,
      "order": 6573,
      "Ġstem": 6574,
      "river": 6575,
      "ados": 6576,
      "Ġplaytime": 6577,
      "choo": 6578,
      "ĠJay": 6579,
      "Ġleap": 6580,
      "ops": 6581,
      "ĠLinda": 6582,
      "Ġslices": 6583,
      "aula": 6584,
      "Ġquilt": 6585,
      "Ġuntie": 6586,
      "Those": 6587,
      "Ġrail": 6588,
      "aste": 6589,
      "Ġjoking": 6590,
      "ĠSpidey": 6591,
      "Ġblocking": 6592,
      "Ġamount": 6593,
      "Ġbehavi": 6594,
      "Ġtricked": 6595,
      "Ġsteer": 6596,
      "ĠFlora": 6597,
      "Ġsalty": 6598,
      "Ġwandering": 6599,
      "Ġleaning": 6600,
      "Ġcomplained": 6601,
      "Ġawesome": 6602,
      "Ġcheeks": 6603,
      "Ġrewarded": 6604,
      "Ġexperi": 6605,
      "Ġavocados": 6606,
      "Ġrepeats": 6607,
      "Ġinstrum": 6608,
      "Ġtwinkling": 6609,
      "Ġachieved": 6610,
      "Ġgrowls": 6611,
      "ĠNothing": 6612,
      "Ġpuppies": 6613,
      "Ġpouted": 6614,
      "Ġconcert": 6615,
      "Ġdeserve": 6616,
      "Unfortunately": 6617,
      "ĠKeep": 6618,
      "Ġpassengers": 6619,
      "ĠPippin": 6620,
      "By": 6621,
      "Car": 6622,
      "Have": 6623,
      "Pe": 6624,
      "abby": 6625,
      "nk": 6626,
      "pit": 6627,
      "wk": 6628,
      "Ġhitting": 6629,
      "Ġdie": 6630,
      "Ġocc": 6631,
      "Ġgest": 6632,
      "Ġsank": 6633,
      "Ġhawk": 6634,
      "ani": 6635,
      "ans": 6636,
      "Ġrings": 6637,
      "Ġyounger": 6638,
      "ĠBaa": 6639,
      "Ġneither": 6640,
      "ĠMickey": 6641,
      "Ġreass": 6642,
      "ĠĊĠ": 6643,
      "Ġroars": 6644,
      "Ġcond": 6645,
      "ĠLuke": 6646,
      "ĠLaura": 6647,
      "essica": 6648,
      "Ġintrigued": 6649,
      "Ġslam": 6650,
      "ÅĵMom": 6651,
      "Ġstays": 6652,
      "Ġafterwards": 6653,
      "ĠNora": 6654,
      "Ġargu": 6655,
      "Ġbeloved": 6656,
      "Ġparties": 6657,
      "Ġcolder": 6658,
      "ĠFlopsy": 6659,
      "Ġfoxes": 6660,
      "Ġproject": 6661,
      "umbling": 6662,
      "Ġhealth": 6663,
      "Ġrespond": 6664,
      "Ġexpress": 6665,
      "Ġwarri": 6666,
      "Ġmarks": 6667,
      "Ġacting": 6668,
      "Ġembarrass": 6669,
      "Ġrecorder": 6670,
      "ĠStar": 6671,
      "Ġpans": 6672,
      "Ġwishing": 6673,
      "Ġlogs": 6674,
      "Ġerase": 6675,
      "Ġglasses": 6676,
      "Ġsuggest": 6677,
      "Ġperforming": 6678,
      "Ġcushions": 6679,
      "Ġknocks": 6680,
      "Ġdelivering": 6681,
      "Ġsurrendered": 6682,
      "Ġoysters": 6683,
      "Ġpresses": 6684,
      "Chloe": 6685,
      "Ġstroked": 6686,
      "Ġincluding": 6687,
      "Ġfirefighter": 6688,
      "Ġfamiliar": 6689,
      "Ġrusty": 6690,
      "Ġswimsuit": 6691,
      "Ġsnowballs": 6692,
      "Ġheavier": 6693,
      "Ġechoed": 6694,
      "Ġbeads": 6695,
      "Ġarguing": 6696,
      "Bunny": 6697,
      "Danny": 6698,
      "Hannah": 6699,
      "Milly": 6700,
      "Our": 6701,
      "Rachel": 6702,
      "Time": 6703,
      "Tina": 6704,
      "Whee": 6705,
      "ibbit": 6706,
      "tier": 6707,
      "yes": 6708,
      "Ġtig": 6709,
      "Ġtuck": 6710,
      "Ġaud": 6711,
      "Ġlimes": 6712,
      "Ġcust": 6713,
      "Ġdots": 6714,
      "Ġoh": 6715,
      "Ġsale": 6716,
      "ĠSim": 6717,
      "ĠSleep": 6718,
      "immer": 6719,
      "onies": 6720,
      "Ġrus": 6721,
      "Ġrip": 6722,
      "Ġstool": 6723,
      "Ġgobbled": 6724,
      "aret": 6725,
      "Ġfears": 6726,
      "Ġworn": 6727,
      "Ġflight": 6728,
      "Ġflapping": 6729,
      "ĠLizzie": 6730,
      "Ġswords": 6731,
      "Ġblast": 6732,
      "Ġeverybody": 6733,
      "using": 6734,
      "Ġpebbles": 6735,
      "Ġprettier": 6736,
      "Ġteased": 6737,
      "ÅĵMy": 6738,
      "Ġcreations": 6739,
      "ĠSpark": 6740,
      "Ġmonth": 6741,
      "Ġsteady": 6742,
      "Ġdancers": 6743,
      "Ġtalks": 6744,
      "ĠwonÃ¢": 6745,
      "Ġchoices": 6746,
      "Ġnaps": 6747,
      "Ġmints": 6748,
      "Ġresults": 6749,
      "Ġzookeeper": 6750,
      "Ġmatters": 6751,
      "Ġbanged": 6752,
      "Ġfeeding": 6753,
      "ĠLeave": 6754,
      "Ġexamining": 6755,
      "ĠZara": 6756,
      "Ġpaying": 6757,
      "Meow": 6758,
      "ĠSnap": 6759,
      "weed": 6760,
      "Ġsniffs": 6761,
      "Ġbasement": 6762,
      "Ġcampfire": 6763,
      "Ġobserved": 6764,
      "Ġtraveled": 6765,
      "Ġdirect": 6766,
      "ĠFox": 6767,
      "Ġwarnings": 6768,
      "Ġflavor": 6769,
      "Ġopinion": 6770,
      "Ġchefs": 6771,
      "ĠPrincess": 6772,
      "Ġsquishy": 6773,
      "Ġwarrior": 6774,
      "Ġtigers": 6775,
      "Ġaudience": 6776,
      "Ġcustom": 6777,
      "?'": 6778,
      "Claire": 6779,
      "For": 6780,
      "Tr": 6781,
      "bro": 6782,
      "cter": 6783,
      "ded": 6784,
      "driver": 6785,
      "no": 6786,
      "oss": 6787,
      "vest": 6788,
      "yan": 6789,
      "Ġwins": 6790,
      "Ġlined": 6791,
      "Ġponies": 6792,
      "ĠTwo": 6793,
      "arling": 6794,
      "ĠSal": 6795,
      "ĠSque": 6796,
      "ann": 6797,
      "Ġthorn": 6798,
      "Ġthud": 6799,
      "lect": 6800,
      "Ġinsp": 6801,
      "ntil": 6802,
      "step": 6803,
      "ĠBee": 6804,
      "Ġshoo": 6805,
      "sequ": 6806,
      "Ġseals": 6807,
      "Ġfeast": 6808,
      "Ġchip": 6809,
      "ĠDe": 6810,
      "Ġgrabbing": 6811,
      "retty": 6812,
      "Ġpeck": 6813,
      "Ġwobbly": 6814,
      "Ġdrawn": 6815,
      "ipes": 6816,
      "ĠPudd": 6817,
      "Ġconsequ": 6818,
      "Ġache": 6819,
      "ĠNana": 6820,
      "Ġdresser": 6821,
      "Ġfroze": 6822,
      "Ġsailors": 6823,
      "Ġpolished": 6824,
      "Ġwinked": 6825,
      "Ġseaweed": 6826,
      "hog": 6827,
      "Ġwrapping": 6828,
      "Ġimagining": 6829,
      "Ġhoriz": 6830,
      "Ġpops": 6831,
      "Ġbells": 6832,
      "Ġcrossing": 6833,
      "Ġgenie": 6834,
      "Ġpraying": 6835,
      "Ġvanish": 6836,
      "Ġvanilla": 6837,
      "ĠBluey": 6838,
      "Ġsuits": 6839,
      "Ġsweat": 6840,
      "Ġwires": 6841,
      "Ġhedgehog": 6842,
      "Ġscrewdriver": 6843,
      "ĠMikey": 6844,
      "Ġprovided": 6845,
      "Ġlanguages": 6846,
      "Ġseparated": 6847,
      "Ġbuzzed": 6848,
      "Ġsuffered": 6849,
      "ably": 6850,
      "ĠRobin": 6851,
      "Ġincreased": 6852,
      "Ġsewed": 6853,
      "Ġwidened": 6854,
      "Ġ10": 6855,
      "ĠGranny": 6856,
      "Ġnodding": 6857,
      "Ġencouraging": 6858,
      "Ġoccas": 6859,
      "Ew": 6860,
      "Harry": 6861,
      "Nemo": 6862,
      "Some": 6863,
      "aven": 6864,
      "cl": 6865,
      "gain": 6866,
      "Ġtil": 6867,
      "Ġaimed": 6868,
      "eds": 6869,
      "Ġtouc": 6870,
      "Ġhour": 6871,
      "Ġwadd": 6872,
      "Ġdarling": 6873,
      "Ġmes": 6874,
      "Ġmerry": 6875,
      "ids": 6876,
      "ĠSun": 6877,
      "ley": 6878,
      "irts": 6879,
      "Ġhissed": 6880,
      "Ġplayroom": 6881,
      "ĠBinky": 6882,
      "child": 6883,
      "Ġneare": 6884,
      "ĠMon": 6885,
      "ĠMila": 6886,
      "Ġreason": 6887,
      "ĠAbby": 6888,
      "Ġspy": 6889,
      "Ġspook": 6890,
      "Ġspikes": 6891,
      "Ġhelpers": 6892,
      "Ġscamp": 6893,
      "Ġroses": 6894,
      "Ġcoach": 6895,
      "Ġflipped": 6896,
      "Ġflips": 6897,
      "ept": 6898,
      "Ġswept": 6899,
      "Ġchara": 6900,
      "Ġtreehouse": 6901,
      "ĠFuzzy": 6902,
      "Ġpose": 6903,
      "Ġpecked": 6904,
      "Ġslither": 6905,
      "Ġtwice": 6906,
      "ÅĵCome": 6907,
      "ÅĵNow": 6908,
      "Ġbadge": 6909,
      "Ġfinal": 6910,
      "ĠGemma": 6911,
      "Ġhandsome": 6912,
      "acy": 6913,
      "Ġstrongest": 6914,
      "Ġbelts": 6915,
      "Ġcreativ": 6916,
      "Ġpennies": 6917,
      "Ġattack": 6918,
      "Ġplans": 6919,
      "Ġplanning": 6920,
      "Ġmailed": 6921,
      "Ġgrandchild": 6922,
      "ĠOur": 6923,
      "Ġpeacefully": 6924,
      "Ġpizzas": 6925,
      "Ġdrums": 6926,
      "Ġpanick": 6927,
      "Ġleads": 6928,
      "Ġsurfboard": 6929,
      "rnie": 6930,
      "Ġzebras": 6931,
      "ĠRoger": 6932,
      "Ġvideos": 6933,
      "Ġdelayed": 6934,
      "Ġrequested": 6935,
      "Ġcomplaining": 6936,
      "ĠVroom": 6937,
      "Ġperformed": 6938,
      "Ġbehaved": 6939,
      "Ġbehaving": 6940,
      "ibly": 6941,
      "Ġtravelled": 6942,
      "Ġcommun": 6943,
      "Ġfirmly": 6944,
      "Katie": 6945,
      "Ġarranged": 6946,
      "Ġtissue": 6947,
      "Ġaccomplishment": 6948,
      "Ġconsequences": 6949,
      "Ġhorizon": 6950,
      "Ġmesmer": 6951,
      "Ġspooky": 6952,
      "Ġscampered": 6953,
      "Ġcharacter": 6954,
      "Ġcreativity": 6955,
      "--": 6956,
      "Ab": 6957,
      "Bun": 6958,
      "Ralph": 6959,
      "belle": 6960,
      "eel": 6961,
      "ky": 6962,
      "va": 6963,
      "vas": 6964,
      "Ġting": 6965,
      "Ġtying": 6966,
      "int": 6967,
      "Ġlent": 6968,
      "Ġdot": 6969,
      "atur": 6970,
      "ĠSa": 6971,
      "veral": 6972,
      "Ġbeam": 6973,
      "Ġstair": 6974,
      "rie": 6975,
      "Ġdod": 6976,
      "endy": 6977,
      "ĠMouse": 6978,
      "Ġrefu": 6979,
      "Ġseveral": 6980,
      "Ġspills": 6981,
      "Ġbackwards": 6982,
      "Ġnoon": 6983,
      "Ġscored": 6984,
      "Ġcoc": 6985,
      "Ġflick": 6986,
      "ĠLarry": 6987,
      "plash": 6988,
      "ĠEx": 6989,
      "Ġsunsc": 6990,
      "obody": 6991,
      "Ġexplo": 6992,
      "ĠEverybody": 6993,
      "Ġwindy": 6994,
      "Ġconvers": 6995,
      "Ġcrew": 6996,
      "ĠRiley": 6997,
      "Ġnearly": 6998,
      "Ġdressing": 6999,
      "Ġwarmly": 7000,
      "Ġdrawers": 7001,
      "Ġlighter": 7002,
      "Ġtables": 7003,
      "asha": 7004,
      "ĠKaren": 7005,
      "Ġpolitely": 7006,
      "ggies": 7007,
      "Ġveggies": 7008,
      "uggy": 7009,
      "Ġprove": 7010,
      "Ġbaskets": 7011,
      "ĠThanks": 7012,
      "Ġkicks": 7013,
      "Ġpours": 7014,
      "Ġrecipe": 7015,
      "Ġwiping": 7016,
      "ĠWithout": 7017,
      "ĠAlthough": 7018,
      "Ġnervously": 7019,
      "Ġclearly": 7020,
      "Ġedges": 7021,
      "Ġsurfing": 7022,
      "ÅĵWhatÃ¢": 7023,
      "Ġsuperheroes": 7024,
      "Ġfirefly": 7025,
      "Ġrefreshing": 7026,
      "Ġlicking": 7027,
      "Ġcobwebs": 7028,
      "Ġtalented": 7029,
      "ĠQuack": 7030,
      "Ġaccomplished": 7031,
      "Ġseashells": 7032,
      "ĠBouncy": 7033,
      "Ġguests": 7034,
      "Ġgrandparents": 7035,
      "ĠFarmer": 7036,
      "Ġinstruments": 7037,
      "broken": 7038,
      "Ġtouches": 7039,
      "Ġsunscreen": 7040,
      "Any": 7041,
      "Dear": 7042,
      "Fine": 7043,
      "Ru": 7044,
      "ael": 7045,
      "baby": 7046,
      "ew": 7047,
      "emy": 7048,
      "found": 7049,
      "now": 7050,
      "initely": 7051,
      "Ġfant": 7052,
      "Ġfaded": 7053,
      "itude": 7054,
      "Ġdet": 7055,
      "ĠTe": 7056,
      "Ġopp": 7057,
      "ility": 7058,
      "inger": 7059,
      "Ġgross": 7060,
      "atul": 7061,
      "ena": 7062,
      "ĠSorry": 7063,
      "onnie": 7064,
      "lle": 7065,
      "ĠHolly": 7066,
      "Ġev": 7067,
      "rick": 7068,
      "ĠBessie": 7069,
      "elve": 7070,
      "unched": 7071,
      "Ġshall": 7072,
      "ugs": 7073,
      "Ġjugg": 7074,
      "Ġcanvas": 7075,
      "Ġbru": 7076,
      "Ġage": 7077,
      "Ġtreated": 7078,
      "ĠFire": 7079,
      "Ġtweet": 7080,
      "Ġhanding": 7081,
      "Ġenemy": 7082,
      "Ġadults": 7083,
      "Ġcheers": 7084,
      "Ġbraver": 7085,
      "aster": 7086,
      "Ġdollhouse": 7087,
      "Ġunw": 7088,
      "ĠRicky": 7089,
      "ĠRyan": 7090,
      "Ġheading": 7091,
      "Ġstorekeeper": 7092,
      "ĠAsh": 7093,
      "Ġsnowmen": 7094,
      "Ġelbow": 7095,
      "ichael": 7096,
      "Ġjud": 7097,
      "Ġjobs": 7098,
      "anging": 7099,
      "Ġcausing": 7100,
      "Ġlifts": 7101,
      "Ġfits": 7102,
      "Ġdived": 7103,
      "Ġhonking": 7104,
      "Ġantic": 7105,
      "ĠAli": 7106,
      "Ġmotion": 7107,
      "Ġleading": 7108,
      "Ġaddress": 7109,
      "Ġcorners": 7110,
      "Ġdesigned": 7111,
      "ĠFinny": 7112,
      "Ġfilms": 7113,
      "Ġmushrooms": 7114,
      "Ġpedaled": 7115,
      "ĠUntil": 7116,
      "Ġemerged": 7117,
      "Ġpunishment": 7118,
      "Tweetie": 7119,
      "Ġdiscussing": 7120,
      "Ġrecommended": 7121,
      "Ġefforts": 7122,
      "Ġpuppet": 7123,
      "Ġcubes": 7124,
      "Ġgreeted": 7125,
      "Clara": 7126,
      "melia": 7127,
      "Ġdefinitely": 7128,
      "Ġgesture": 7129,
      "Ġrushing": 7130,
      "Ġdirections": 7131,
      "Ġfantastic": 7132,
      "Fo": 7133,
      "Jerry": 7134,
      "Karen": 7135,
      "Like": 7136,
      "May": 7137,
      "Maddy": 7138,
      "Su": 7139,
      "ae": 7140,
      "ker": 7141,
      "mered": 7142,
      "ple": 7143,
      "paste": 7144,
      "rince": 7145,
      "ratul": 7146,
      "wise": 7147,
      "yond": 7148,
      "ĊĊ": 7149,
      "Ġtar": 7150,
      "Ġties": 7151,
      "ition": 7152,
      "Ġcoug": 7153,
      "erm": 7154,
      "Ġmunch": 7155,
      "ĠTake": 7156,
      "Ġgerm": 7157,
      "ĠSw": 7158,
      "anie": 7159,
      "iment": 7160,
      "utter": 7161,
      "Ġund": 7162,
      "Ġearn": 7163,
      "Ġease": 7164,
      "ighing": 7165,
      "Ġrin": 7166,
      "Ġbeyond": 7167,
      "Ġstall": 7168,
      "Ġonward": 7169,
      "Ġsofter": 7170,
      "ading": 7171,
      "Ġweeds": 7172,
      "Ġshady": 7173,
      "lyn": 7174,
      "Ġkings": 7175,
      "Ġloc": 7176,
      "Ġbodies": 7177,
      "ĠJe": 7178,
      "Ġlevers": 7179,
      "ĠWell": 7180,
      "ĠWigg": 7181,
      "ongratul": 7182,
      "Ġprank": 7183,
      "Ġflown": 7184,
      "Ġdecl": 7185,
      "Ġthoughts": 7186,
      "Ġslips": 7187,
      "Ġovercome": 7188,
      "iona": 7189,
      "Ġsnort": 7190,
      "Ġbravest": 7191,
      "Ġglued": 7192,
      "ÅĵHi": 7193,
      "ÅĵHey": 7194,
      "bee": 7195,
      "Ġwrink": 7196,
      "ĠRemember": 7197,
      "Ġforgives": 7198,
      "Ġcrashing": 7199,
      "Ġfills": 7200,
      "Ġbows": 7201,
      "Ġsnowfl": 7202,
      "Ġelf": 7203,
      "Ġdances": 7204,
      "Ġbaths": 7205,
      "Ġheartbroken": 7206,
      "Ġrivers": 7207,
      "Ġlifting": 7208,
      "Ġgrandbaby": 7209,
      "Ġrobots": 7210,
      "Ġ''": 7211,
      "Ġspreading": 7212,
      "Ġchews": 7213,
      "Ġprayers": 7214,
      "ĠStay": 7215,
      "ĠZee": 7216,
      "Ġangels": 7217,
      "Ġsunflowers": 7218,
      "years": 7219,
      "Ġsneezing": 7220,
      "Ġgems": 7221,
      "ĠFreddie": 7222,
      "Ġsweep": 7223,
      "Ġtoothpaste": 7224,
      "Ġbreathing": 7225,
      "Ġneatly": 7226,
      "Ġenthusi": 7227,
      "...\"": 7228,
      "Ġappreciated": 7229,
      "Ġapplauding": 7230,
      "Ġyielded": 7231,
      "Quick": 7232,
      "Ġadmiration": 7233,
      "Ġsprinkled": 7234,
      "ĠFrog": 7235,
      "Ġsuffering": 7236,
      "Ġwider": 7237,
      "ĠBirdie": 7238,
      "perate": 7239,
      "Ġtravelling": 7240,
      "ĠCheese": 7241,
      "Ġfreedom": 7242,
      "Ġgranted": 7243,
      "laying": 7244,
      "Betty": 7245,
      "Ġwreck": 7246,
      "Ġconnected": 7247,
      "Ġresponded": 7248,
      "immering": 7249,
      "Ġoccasion": 7250,
      "eeling": 7251,
      "Buddy": 7252,
      "Buzz": 7253,
      "Cindy": 7254,
      "Rob": 7255,
      "Tony": 7256,
      "Yummy": 7257,
      "belt": 7258,
      "mates": 7259,
      "ollen": 7260,
      "upt": 7261,
      "uppy": 7262,
      "while": 7263,
      "Ġ2": 7264,
      "ĠX": 7265,
      "Ġaim": 7266,
      "ino": 7267,
      "Ġdarl": 7268,
      "Ġdaring": 7269,
      "Ġheaven": 7270,
      "idence": 7271,
      "espite": 7272,
      "ooking": 7273,
      "Ġstain": 7274,
      "Ġstung": 7275,
      "Ġsteth": 7276,
      "Ġstumble": 7277,
      "ĠthatÃ¢": 7278,
      "ĠBri": 7279,
      "Ġshallow": 7280,
      "ĠMad": 7281,
      "Ġanger": 7282,
      "ĠAny": 7283,
      "Ġspices": 7284,
      "Ġknit": 7285,
      "ĠJessica": 7286,
      "ophone": 7287,
      "Ġscent": 7288,
      "Ġscores": 7289,
      "ĠWin": 7290,
      "ĠWil": 7291,
      "ĠWally": 7292,
      "ĠYouÃ¢": 7293,
      "Ġnewfound": 7294,
      "ĠLove": 7295,
      "Ġwhoever": 7296,
      "Ġswollen": 7297,
      "Ġchanges": 7298,
      "Ġcares": 7299,
      "Ġposs": 7300,
      "Ġwatering": 7301,
      "ĠCle": 7302,
      "Ġglitt": 7303,
      "Ġwobbled": 7304,
      "ÅĵWow": 7305,
      "ÅĵOkay": 7306,
      "ÅĵOf": 7307,
      "ÅĵWell": 7308,
      "Ġfinishing": 7309,
      "ĠPam": 7310,
      "ĠPuppy": 7311,
      "Ġconqu": 7312,
      "Ġtraps": 7313,
      "athan": 7314,
      "Ġbiting": 7315,
      "Ġsmelling": 7316,
      "Ġpromises": 7317,
      "Ġdropping": 7318,
      "Ġfloors": 7319,
      "Ġunderstands": 7320,
      "ĠKelly": 7321,
      "oscope": 7322,
      "Ġvisitors": 7323,
      "Ġcloudy": 7324,
      "ugging": 7325,
      "Ġjoining": 7326,
      "Ġplanting": 7327,
      "Ġbeeh": 7328,
      "ounced": 7329,
      "Ġspoonful": 7330,
      "Ġdrivers": 7331,
      "Ġrespected": 7332,
      "Ġtrusting": 7333,
      "Ġdriveway": 7334,
      "Ġseatbelt": 7335,
      "Ġtidied": 7336,
      "ĠBea": 7337,
      "ĠBeep": 7338,
      "ĠStart": 7339,
      "ĠBruce": 7340,
      "Ġcrawls": 7341,
      "Always": 7342,
      "Remy": 7343,
      "Ġleopards": 7344,
      "Ġvests": 7345,
      "Ġinsisting": 7346,
      "ĠPatty": 7347,
      "Ġpurr": 7348,
      "ĠRuss": 7349,
      "Ġuniforms": 7350,
      "Ġspits": 7351,
      "ĠRobert": 7352,
      "Ġgears": 7353,
      "Ġmaster": 7354,
      "Ġmasterp": 7355,
      "Frank": 7356,
      "rrr": 7357,
      "Ġsternly": 7358,
      "Ġcupcakes": 7359,
      "Ġrobber": 7360,
      "ĠSqueaky": 7361,
      "Ruby": 7362,
      "Ġevil": 7363,
      "Follow": 7364,
      "Ġenthusiasm": 7365,
      "Ġdarlings": 7366,
      "Ġstethoscope": 7367,
      "Beth": 7368,
      "Baby": 7369,
      "Co": 7370,
      "Hop": 7371,
      "Lilly": 7372,
      "Miss": 7373,
      "bel": 7374,
      "bec": 7375,
      "ca": 7376,
      "fall": 7377,
      "hind": 7378,
      "ners": 7379,
      "pen": 7380,
      "the": 7381,
      "uing": 7382,
      "xophone": 7383,
      "Ġic": 7384,
      "Ġtipped": 7385,
      "Ġsy": 7386,
      "Ġbou": 7387,
      "Ġbound": 7388,
      "Ġhoo": 7389,
      "Ġfif": 7390,
      "Ġdump": 7391,
      "Ġpipes": 7392,
      "enced": 7393,
      "Ġnuzz": 7394,
      "Ġsadd": 7395,
      "Ġsaxophone": 7396,
      "anwhile": 7397,
      "ori": 7398,
      "oto": 7399,
      "Ġyumm": 7400,
      "oosh": 7401,
      "Ġplain": 7402,
      "Ġplucked": 7403,
      "stick": 7404,
      "storm": 7405,
      "ĠBuggy": 7406,
      "Ġshown": 7407,
      "Ġshirts": 7408,
      "ĠMuff": 7409,
      "ĠMichael": 7410,
      "Ġaside": 7411,
      "romise": 7412,
      "Ġmanag": 7413,
      "Ġcarriage": 7414,
      "Ġprob": 7415,
      "Ġwhose": 7416,
      "Ġchanging": 7417,
      "ĠDot": 7418,
      "Ġtaped": 7419,
      "ĠFiona": 7420,
      "Ġposit": 7421,
      "aps": 7422,
      "Ġtwin": 7423,
      "Ġexplor": 7424,
      "ĠCla": 7425,
      "Ġends": 7426,
      "ĠJojo": 7427,
      "ĠPup": 7428,
      "ĠPaula": 7429,
      "ĠPrince": 7430,
      "Ġconfu": 7431,
      "Ġconfl": 7432,
      "Ġexplorer": 7433,
      "Ġthrown": 7434,
      "ĠNell": 7435,
      "ĠJaney": 7436,
      "Ġthroughout": 7437,
      "Ġcompared": 7438,
      "Ġjoyful": 7439,
      "Ġpaintbrush": 7440,
      "Ġwelcoming": 7441,
      "Ġbelieving": 7442,
      "Ġchopped": 7443,
      "Ġhealing": 7444,
      "Ġlunchbox": 7445,
      "Ġbandages": 7446,
      "Ġforgets": 7447,
      "Ġdesigning": 7448,
      "Goodnight": 7449,
      "Ġcomforting": 7450,
      "Ġaction": 7451,
      "Ġshrunk": 7452,
      "Ġreminding": 7453,
      "Ġsolving": 7454,
      "Ġwhispers": 7455,
      "ĠZip": 7456,
      "Ġadds": 7457,
      "Ġsoapy": 7458,
      "Ġfrowning": 7459,
      "faction": 7460,
      "Ġsqueezing": 7461,
      "Ġunlo": 7462,
      "Ġdiamonds": 7463,
      "ivia": 7464,
      "Ġtravels": 7465,
      "Ġbeeped": 7466,
      "ĠUp": 7467,
      "uctor": 7468,
      "Ġawo": 7469,
      "Ġdisplayed": 7470,
      "Ġlending": 7471,
      "Ġquarreling": 7472,
      "Ġrotting": 7473,
      "Ġpandas": 7474,
      "Ġsurroundings": 7475,
      "Ġtrembled": 7476,
      "Ġchatter": 7477,
      "Ġconfidence": 7478,
      "Excited": 7479,
      "Ġsnaps": 7480,
      "Ġminerals": 7481,
      "ĠBirthday": 7482,
      "Ġflavors": 7483,
      "Ġsatisfaction": 7484,
      "Ġmaterial": 7485,
      "Ġcenter": 7486,
      "Ġtype": 7487,
      "Ġtextures": 7488,
      "Ġannoyed": 7489,
      "Ġrisks": 7490,
      "Blue": 7491,
      "Ġconductor": 7492,
      "Ġslammed": 7493,
      "ĠSimon": 7494,
      "Ġwaddled": 7495,
      "Ġrefuse": 7496,
      "Ġanticip": 7497,
      "Ġwrinkled": 7498,
      "Ġsnowflakes": 7499,
      "Ġbeehive": 7500,
      "Ġbouqu": 7501,
      "Ġprobably": 7502,
      "ĠClaus": 7503,
      "Bu": 7504,
      "Back": 7505,
      "Bill": 7506,
      "Kayla": 7507,
      "Listen": 7508,
      "Mat": 7509,
      "Too": 7510,
      "Take": 7511,
      "bage": 7512,
      "cher": 7513,
      "gar": 7514,
      "iel": 7515,
      "lers": 7516,
      "oc": 7517,
      "whe": 7518,
      "Ġsens": 7519,
      "Ġtheat": 7520,
      "inted": 7521,
      "Ġwag": 7522,
      "regg": 7523,
      "ouble": 7524,
      "ita": 7525,
      "its": 7526,
      "itched": 7527,
      "Ġpound": 7528,
      "Ġpens": 7529,
      "Ġpouch": 7530,
      "Ġgon": 7531,
      "Ġni": 7532,
      "Ġnibb": 7533,
      "Ġsav": 7534,
      "ĠSuper": 7535,
      "onse": 7536,
      "Ġthir": 7537,
      "irrel": 7538,
      "Ġinter": 7539,
      "Ġrather": 7540,
      "Ġramp": 7541,
      "Ġbeating": 7542,
      "Ġwithin": 7543,
      "rip": 7544,
      "Ġsoot": 7545,
      "ĠBow": 7546,
      "ĠBecause": 7547,
      "Ġshave": 7548,
      "Ġdoves": 7549,
      "ĠĊĊ": 7550,
      "Ġloses": 7551,
      "Ġjay": 7552,
      "Ġcanes": 7553,
      "artin": 7554,
      "icles": 7555,
      "Ġscen": 7556,
      "Ġali": 7557,
      "Ġmemb": 7558,
      "ĠWas": 7559,
      "ĠWendy": 7560,
      "ddie": 7561,
      "Ġfact": 7562,
      "ĠButt": 7563,
      "Ġcosy": 7564,
      "Ġblond": 7565,
      "ĠErnie": 7566,
      "usan": 7567,
      "quirrel": 7568,
      "ĠFurry": 7569,
      "Ġposes": 7570,
      "Ġtwelve": 7571,
      "Ġsmallest": 7572,
      "Ġcleared": 7573,
      "Ġbeautifully": 7574,
      "ÅĵSure": 7575,
      "Ġdangers": 7576,
      "Ġraces": 7577,
      "Ġfins": 7578,
      "Ġconvin": 7579,
      "Ġstopping": 7580,
      "Ġjoked": 7581,
      "Ġbluebird": 7582,
      "ĠRain": 7583,
      "Ġblocked": 7584,
      "ĠNina": 7585,
      "Ġdefe": 7586,
      "Ġfires": 7587,
      "Ġcouple": 7588,
      "Ġbuses": 7589,
      "ĠDog": 7590,
      "Ġworrying": 7591,
      "Ġstepping": 7592,
      "Ġhearing": 7593,
      "rench": 7594,
      "spe": 7595,
      "ĠJennie": 7596,
      "Ġgrows": 7597,
      "brina": 7598,
      "Ġstands": 7599,
      "Ġshops": 7600,
      "Ġnecks": 7601,
      "Ġresponse": 7602,
      "ails": 7603,
      "Ġactive": 7604,
      "Ġfootstep": 7605,
      "Ġcowb": 7606,
      "Ġcalmly": 7607,
      "ĠAlong": 7608,
      "Ġnecklaces": 7609,
      "Ġpinching": 7610,
      "Ġtidying": 7611,
      "Ġgarbage": 7612,
      "Ġprick": 7613,
      "Ġscram": 7614,
      "Ġhamster": 7615,
      "Ġcovering": 7616,
      "Ġdigs": 7617,
      "Ġhunting": 7618,
      "Ġcroaked": 7619,
      "Ġcuddly": 7620,
      "Ġtwisting": 7621,
      "Ġpreparing": 7622,
      "Ġsniffing": 7623,
      "Ġhoops": 7624,
      "Ġdiscoveries": 7625,
      "Ġscattering": 7626,
      "Ġsending": 7627,
      "Ġtearing": 7628,
      "Ġspeaker": 7629,
      "Ġcrystals": 7630,
      "Ġtwinkled": 7631,
      "Ġfreezing": 7632,
      "Ġsewing": 7633,
      "Ġladybird": 7634,
      "Ġrustling": 7635,
      "ĠDaniel": 7636,
      "Ġmeowing": 7637,
      "ĠBounce": 7638,
      "Freddy": 7639,
      "Sadly": 7640,
      "Ġcottage": 7641,
      "ĠOther": 7642,
      "Ġforgiveness": 7643,
      "Ġbehavior": 7644,
      "Ġexperienced": 7645,
      "Ġthorns": 7646,
      "Ġtilted": 7647,
      "Ġtarget": 7648,
      "Ġgerms": 7649,
      "Ġdeclared": 7650,
      "ĠRussel": 7651,
      "Ġmasterpiece": 7652,
      "Ġanticipation": 7653,
      "Ġbouquet": 7654,
      "Ġtheatre": 7655,
      "Ġgonna": 7656,
      "Ġmembers": 7657,
      "Ġfootsteps": 7658,
      "Br": 7659,
      "Feeling": 7660,
      "Great": 7661,
      "Jamie": 7662,
      "Kim": 7663,
      "Ma": 7664,
      "Nina": 7665,
      "Oops": 7666,
      "Since": 7667,
      "Sophia": 7668,
      "Woof": 7669,
      "but": 7670,
      "dress": 7671,
      "father": 7672,
      "form": 7673,
      "garet": 7674,
      "mag": 7675,
      "rily": 7676,
      "rink": 7677,
      "rup": 7678,
      "well": 7679,
      "water": 7680,
      "ylves": 7681,
      "ĠOkay": 7682,
      "Ġtumbled": 7683,
      "Ġtor": 7684,
      "Ġbak": 7685,
      "Ġwakes": 7686,
      "Ġfain": 7687,
      "Ġheight": 7688,
      "ĠTry": 7689,
      "ĠTaking": 7690,
      "ĠToto": 7691,
      "iles": 7692,
      "Ġgall": 7693,
      "ĠSay": 7694,
      "ĠSplash": 7695,
      "ĠSasha": 7696,
      "ĠSquirrel": 7697,
      "ĠHoot": 7698,
      "Ġrout": 7699,
      "Ġrott": 7700,
      "Ġbea": 7701,
      "Ġweighing": 7702,
      "ĠmomÃ¢": 7703,
      "elvet": 7704,
      "Ġforts": 7705,
      "Ġlies": 7706,
      "ently": 7707,
      "ĠMother": 7708,
      "ĠMine": 7709,
      "ĠMoon": 7710,
      "ĠMira": 7711,
      "ĠMarshmallow": 7712,
      "Ġreun": 7713,
      "rying": 7714,
      "Ġboards": 7715,
      "ĠgirlÃ¢": 7716,
      "ĠAng": 7717,
      "ĠAgain": 7718,
      "ĠAmelia": 7719,
      "Ġspins": 7720,
      "icia": 7721,
      "Ġcarries": 7722,
      "Ġgoodies": 7723,
      "Ġcharge": 7724,
      "Ġvines": 7725,
      "Ġtapped": 7726,
      "bbling": 7727,
      "Ġpeep": 7728,
      "Ġhandy": 7729,
      "Ġwaters": 7730,
      "Ġbubbly": 7731,
      "Ġfond": 7732,
      "ortunately": 7733,
      "ĠCurious": 7734,
      "Ġgardens": 7735,
      "ÅĵWhere": 7736,
      "Ġraising": 7737,
      "Ġbadger": 7738,
      "LetÃ¢": 7739,
      "Ġwrigg": 7740,
      "Ġunco": 7741,
      "acle": 7742,
      "ĠRani": 7743,
      "Ġrainy": 7744,
      "Ġworksh": 7745,
      "ĠNobody": 7746,
      "Ġamong": 7747,
      "Ġcounts": 7748,
      "ĠThose": 7749,
      "Ġsingers": 7750,
      "Ġsquaw": 7751,
      "Ġpapa": 7752,
      "Ġhairdress": 7753,
      "Ġstew": 7754,
      "Ġslowed": 7755,
      "Ġdripping": 7756,
      "Ġlessons": 7757,
      "Jacky": 7758,
      "ĠFlo": 7759,
      "Ġpetal": 7760,
      "ixie": 7761,
      "earl": 7762,
      "Ġalongside": 7763,
      "Ġbats": 7764,
      "Ġexpert": 7765,
      "Ġafar": 7766,
      "Ġnests": 7767,
      "balls": 7768,
      "Ġgrandfather": 7769,
      "oga": 7770,
      "Ġimages": 7771,
      "Ġtroubles": 7772,
      "Ġstirs": 7773,
      "Steve": 7774,
      "Ġlaying": 7775,
      "Ġstretches": 7776,
      "Ġpicnics": 7777,
      "Ġgasp": 7778,
      "Ġpleaded": 7779,
      "Ġdisappoint": 7780,
      "Alright": 7781,
      "undred": 7782,
      "Ġstrips": 7783,
      "Ġcuddles": 7784,
      "Ġkangaroos": 7785,
      "Ġpostman": 7786,
      "Ġknocking": 7787,
      "Ġcombed": 7788,
      "Ġmayor": 7789,
      "Ġunpacking": 7790,
      "Ġrepeating": 7791,
      "Ġdisturbing": 7792,
      "Ġscolds": 7793,
      "Ġstacked": 7794,
      "ĠTrust": 7795,
      "Ġexplains": 7796,
      "ĠPatrick": 7797,
      "Ġpurrs": 7798,
      "Ġstroke": 7799,
      "Ġstudent": 7800,
      "Ġstudents": 7801,
      "Ġwhispering": 7802,
      "ĠIsn": 7803,
      "Ġbothered": 7804,
      "Ġfascinating": 7805,
      "ĠAbi": 7806,
      "ĠOlivia": 7807,
      "Ġobeyed": 7808,
      "ĠMeg": 7809,
      "ĠMegan": 7810,
      "ĠSadie": 7811,
      "Ġforgiving": 7812,
      "Ġparticularly": 7813,
      "Ġchoosing": 7814,
      "Ġswayed": 7815,
      "Sadie": 7816,
      "Ġannoying": 7817,
      "Ġfocused": 7818,
      "Ġastronauts": 7819,
      "Ġmonths": 7820,
      "ossom": 7821,
      "ĠPuddles": 7822,
      "Ġcommunic": 7823,
      "Ġmesmerized": 7824,
      "Ġconversation": 7825,
      "Ġjudges": 7826,
      "ĠBrian": 7827,
      "Ġicicle": 7828,
      "Ġsyrup": 7829,
      "Ġnuzzled": 7830,
      "ĠMuffin": 7831,
      "Ġexploration": 7832,
      "Ġthirty": 7833,
      "ĠButtons": 7834,
      "Ġscrambled": 7835,
      "ylvester": 7836,
      "Ġrotten": 7837,
      "Ġworkshop": 7838,
      "Ġhairdresser": 7839,
      "Adam": 7840,
      "Boys": 7841,
      "Honey": 7842,
      "Jacob": 7843,
      "Liz": 7844,
      "Mira": 7845,
      "Papa": 7846,
      "Rosie": 7847,
      "Surpr": 7848,
      "Santa": 7849,
      "Tilly": 7850,
      "Very": 7851,
      "ears": 7852,
      "lor": 7853,
      "prin": 7854,
      "sm": 7855,
      "vive": 7856,
      "Ãĥ": 7857,
      "Ġsill": 7858,
      "Ġwaking": 7859,
      "Ġdep": 7860,
      "Ġmitt": 7861,
      "Ġmate": 7862,
      "Ġpuff": 7863,
      "ĠTia": 7864,
      "Ġodd": 7865,
      "isions": 7866,
      "ats": 7867,
      "Ġnood": 7868,
      "Ġnast": 7869,
      "ĠSweet": 7870,
      "ĠSince": 7871,
      "ĠSusan": 7872,
      "aning": 7873,
      "anish": 7874,
      "ĠHope": 7875,
      "ĠHallow": 7876,
      "otted": 7877,
      "Ġinj": 7878,
      "ribble": 7879,
      "ĠBoo": 7880,
      "Ġforce": 7881,
      "ĠMo": 7882,
      "ĠMabel": 7883,
      "rand": 7884,
      "Ġexch": 7885,
      "ĠJilly": 7886,
      "ĠJazz": 7887,
      "ĠJason": 7888,
      "Ġclues": 7889,
      "Ġmeals": 7890,
      "ĠWings": 7891,
      "ĠWise": 7892,
      "asers": 7893,
      "Ġchos": 7894,
      "usty": 7895,
      "ĠDen": 7896,
      "ĠDory": 7897,
      "Ġthanking": 7898,
      "retch": 7899,
      "Ġpeak": 7900,
      "Ġstrum": 7901,
      "ĠAnnabelle": 7902,
      "Ġuntied": 7903,
      "ĠJackÃ¢": 7904,
      "ĠJoan": 7905,
      "ÅĵBut": 7906,
      "ÅĵSee": 7907,
      "Ġstored": 7908,
      "Ġcleaner": 7909,
      "Ġsurprising": 7910,
      "ĠPen": 7911,
      "Ġdoorway": 7912,
      "ĠGaby": 7913,
      "Ġtoward": 7914,
      "TMve": 7915,
      "Ġfishy": 7916,
      "Ġdisob": 7917,
      "Ġrains": 7918,
      "Ġhops": 7919,
      "Ġbrightest": 7920,
      "Ġcuriously": 7921,
      "Ġsweetest": 7922,
      "Ġnights": 7923,
      "Ġbusiness": 7924,
      "Ġbits": 7925,
      "Josh": 7926,
      "ĠDoes": 7927,
      "Ġsandpit": 7928,
      "Ġtasting": 7929,
      "Ġswimmer": 7930,
      "boat": 7931,
      "Ġbuilders": 7932,
      "Ġmovements": 7933,
      "Ġmarve": 7934,
      "Ġpetting": 7935,
      "Ġcompan": 7936,
      "Ġcreams": 7937,
      "meal": 7938,
      "Ġgulp": 7939,
      "ĠTodd": 7940,
      "Ġchopping": 7941,
      "Ġtownspe": 7942,
      "Ġteachers": 7943,
      "Ġcaw": 7944,
      "ordinary": 7945,
      "Ġdespite": 7946,
      "Ġpastries": 7947,
      "Ġpurpose": 7948,
      "Ġgrandd": 7949,
      "ĠOak": 7950,
      "Ġstreets": 7951,
      "Ġfootprin": 7952,
      "ertain": 7953,
      "Ġpuzzled": 7954,
      "ĠChuck": 7955,
      "Ġignoring": 7956,
      "Ġtoolbox": 7957,
      "Ġsprays": 7958,
      "Ġdecorating": 7959,
      "Ġsqueaked": 7960,
      "Ġsqueaky": 7961,
      "Ġclassmates": 7962,
      "Ġcrowns": 7963,
      "keepers": 7964,
      "Ġstamped": 7965,
      "Ġextraordinary": 7966,
      "Ġrescuing": 7967,
      "attered": 7968,
      "Ġtoothbrush": 7969,
      "iolet": 7970,
      "Ġcells": 7971,
      "Ġoatmeal": 7972,
      "Ġtires": 7973,
      "ĠUnder": 7974,
      "Ġvinegar": 7975,
      "ĠShar": 7976,
      "Ġappreciation": 7977,
      "Ġartwork": 7978,
      "Ġmeatballs": 7979,
      "Ġluckiest": 7980,
      "Ġthumbs": 7981,
      "ĠPatch": 7982,
      "Ġcomputers": 7983,
      "Quack": 7984,
      "Ġsincere": 7985,
      "abra": 7986,
      "ĠViolet": 7987,
      "Ġproper": 7988,
      "Ġappearance": 7989,
      "Ġsimply": 7990,
      "Ġmosquitoes": 7991,
      "ĠMaya": 7992,
      "ĠOliver": 7993,
      "Ġinsects": 7994,
      "Ġcalf": 7995,
      "ĠAnother": 7996,
      "Ġencouragement": 7997,
      "Ġpupils": 7998,
      "ĠMaia": 7999,
      "Ġcupcake": 8000,
      "Julie": 8001,
      "Julia": 8002,
      "Ġcotton": 8003,
      "Ġdamage": 8004,
      "Ġdamaged": 8005,
      "Ġflashing": 8006,
      "Ġsteering": 8007,
      "Ġreassured": 8008,
      "Ġexpression": 8009,
      "Ġsuggestion": 8010,
      "Ġinspired": 8011,
      "Ġnearest": 8012,
      "Ġpanicked": 8013,
      "Ġunwra": 8014,
      "Suzie": 8015,
      "Ġlocal": 8016,
      "Ġconquered": 8017,
      "Ġawoke": 8018,
      "Ġconvinced": 8019,
      "Ġreunited": 8020,
      "Ġpeeped": 8021,
      "Ġnasty": 8022,
      "ĠHalloween": 8023,
      "Ġchosen": 8024,
      "Ġtownspeople": 8025,
      "'?\"": 8026,
      "?!\"": 8027,
      "Bang": 8028,
      "Che": 8029,
      "De": 8030,
      "Ellie": 8031,
      "Get": 8032,
      "Jessie": 8033,
      "Mimi": 8034,
      "Zoom": 8035,
      "bank": 8036,
      "cie": 8037,
      "crow": 8038,
      "jest": 8039,
      "just": 8040,
      "mie": 8041,
      "munk": 8042,
      "oard": 8043,
      "please": 8044,
      "rum": 8045,
      "rupt": 8046,
      "vant": 8047,
      "ÃĤ": 8048,
      "ĠYum": 8049,
      "Ġouch": 8050,
      "Ġtant": 8051,
      "Ġsou": 8052,
      "Ġwrench": 8053,
      "Ġtoss": 8054,
      "Ġtossed": 8055,
      "Ġborn": 8056,
      "Ġbitten": 8057,
      "innie": 8058,
      "Ġhood": 8059,
      "Ġhundred": 8060,
      "Ġfare": 8061,
      "ouched": 8062,
      "Ġcages": 8063,
      "Ġcongratul": 8064,
      "erg": 8065,
      "ĠTw": 8066,
      "ĠTara": 8067,
      "aylee": 8068,
      "atitude": 8069,
      "Ġhab": 8070,
      "ĠSid": 8071,
      "orter": 8072,
      "lets": 8073,
      "ĠHood": 8074,
      "otch": 8075,
      "ĠHello": 8076,
      "ckless": 8077,
      "Ġele": 8078,
      "ooly": 8079,
      "Ġroo": 8080,
      "rier": 8081,
      "Ġsoaking": 8082,
      "ĠBad": 8083,
      "ĠBoom": 8084,
      "ĠBonnie": 8085,
      "Ġform": 8086,
      "Ġforty": 8087,
      "Ġshorter": 8088,
      "Ġdolly": 8089,
      "Ġwhipped": 8090,
      "ĠMan": 8091,
      "Ġreckless": 8092,
      "Ġbond": 8093,
      "Ġjars": 8094,
      "ĠAunt": 8095,
      "ichell": 8096,
      "Ġknots": 8097,
      "getic": 8098,
      "Ġbirdhouse": 8099,
      "Ġgoodby": 8100,
      "ĠLi": 8101,
      "ĠLaser": 8102,
      "Ġchin": 8103,
      "Ġchilly": 8104,
      "Ġblown": 8105,
      "ĠEric": 8106,
      "ĠDespite": 8107,
      "ista": 8108,
      "Ġaboard": 8109,
      "Ġposter": 8110,
      "Ġhollow": 8111,
      "Ġtraded": 8112,
      "Ġtrotted": 8113,
      "Ġmoat": 8114,
      "Ġlongest": 8115,
      "izmo": 8116,
      "Ġsnug": 8117,
      "ilda": 8118,
      "Ġflowing": 8119,
      "Yesterday": 8120,
      "ĠCow": 8121,
      "ĠCra": 8122,
      "Ġdonkey": 8123,
      "Ġgratitude": 8124,
      "Ġcheated": 8125,
      "Ġgliding": 8126,
      "ÅĵThe": 8127,
      "Whenever": 8128,
      "ĠPink": 8129,
      "ĠPixie": 8130,
      "ĠPearl": 8131,
      "acles": 8132,
      "ĠSpeed": 8133,
      "ĠSpanish": 8134,
      "Ġforests": 8135,
      "ĠNice": 8136,
      "Ġdears": 8137,
      "Ġwarmer": 8138,
      "Ġsurely": 8139,
      "Ġfloppy": 8140,
      "issa": 8141,
      "Ġsandy": 8142,
      "shadow": 8143,
      "Ġparted": 8144,
      "Ġshoel": 8145,
      "ulars": 8146,
      "Ġsails": 8147,
      "Ġsailboat": 8148,
      "queak": 8149,
      "ĠGrand": 8150,
      "Ġvisits": 8151,
      "ances": 8152,
      "uggles": 8153,
      "Ġshaped": 8154,
      "Ġsprout": 8155,
      "asketball": 8156,
      "Ġpackages": 8157,
      "Ġbathing": 8158,
      "Ġbattle": 8159,
      "Ġdistract": 8160,
      "Ġpresented": 8161,
      "ĠOuch": 8162,
      "Ġsurvive": 8163,
      "izza": 8164,
      "Ġprotection": 8165,
      "Ġzookeepers": 8166,
      "ĠChick": 8167,
      "Everything": 8168,
      "Ġtests": 8169,
      "ĠAlan": 8170,
      "ĠAlison": 8171,
      "Ġqueens": 8172,
      "Ġself": 8173,
      "Ġpriest": 8174,
      "Beep": 8175,
      "Ġsqueak": 8176,
      "Ġhonesty": 8177,
      "Ġwiser": 8178,
      "Ġwisely": 8179,
      "illiam": 8180,
      "Ġchecking": 8181,
      "Meanwhile": 8182,
      "Ġrats": 8183,
      "Ġwealth": 8184,
      "Ġcops": 8185,
      "Ġfrowns": 8186,
      "ĠSnuggles": 8187,
      "Ġapologised": 8188,
      "Ġperformers": 8189,
      "Ġcuddling": 8190,
      "Ġscratching": 8191
    },
    "merges": [
      [
        "h",
        "e"
      ],
      [
        "Ġ",
        "t"
      ],
      [
        "Ġ",
        "a"
      ],
      [
        "Ġ",
        "s"
      ],
      [
        "Ġ",
        "w"
      ],
      [
        "n",
        "d"
      ],
      [
        "Ġt",
        "he"
      ],
      [
        "e",
        "d"
      ],
      [
        "Ġa",
        "nd"
      ],
      [
        "Ġt",
        "o"
      ],
      [
        "Ġ",
        "b"
      ],
      [
        "i",
        "n"
      ],
      [
        "Ġ",
        "h"
      ],
      [
        "Ġw",
        "a"
      ],
      [
        "r",
        "e"
      ],
      [
        "Ġ",
        "f"
      ],
      [
        "o",
        "u"
      ],
      [
        "i",
        "t"
      ],
      [
        "Ġ",
        "l"
      ],
      [
        "Ġ",
        "c"
      ],
      [
        "Ġ",
        "d"
      ],
      [
        "Ġ",
        "he"
      ],
      [
        "e",
        "r"
      ],
      [
        "Ġ",
        "m"
      ],
      [
        "Ġ",
        "p"
      ],
      [
        "Ġwa",
        "s"
      ],
      [
        "Ġ",
        "T"
      ],
      [
        "o",
        "m"
      ],
      [
        "Ġ",
        "o"
      ],
      [
        "a",
        "y"
      ],
      [
        "i",
        "s"
      ],
      [
        "a",
        "r"
      ],
      [
        "i",
        "l"
      ],
      [
        "in",
        "g"
      ],
      [
        "Ġ",
        "g"
      ],
      [
        "i",
        "d"
      ],
      [
        "a",
        "t"
      ],
      [
        "e",
        "n"
      ],
      [
        "Ġ",
        "n"
      ],
      [
        "Ġs",
        "a"
      ],
      [
        "Ġh",
        "a"
      ],
      [
        "Ġ",
        "S"
      ],
      [
        "ĠT",
        "he"
      ],
      [
        "a",
        "n"
      ],
      [
        "i",
        "m"
      ],
      [
        "o",
        "r"
      ],
      [
        "o",
        "n"
      ],
      [
        "Ġ",
        "it"
      ],
      [
        "Ġt",
        "h"
      ],
      [
        "l",
        "l"
      ],
      [
        "l",
        "e"
      ],
      [
        "Ġ",
        "H"
      ],
      [
        "Ġhe",
        "r"
      ],
      [
        "e",
        "t"
      ],
      [
        "o",
        "t"
      ],
      [
        "i",
        "r"
      ],
      [
        "ĠS",
        "he"
      ],
      [
        "ĠH",
        "e"
      ],
      [
        "e",
        "s"
      ],
      [
        "Ġ",
        "in"
      ],
      [
        "o",
        "w"
      ],
      [
        "u",
        "t"
      ],
      [
        "v",
        "er"
      ],
      [
        "ĠThe",
        "y"
      ],
      [
        "c",
        "k"
      ],
      [
        "il",
        "y"
      ],
      [
        "Ġ",
        "u"
      ],
      [
        "Ġ",
        "e"
      ],
      [
        "Ġ",
        "y"
      ],
      [
        "l",
        "d"
      ],
      [
        "o",
        "o"
      ],
      [
        "Ġsa",
        "id"
      ],
      [
        "i",
        "g"
      ],
      [
        "Ġ",
        "\""
      ],
      [
        "Ġ",
        "r"
      ],
      [
        "a",
        "m"
      ],
      [
        "Ġb",
        "e"
      ],
      [
        "Ġ",
        "I"
      ],
      [
        "Ġs",
        "t"
      ],
      [
        "L",
        "ily"
      ],
      [
        "it",
        "h"
      ],
      [
        "k",
        "e"
      ],
      [
        "c",
        "e"
      ],
      [
        "p",
        "p"
      ],
      [
        "v",
        "e"
      ],
      [
        "Ġw",
        "ith"
      ],
      [
        "Ġs",
        "he"
      ],
      [
        "O",
        "n"
      ],
      [
        "Ġo",
        "n"
      ],
      [
        "Ġy",
        "ou"
      ],
      [
        "r",
        "i"
      ],
      [
        "k",
        "ed"
      ],
      [
        "Ġp",
        "l"
      ],
      [
        "Ġh",
        "is"
      ],
      [
        "Ġo",
        "f"
      ],
      [
        "n",
        "t"
      ],
      [
        "Ġs",
        "o"
      ],
      [
        "a",
        "d"
      ],
      [
        "Ġd",
        "ay"
      ],
      [
        "ver",
        "y"
      ],
      [
        "Ġth",
        "at"
      ],
      [
        "Ġ",
        "Lily"
      ],
      [
        "Ġpl",
        "ay"
      ],
      [
        "Ġu",
        "p"
      ],
      [
        "Ġw",
        "e"
      ],
      [
        "Ġm",
        "om"
      ],
      [
        "Ġha",
        "d"
      ],
      [
        "Ġthe",
        "y"
      ],
      [
        "s",
        "t"
      ],
      [
        "Ġ",
        "B"
      ],
      [
        "e",
        "l"
      ],
      [
        "Ġf",
        "or"
      ],
      [
        "u",
        "n"
      ],
      [
        "m",
        "y"
      ],
      [
        "'",
        "s"
      ],
      [
        "ou",
        "ld"
      ],
      [
        "Ġl",
        "i"
      ],
      [
        "T",
        "he"
      ],
      [
        "Ġha",
        "pp"
      ],
      [
        "en",
        "t"
      ],
      [
        "c",
        "h"
      ],
      [
        "it",
        "t"
      ],
      [
        "Ġwa",
        "nt"
      ],
      [
        "he",
        "r"
      ],
      [
        "Ġs",
        "h"
      ],
      [
        "ou",
        "t"
      ],
      [
        "Ġd",
        "o"
      ],
      [
        "Ġn",
        "ot"
      ],
      [
        "e",
        "nd"
      ],
      [
        "om",
        "e"
      ],
      [
        "a",
        "ll"
      ],
      [
        "s",
        "e"
      ],
      [
        "Ġ",
        "very"
      ],
      [
        "ou",
        "nd"
      ],
      [
        "l",
        "y"
      ],
      [
        "im",
        "e"
      ],
      [
        "itt",
        "le"
      ],
      [
        "Ġ",
        "k"
      ],
      [
        "Ġt",
        "ime"
      ],
      [
        "Ġw",
        "h"
      ],
      [
        "Ġl",
        "ittle"
      ],
      [
        "Ġthe",
        "re"
      ],
      [
        "Ġn",
        "e"
      ],
      [
        "Ġ",
        "is"
      ],
      [
        "Ġb",
        "ig"
      ],
      [
        "h",
        "t"
      ],
      [
        "Ġhapp",
        "y"
      ],
      [
        "a",
        "l"
      ],
      [
        "Ġ",
        "M"
      ],
      [
        "Ġ",
        "re"
      ],
      [
        "Ġs",
        "m"
      ],
      [
        "ri",
        "end"
      ],
      [
        "Ġf",
        "riend"
      ],
      [
        "ĠI",
        "t"
      ],
      [
        "Ġsa",
        "w"
      ],
      [
        "Ġb",
        "ut"
      ],
      [
        ".",
        "\""
      ],
      [
        "r",
        "a"
      ],
      [
        "Ġa",
        "n"
      ],
      [
        "Ġ",
        "Ċ"
      ],
      [
        "Ġa",
        "s"
      ],
      [
        "r",
        "y"
      ],
      [
        "On",
        "e"
      ],
      [
        "a",
        "ck"
      ],
      [
        "id",
        "e"
      ],
      [
        "a",
        "ke"
      ],
      [
        "v",
        "ed"
      ],
      [
        "'",
        "t"
      ],
      [
        "!",
        "\""
      ],
      [
        "u",
        "g"
      ],
      [
        "t",
        "er"
      ],
      [
        "Ġl",
        "o"
      ],
      [
        "Ġl",
        "oo"
      ],
      [
        "On",
        "ce"
      ],
      [
        "Ġwe",
        "re"
      ],
      [
        "ĠT",
        "im"
      ],
      [
        "Ġs",
        "e"
      ],
      [
        "o",
        "re"
      ],
      [
        "Ġb",
        "o"
      ],
      [
        "Ġto",
        "o"
      ],
      [
        "Ġh",
        "im"
      ],
      [
        "Ġg",
        "o"
      ],
      [
        "Ġa",
        "re"
      ],
      [
        "e",
        "c"
      ],
      [
        "Ġup",
        "on"
      ],
      [
        "il",
        "l"
      ],
      [
        "ir",
        "l"
      ],
      [
        "Ġwant",
        "ed"
      ],
      [
        "Ġthe",
        "m"
      ],
      [
        "ar",
        "d"
      ],
      [
        "Ġ",
        "j"
      ],
      [
        "Ġg",
        "irl"
      ],
      [
        "Ġ",
        "out"
      ],
      [
        "Ġthe",
        "ir"
      ],
      [
        "Ġa",
        "t"
      ],
      [
        "i",
        "nd"
      ],
      [
        "w",
        "ay"
      ],
      [
        "u",
        "r"
      ],
      [
        "f",
        "u"
      ],
      [
        "Ġd",
        "id"
      ],
      [
        "Ġ",
        "A"
      ],
      [
        "Ġs",
        "p"
      ],
      [
        "Ġsm",
        "il"
      ],
      [
        "Ġc",
        "ould"
      ],
      [
        "he",
        "n"
      ],
      [
        "Ġha",
        "ve"
      ],
      [
        "a",
        "in"
      ],
      [
        "ĠB",
        "en"
      ],
      [
        "Ġw",
        "ent"
      ],
      [
        "he",
        "d"
      ],
      [
        "Ġn",
        "am"
      ],
      [
        "Ġc",
        "an"
      ],
      [
        "ar",
        "t"
      ],
      [
        "r",
        "om"
      ],
      [
        "l",
        "p"
      ],
      [
        "i",
        "c"
      ],
      [
        "Ġe",
        "x"
      ],
      [
        "r",
        "ound"
      ],
      [
        "Ġfriend",
        "s"
      ],
      [
        "?",
        "\""
      ],
      [
        "Ġhe",
        "lp"
      ],
      [
        "oo",
        "d"
      ],
      [
        "fu",
        "l"
      ],
      [
        "Ġk",
        "n"
      ],
      [
        "Ġ",
        "J"
      ],
      [
        "Ġa",
        "ll"
      ],
      [
        "h",
        "ing"
      ],
      [
        "ig",
        "ht"
      ],
      [
        "u",
        "m"
      ],
      [
        "ar",
        "k"
      ],
      [
        "Ġf",
        "un"
      ],
      [
        "on",
        "e"
      ],
      [
        "Ġs",
        "ay"
      ],
      [
        "Ġb",
        "ack"
      ],
      [
        "Y",
        "ou"
      ],
      [
        "Ġnam",
        "ed"
      ],
      [
        "a",
        "re"
      ],
      [
        "Ġc",
        "l"
      ],
      [
        "ĠT",
        "om"
      ],
      [
        "Ġn",
        "o"
      ],
      [
        "Ġl",
        "e"
      ],
      [
        "Ġlo",
        "ved"
      ],
      [
        "o",
        "p"
      ],
      [
        "el",
        "t"
      ],
      [
        "ĠTim",
        "my"
      ],
      [
        "Ġ",
        "One"
      ],
      [
        "ou",
        "g"
      ],
      [
        "Ġs",
        "c"
      ],
      [
        "Ġf",
        "elt"
      ],
      [
        "Ġto",
        "y"
      ],
      [
        "Ġsmil",
        "ed"
      ],
      [
        "Ġa",
        "l"
      ],
      [
        "Ġas",
        "ked"
      ],
      [
        "i",
        "ck"
      ],
      [
        "s",
        "ide"
      ],
      [
        "Ġli",
        "ke"
      ],
      [
        "Ġf",
        "e"
      ],
      [
        "Ġloo",
        "ked"
      ],
      [
        "Ġse",
        "e"
      ],
      [
        "Ġm",
        "an"
      ],
      [
        "am",
        "e"
      ],
      [
        "Ġb",
        "ir"
      ],
      [
        "Ġr",
        "o"
      ],
      [
        "g",
        "et"
      ],
      [
        "Ġm",
        "e"
      ],
      [
        "Ġ",
        "W"
      ],
      [
        "Ġa",
        "round"
      ],
      [
        "Ġs",
        "ome"
      ],
      [
        "u",
        "re"
      ],
      [
        "Ġb",
        "r"
      ],
      [
        "Ġbo",
        "y"
      ],
      [
        "om",
        "et"
      ],
      [
        "Ġbir",
        "d"
      ],
      [
        "on",
        "g"
      ],
      [
        "i",
        "ce"
      ],
      [
        "Ġw",
        "ould"
      ],
      [
        "a",
        "s"
      ],
      [
        "Ġst",
        "art"
      ],
      [
        "d",
        "d"
      ],
      [
        "Ġw",
        "or"
      ],
      [
        "Ġa",
        "g"
      ],
      [
        ",",
        "\""
      ],
      [
        "Ġt",
        "re"
      ],
      [
        "get",
        "her"
      ],
      [
        "ing",
        "s"
      ],
      [
        "ad",
        "e"
      ],
      [
        "a",
        "g"
      ],
      [
        "Ġs",
        "omet"
      ],
      [
        "Ġm",
        "ake"
      ],
      [
        "Ġf",
        "a"
      ],
      [
        "ow",
        "n"
      ],
      [
        "ĠB",
        "ut"
      ],
      [
        "Ġ",
        "You"
      ],
      [
        "Ġwh",
        "at"
      ],
      [
        "k",
        "ing"
      ],
      [
        "Ġa",
        "way"
      ],
      [
        "Ġto",
        "gether"
      ],
      [
        "Ġsay",
        "s"
      ],
      [
        "Ġr",
        "an"
      ],
      [
        "ou",
        "d"
      ],
      [
        "Ã",
        "¢"
      ],
      [
        "â",
        "Ĥ"
      ],
      [
        "âĤ",
        "¬"
      ],
      [
        "Ġstart",
        "ed"
      ],
      [
        "Ġp",
        "ark"
      ],
      [
        "ar",
        "ed"
      ],
      [
        "Ġm",
        "ade"
      ],
      [
        "Ġc",
        "o"
      ],
      [
        "i",
        "f"
      ],
      [
        "i",
        "e"
      ],
      [
        "Ġsa",
        "d"
      ],
      [
        "Ġp",
        "ut"
      ],
      [
        "Ġo",
        "t"
      ],
      [
        "Ġc",
        "ar"
      ],
      [
        "Ġne",
        "w"
      ],
      [
        "Ġsomet",
        "hing"
      ],
      [
        "it",
        "ed"
      ],
      [
        "Ġot",
        "her"
      ],
      [
        "Ġp",
        "r"
      ],
      [
        "e",
        "ll"
      ],
      [
        "Ġf",
        "rom"
      ],
      [
        "Ġag",
        "ain"
      ],
      [
        "b",
        "le"
      ],
      [
        "oo",
        "k"
      ],
      [
        "Ġf",
        "l"
      ],
      [
        "Ġh",
        "ug"
      ],
      [
        "Ġg",
        "ood"
      ],
      [
        "Ġh",
        "ome"
      ],
      [
        "Ġm",
        "u"
      ],
      [
        "Ġex",
        "c"
      ],
      [
        "Ġl",
        "a"
      ],
      [
        "Ġw",
        "hen"
      ],
      [
        "ri",
        "ed"
      ],
      [
        "Ġ",
        "L"
      ],
      [
        "Ġf",
        "ound"
      ],
      [
        "Ġwh",
        "o"
      ],
      [
        "a",
        "ch"
      ],
      [
        "e",
        "p"
      ],
      [
        "s",
        "s"
      ],
      [
        "es",
        "t"
      ],
      [
        "h",
        "at"
      ],
      [
        "pp",
        "ed"
      ],
      [
        "oug",
        "ht"
      ],
      [
        "Ġplay",
        "ing"
      ],
      [
        "u",
        "e"
      ],
      [
        "Ġthe",
        "n"
      ],
      [
        "Ġs",
        "w"
      ],
      [
        "Ġc",
        "h"
      ],
      [
        "Ġd",
        "ec"
      ],
      [
        "Ġwa",
        "l"
      ],
      [
        "Ġg",
        "et"
      ],
      [
        "ou",
        "s"
      ],
      [
        "u",
        "ck"
      ],
      [
        "p",
        "l"
      ],
      [
        "Ġth",
        "ings"
      ],
      [
        "Ġb",
        "l"
      ],
      [
        "all",
        "y"
      ],
      [
        "Ġg",
        "ot"
      ],
      [
        "r",
        "o"
      ],
      [
        "n",
        "n"
      ],
      [
        "Ġli",
        "ked"
      ],
      [
        "a",
        "ve"
      ],
      [
        "Ġdo",
        "g"
      ],
      [
        "Ġexc",
        "ited"
      ],
      [
        "Ġ",
        "E"
      ],
      [
        "Ġc",
        "ame"
      ],
      [
        "Ġyou",
        "r"
      ],
      [
        "Ġe",
        "very"
      ],
      [
        "a",
        "x"
      ],
      [
        "Ġdec",
        "id"
      ],
      [
        "Ġbe",
        "c"
      ],
      [
        "Ġd",
        "own"
      ],
      [
        "Ġdecid",
        "ed"
      ],
      [
        "Ġc",
        "are"
      ],
      [
        "Ġf",
        "ind"
      ],
      [
        "Ġd",
        "ad"
      ],
      [
        "ou",
        "se"
      ],
      [
        "n",
        "y"
      ],
      [
        "u",
        "st"
      ],
      [
        "Ġ",
        "D"
      ],
      [
        "Ġ",
        "v"
      ],
      [
        "ar",
        "a"
      ],
      [
        "is",
        "t"
      ],
      [
        "Ġon",
        "e"
      ],
      [
        "Ġfe",
        "el"
      ],
      [
        "Ġsc",
        "ared"
      ],
      [
        "The",
        "y"
      ],
      [
        "Ġa",
        "b"
      ],
      [
        "Ġth",
        "an"
      ],
      [
        "Ġt",
        "a"
      ],
      [
        "ĠM",
        "om"
      ],
      [
        "Ġm",
        "y"
      ],
      [
        "Ġtre",
        "e"
      ],
      [
        "Ġw",
        "ill"
      ],
      [
        "u",
        "s"
      ],
      [
        "u",
        "dd"
      ],
      [
        "q",
        "u"
      ],
      [
        "Ġtoy",
        "s"
      ],
      [
        "ar",
        "n"
      ],
      [
        "way",
        "s"
      ],
      [
        "er",
        "s"
      ],
      [
        "ou",
        "r"
      ],
      [
        "Ġ",
        "F"
      ],
      [
        "Ġdid",
        "n"
      ],
      [
        "Ġtoo",
        "k"
      ],
      [
        "Ġg",
        "ra"
      ],
      [
        "nn",
        "a"
      ],
      [
        "Ġb",
        "all"
      ],
      [
        "Ġal",
        "ways"
      ],
      [
        "Ġab",
        "out"
      ],
      [
        "Ġp",
        "o"
      ],
      [
        "es",
        "s"
      ],
      [
        "nd",
        "er"
      ],
      [
        "Ġloo",
        "k"
      ],
      [
        "Ġmom",
        "my"
      ],
      [
        "Ġth",
        "ought"
      ],
      [
        "it",
        "e"
      ],
      [
        "an",
        "t"
      ],
      [
        "f",
        "e"
      ],
      [
        "Ġl",
        "ot"
      ],
      [
        "Ġkn",
        "e"
      ],
      [
        "Ġ",
        "ke"
      ],
      [
        "Ġout",
        "side"
      ],
      [
        "is",
        "e"
      ],
      [
        "Ġm",
        "ore"
      ],
      [
        "a",
        "p"
      ],
      [
        "re",
        "t"
      ],
      [
        "g",
        "ed"
      ],
      [
        "Ġle",
        "arn"
      ],
      [
        "Ġkn",
        "ow"
      ],
      [
        "Ġh",
        "o"
      ],
      [
        "c",
        "hed"
      ],
      [
        "en",
        "ed"
      ],
      [
        "Ġin",
        "t"
      ],
      [
        "b",
        "b"
      ],
      [
        "Ġla",
        "ug"
      ],
      [
        "Ġc",
        "at"
      ],
      [
        "Ġs",
        "or"
      ],
      [
        "Ġo",
        "ld"
      ],
      [
        "ĠM",
        "ax"
      ],
      [
        "Ġt",
        "ake"
      ],
      [
        "ec",
        "i"
      ],
      [
        "ĠS",
        "am"
      ],
      [
        "i",
        "a"
      ],
      [
        "f",
        "ter"
      ],
      [
        "i",
        "ve"
      ],
      [
        "Ġan",
        "y"
      ],
      [
        "m",
        "a"
      ],
      [
        "Ġp",
        "e"
      ],
      [
        "Ġkne",
        "w"
      ],
      [
        "Ġt",
        "r"
      ],
      [
        "Ġh",
        "ow"
      ],
      [
        "udd",
        "en"
      ],
      [
        "eci",
        "al"
      ],
      [
        "Ġsp",
        "ecial"
      ],
      [
        "Ġs",
        "l"
      ],
      [
        "a",
        "u"
      ],
      [
        "Ġsh",
        "ow"
      ],
      [
        "Ġsor",
        "ry"
      ],
      [
        "Ġh",
        "ouse"
      ],
      [
        "udden",
        "ly"
      ],
      [
        "Ġmu",
        "ch"
      ],
      [
        "Ġr",
        "un"
      ],
      [
        "a",
        "nd"
      ],
      [
        "B",
        "ut"
      ],
      [
        "is",
        "h"
      ],
      [
        "Ġs",
        "un"
      ],
      [
        "an",
        "k"
      ],
      [
        "Ġto",
        "ld"
      ],
      [
        "v",
        "en"
      ],
      [
        "Ġt",
        "w"
      ],
      [
        "Ġo",
        "p"
      ],
      [
        "Ġha",
        "nd"
      ],
      [
        "Ġo",
        "r"
      ],
      [
        "Ġm",
        "o"
      ],
      [
        "Ġs",
        "k"
      ],
      [
        "Ġint",
        "o"
      ],
      [
        "Ġplay",
        "ed"
      ],
      [
        "in",
        "k"
      ],
      [
        "Ġwa",
        "ter"
      ],
      [
        "t",
        "y"
      ],
      [
        "Ġg",
        "ave"
      ],
      [
        "Ġt",
        "ried"
      ],
      [
        "Ġcl",
        "o"
      ],
      [
        "Ġe",
        "at"
      ],
      [
        "Ġpr",
        "oud"
      ],
      [
        "ot",
        "her"
      ],
[...]
